{
  "version": "1.0",
  "truncation": null,
  "padding": null,
  "added_tokens": [
    {
      "id": 0,
      "content": "<|endoftext|>",
      "single_word": false,
      "lstrip": false,
      "rstrip": false,
      "normalized": false,
      "special": true
    },
    {
      "id": 1,
      "content": "<|pad|>",
      "single_word": false,
      "lstrip": false,
      "rstrip": false,
      "normalized": false,
      "special": true
    },
    {
      "id": 2,
      "content": "<|system|>",
      "single_word": false,
      "lstrip": false,
      "rstrip": false,
      "normalized": false,
      "special": true
    },
    {
      "id": 3,
      "content": "<|user|>",
      "single_word": false,
      "lstrip": false,
      "rstrip": false,
      "normalized": false,
      "special": true
    },
    {
      "id": 4,
      "content": "<|assistant|>",
      "single_word": false,
      "lstrip": false,
      "rstrip": false,
      "normalized": false,
      "special": true
    },
    {
      "id": 5,
      "content": "<|thinking|>",
      "single_word": false,
      "lstrip": false,
      "rstrip": false,
      "normalized": false,
      "special": true
    },
    {
      "id": 6,
      "content": "<|answer|>",
      "single_word": false,
      "lstrip": false,
      "rstrip": false,
      "normalized": false,
      "special": true
    },
    {
      "id": 7,
      "content": "<|search|>",
      "single_word": false,
      "lstrip": false,
      "rstrip": false,
      "normalized": false,
      "special": true
    },
    {
      "id": 8,
      "content": "<|result|>",
      "single_word": false,
      "lstrip": false,
      "rstrip": false,
      "normalized": false,
      "special": true
    },
    {
      "id": 9,
      "content": "<|tool|>",
      "single_word": false,
      "lstrip": false,
      "rstrip": false,
      "normalized": false,
      "special": true
    }
  ],
  "normalizer": null,
  "pre_tokenizer": {
    "type": "Sequence",
    "pretokenizers": [
      {
        "type": "Split",
        "pattern": {
          "Regex": "'s|'t|'re|'ve|'m|'ll|'d| ?0[xX][0-9a-fA-F]+| ?\\p{L}+| ?[0-9]| ?[^\\s\\p{L}\\p{N}]+|\\s+(?!\\S)|\\s+"
        },
        "behavior": "Isolated",
        "invert": false
      },
      {
        "type": "ByteLevel",
        "add_prefix_space": false,
        "trim_offsets": true,
        "use_regex": false
      }
    ]
  },
  "post_processor": null,
  "decoder": {
    "type": "ByteLevel",
    "add_prefix_space": true,
    "trim_offsets": true,
    "use_regex": true
  },
  "model": {
    "type": "BPE",
    "dropout": null,
    "unk_token": null,
    "continuing_subword_prefix": null,
    "end_of_word_suffix": null,
    "fuse_unk": false,
    "byte_fallback": false,
    "ignore_merges": false,
    "vocab": {
      "<|endoftext|>": 0,
      "<|pad|>": 1,
      "<|system|>": 2,
      "<|user|>": 3,
      "<|assistant|>": 4,
      "<|thinking|>": 5,
      "<|answer|>": 6,
      "<|search|>": 7,
      "<|result|>": 8,
      "<|tool|>": 9,
      "!": 10,
      "\"": 11,
      "#": 12,
      "$": 13,
      "%": 14,
      "&": 15,
      "'": 16,
      "(": 17,
      ")": 18,
      "*": 19,
      "+": 20,
      ",": 21,
      "-": 22,
      ".": 23,
      "/": 24,
      "0": 25,
      "1": 26,
      "2": 27,
      "3": 28,
      "4": 29,
      "5": 30,
      "6": 31,
      "7": 32,
      "8": 33,
      "9": 34,
      ":": 35,
      ";": 36,
      "<": 37,
      "=": 38,
      ">": 39,
      "?": 40,
      "@": 41,
      "A": 42,
      "B": 43,
      "C": 44,
      "D": 45,
      "E": 46,
      "F": 47,
      "G": 48,
      "H": 49,
      "I": 50,
      "J": 51,
      "K": 52,
      "L": 53,
      "M": 54,
      "N": 55,
      "O": 56,
      "P": 57,
      "Q": 58,
      "R": 59,
      "S": 60,
      "T": 61,
      "U": 62,
      "V": 63,
      "W": 64,
      "X": 65,
      "Y": 66,
      "Z": 67,
      "[": 68,
      "\\": 69,
      "]": 70,
      "^": 71,
      "_": 72,
      "`": 73,
      "a": 74,
      "b": 75,
      "c": 76,
      "d": 77,
      "e": 78,
      "f": 79,
      "g": 80,
      "h": 81,
      "i": 82,
      "j": 83,
      "k": 84,
      "l": 85,
      "m": 86,
      "n": 87,
      "o": 88,
      "p": 89,
      "q": 90,
      "r": 91,
      "s": 92,
      "t": 93,
      "u": 94,
      "v": 95,
      "w": 96,
      "x": 97,
      "y": 98,
      "z": 99,
      "{": 100,
      "|": 101,
      "}": 102,
      "~": 103,
      "¡": 104,
      "¢": 105,
      "£": 106,
      "¤": 107,
      "¥": 108,
      "¦": 109,
      "§": 110,
      "¨": 111,
      "©": 112,
      "ª": 113,
      "«": 114,
      "¬": 115,
      "®": 116,
      "¯": 117,
      "°": 118,
      "±": 119,
      "²": 120,
      "³": 121,
      "´": 122,
      "µ": 123,
      "¶": 124,
      "·": 125,
      "¸": 126,
      "¹": 127,
      "º": 128,
      "»": 129,
      "¼": 130,
      "½": 131,
      "¾": 132,
      "¿": 133,
      "À": 134,
      "Á": 135,
      "Â": 136,
      "Ã": 137,
      "Ä": 138,
      "Å": 139,
      "Æ": 140,
      "Ç": 141,
      "È": 142,
      "É": 143,
      "Ê": 144,
      "Ë": 145,
      "Ì": 146,
      "Í": 147,
      "Î": 148,
      "Ï": 149,
      "Ð": 150,
      "Ñ": 151,
      "Ò": 152,
      "Ó": 153,
      "Ô": 154,
      "Õ": 155,
      "Ö": 156,
      "×": 157,
      "Ø": 158,
      "Ù": 159,
      "Ú": 160,
      "Û": 161,
      "Ü": 162,
      "Ý": 163,
      "Þ": 164,
      "ß": 165,
      "à": 166,
      "á": 167,
      "â": 168,
      "ã": 169,
      "ä": 170,
      "å": 171,
      "æ": 172,
      "ç": 173,
      "è": 174,
      "é": 175,
      "ê": 176,
      "ë": 177,
      "ì": 178,
      "í": 179,
      "î": 180,
      "ï": 181,
      "ð": 182,
      "ñ": 183,
      "ò": 184,
      "ó": 185,
      "ô": 186,
      "õ": 187,
      "ö": 188,
      "÷": 189,
      "ø": 190,
      "ù": 191,
      "ú": 192,
      "û": 193,
      "ü": 194,
      "ý": 195,
      "þ": 196,
      "ÿ": 197,
      "Ā": 198,
      "ā": 199,
      "Ă": 200,
      "ă": 201,
      "Ą": 202,
      "ą": 203,
      "Ć": 204,
      "ć": 205,
      "Ĉ": 206,
      "ĉ": 207,
      "Ċ": 208,
      "ċ": 209,
      "Č": 210,
      "č": 211,
      "Ď": 212,
      "ď": 213,
      "Đ": 214,
      "đ": 215,
      "Ē": 216,
      "ē": 217,
      "Ĕ": 218,
      "ĕ": 219,
      "Ė": 220,
      "ė": 221,
      "Ę": 222,
      "ę": 223,
      "Ě": 224,
      "ě": 225,
      "Ĝ": 226,
      "ĝ": 227,
      "Ğ": 228,
      "ğ": 229,
      "Ġ": 230,
      "ġ": 231,
      "Ģ": 232,
      "ģ": 233,
      "Ĥ": 234,
      "ĥ": 235,
      "Ħ": 236,
      "ħ": 237,
      "Ĩ": 238,
      "ĩ": 239,
      "Ī": 240,
      "ī": 241,
      "Ĭ": 242,
      "ĭ": 243,
      "Į": 244,
      "į": 245,
      "İ": 246,
      "ı": 247,
      "Ĳ": 248,
      "ĳ": 249,
      "Ĵ": 250,
      "ĵ": 251,
      "Ķ": 252,
      "ķ": 253,
      "ĸ": 254,
      "Ĺ": 255,
      "ĺ": 256,
      "Ļ": 257,
      "ļ": 258,
      "Ľ": 259,
      "ľ": 260,
      "Ŀ": 261,
      "ŀ": 262,
      "Ł": 263,
      "ł": 264,
      "Ń": 265,
      "Ġt": 266,
      "he": 267,
      "Ġa": 268,
      "in": 269,
      "Ġthe": 270,
      "er": 271,
      "on": 272,
      "Ġ,": 273,
      "re": 274,
      "Ġs": 275,
      "ed": 276,
      "Ġw": 277,
      "Ġo": 278,
      "nd": 279,
      "at": 280,
      "Ġ.": 281,
      "or": 282,
      "en": 283,
      "Ġc": 284,
      "it": 285,
      "Ġf": 286,
      "is": 287,
      "es": 288,
      "Ġb": 289,
      "ar": 290,
      "Ġof": 291,
      "an": 292,
      "Ġin": 293,
      "al": 294,
      "ing": 295,
      "Ġp": 296,
      "as": 297,
      "Ġand": 298,
      "Ġto": 299,
      "ic": 300,
      "Ġm": 301,
      "ro": 302,
      "Ġd": 303,
      "Ġh": 304,
      "ion": 305,
      "le": 306,
      "ou": 307,
      "Ġ1": 308,
      "Ġ0": 309,
      "Ġre": 310,
      "ĠT": 311,
      "Ġth": 312,
      "il": 313,
      "Ġ\"": 314,
      "ent": 315,
      "ĠS": 316,
      "ĠA": 317,
      "st": 318,
      "Ġl": 319,
      "el": 320,
      "am": 321,
      "Ġe": 322,
      "om": 323,
      "Ġn": 324,
      "Ġ@": 325,
      "ĠC": 326,
      "ad": 327,
      "Ġwas": 328,
      "ac": 329,
      "ĠM": 330,
      "Ġon": 331,
      "Ġ2": 332,
      "ec": 333,
      "ly": 334,
      "ur": 335,
      "Ġg": 336,
      "et": 337,
      "Ġ'": 338,
      "ol": 339,
      "ĠB": 340,
      "id": 341,
      "im": 342,
      "Ġ9": 343,
      "ir": 344,
      "Ġfor": 345,
      "iv": 346,
      "ig": 347,
      "-@": 348,
      "Ġ@-@": 349,
      "ot": 350,
      "ter": 351,
      "ĠI": 352,
      "ĠThe": 353,
      "Ġas": 354,
      "ow": 355,
      "ut": 356,
      "us": 357,
      "ĠH": 358,
      "ith": 359,
      "Ġst": 360,
      "ay": 361,
      "Ġthat": 362,
      "Ġhe": 363,
      "ver": 364,
      "Ġbe": 365,
      "Ġwith": 366,
      "ation": 367,
      "ĠP": 368,
      "ce": 369,
      "un": 370,
      "Ġwh": 371,
      "em": 372,
      "ĠD": 373,
      "ĠR": 374,
      "Ġby": 375,
      "Ġis": 376,
      "ch": 377,
      "th": 378,
      "Ġcon": 379,
      "ul": 380,
      "Ġal": 381,
      "ra": 382,
      "ĠW": 383,
      "ĠF": 384,
      "Ġat": 385,
      "ct": 386,
      "ers": 387,
      "os": 388,
      "Ġan": 389,
      "Ġit": 390,
      "ĠG": 391,
      "ĠN": 392,
      "Ġ)": 393,
      "her": 394,
      "ĠL": 395,
      "Ġ(": 396,
      "rom": 397,
      "Ġ8": 398,
      "Ġ3": 399,
      "and": 400,
      "Ġ5": 401,
      "um": 402,
      "est": 403,
      "Ġhis": 404,
      "ag": 405,
      "ĠJ": 406,
      "ain": 407,
      "av": 408,
      "Ġ4": 409,
      "ri": 410,
      "od": 411,
      "Ġfrom": 412,
      "Ġ6": 413,
      "ĠE": 414,
      "ist": 415,
      "Ġcom": 416,
      "Ġpro": 417,
      "Ġ7": 418,
      "Ġv": 419,
      "ld": 420,
      "ore": 421,
      "if": 422,
      "pp": 423,
      "ill": 424,
      "Ġr": 425,
      "ies": 426,
      "Ġsu": 427,
      "ĠO": 428,
      "ere": 429,
      "ew": 430,
      "res": 431,
      "op": 432,
      "ort": 433,
      "Ġse": 434,
      "igh": 435,
      "Ġde": 436,
      "all": 437,
      "Ġwere": 438,
      "ich": 439,
      "art": 440,
      "ak": 441,
      "ate": 442,
      "ard": 443,
      "ber": 444,
      "Ġor": 445,
      "ant": 446,
      "ong": 447,
      "Ġex": 448,
      "Ġch": 449,
      "qu": 450,
      "oc": 451,
      "ame": 452,
      "gh": 453,
      "ud": 454,
      "ab": 455,
      "ess": 456,
      "ear": 457,
      "ated": 458,
      "Ġpl": 459,
      "ity": 460,
      "Ġsh": 461,
      "ive": 462,
      "rou": 463,
      "ĠIn": 464,
      "Ġhad": 465,
      "ap": 466,
      "ect": 467,
      "ĠK": 468,
      "Ġare": 469,
      "se": 470,
      "Ġwhich": 471,
      "ĠU": 472,
      "ack": 473,
      "ip": 474,
      "red": 475,
      "Ġk": 476,
      "Ġle": 477,
      "ge": 478,
      "ast": 479,
      "Ġâ": 480,
      "Ġsp": 481,
      "Ġy": 482,
      "Ġnot": 483,
      "ally": 484,
      "ov": 485,
      "ment": 486,
      "ian": 487,
      "our": 488,
      "ell": 489,
      "ĠâĢ": 490,
      "ĠSt": 491,
      "rit": 492,
      "ost": 493,
      "ord": 494,
      "ight": 495,
      "pt": 496,
      "Ġu": 497,
      "ine": 498,
      "ia": 499,
      "ther": 500,
      "ary": 501,
      "ave": 502,
      "oun": 503,
      "ust": 504,
      "Ġun": 505,
      "irst": 506,
      "cc": 507,
      "Ġbut": 508,
      "ould": 509,
      "ish": 510,
      "Ġinc": 511,
      "ous": 512,
      "ĠCh": 513,
      "fter": 514,
      "Ġcont": 515,
      "Ġint": 516,
      "ial": 517,
      "so": 518,
      "ĠV": 519,
      "Ġwhe": 520,
      "Ġcomp": 521,
      "Ġtheir": 522,
      "ru": 523,
      "Ġfirst": 524,
      "ions": 525,
      "ure": 526,
      "Ġits": 527,
      "Ġar": 528,
      "ide": 529,
      "ff": 530,
      "ok": 531,
      "og": 532,
      "ie": 533,
      "out": 534,
      "Ġcl": 535,
      "ĠHe": 536,
      "ical": 537,
      "Ġus": 538,
      "ign": 539,
      "Ġ;": 540,
      "ue": 541,
      "ran": 542,
      "end": 543,
      "per": 544,
      "wo": 545,
      "Ġher": 546,
      "hed": 547,
      "ass": 548,
      "Ġab": 549,
      "ub": 550,
      "Ġalso": 551,
      "ater": 552,
      "Ġres": 553,
      "Ġad": 554,
      "mer": 555,
      "ome": 556,
      "ork": 557,
      "own": 558,
      "ire": 559,
      "ond": 560,
      "Ġone": 561,
      "ry": 562,
      "Ġhave": 563,
      "ime": 564,
      "Ġrec": 565,
      "low": 566,
      "Ġwho": 567,
      "du": 568,
      "age": 569,
      "Ġro": 570,
      "orm": 571,
      "Ġper": 572,
      "ĠâĢĵ": 573,
      "ted": 574,
      "Ġsc": 575,
      "ile": 576,
      "iz": 577,
      "ree": 578,
      "Ġbec": 579,
      "Ġtwo": 580,
      "ence": 581,
      "Ġbeen": 582,
      "ough": 583,
      "pl": 584,
      "ĠTh": 585,
      "Ġhas": 586,
      "ts": 587,
      "The": 588,
      "uring": 589,
      "Ġdis": 590,
      "Ġthis": 591,
      "Ġyear": 592,
      "Ġapp": 593,
      "land": 594,
      "Ġag": 595,
      "Ġover": 596,
      "ition": 597,
      "Ġpart": 598,
      "Ġen": 599,
      "ely": 600,
      "Ġj": 601,
      "Ġplay": 602,
      "Ġthey": 603,
      ".@": 604,
      "Ġ@.@": 605,
      "Ġdes": 606,
      "ations": 607,
      "ric": 608,
      "lud": 609,
      "ade": 610,
      "Ġ:": 611,
      "ke": 612,
      "ory": 613,
      "Ġser": 614,
      "ach": 615,
      "Ġother": 616,
      "Ġoff": 617,
      "Ġman": 618,
      "Ġafter": 619,
      "ice": 620,
      "are": 621,
      "ound": 622,
      "over": 623,
      "ib": 624,
      "Ġim": 625,
      "Ġout": 626,
      "ĠAl": 627,
      "ĠIt": 628,
      "ember": 629,
      "urn": 630,
      "Ġatt": 631,
      "ction": 632,
      "ult": 633,
      "wn": 634,
      "ite": 635,
      ",@": 636,
      "Ġ@,@": 637,
      "ace": 638,
      "Ġup": 639,
      "ance": 640,
      "te": 641,
      "ark": 642,
      "ress": 643,
      "act": 644,
      "Ġtime": 645,
      "ced": 646,
      "ĠY": 647,
      "Ġinclud": 648,
      "Ġpre": 649,
      "Ġwould": 650,
      "Ġhim": 651,
      "ph": 652,
      "Ġte": 653,
      "rough": 654,
      "Ġinto": 655,
      "man": 656,
      "ens": 657,
      "we": 658,
      "ind": 659,
      "Ġev": 660,
      "oin": 661,
      "Ġwe": 662,
      "vel": 663,
      "ings": 664,
      "ey": 665,
      "ĠUn": 666,
      "Ġne": 667,
      "les": 668,
      "ors": 669,
      "Ġshe": 670,
      "ang": 671,
      "ward": 672,
      "Ġmore": 673,
      "ates": 674,
      "amp": 675,
      "ited": 676,
      "nder": 677,
      "Ġcomm": 678,
      "port": 679,
      "ount": 680,
      "ased": 681,
      "ild": 682,
      "Ġall": 683,
      "ied": 684,
      "ren": 685,
      "Ġinter": 686,
      "ason": 687,
      "round": 688,
      "ood": 689,
      "ep": 690,
      "ose": 691,
      "able": 692,
      "ase": 693,
      "rib": 694,
      "Ġgame": 695,
      "Ġwork": 696,
      "oy": 697,
      "Ġwhen": 698,
      "ents": 699,
      "ered": 700,
      "iss": 701,
      "ail": 702,
      "Ġbet": 703,
      "fer": 704,
      "Ġnew": 705,
      "ces": 706,
      "Ġfe": 707,
      "old": 708,
      "Ġsec": 709,
      "ious": 710,
      "aus": 711,
      "one": 712,
      "Ġcons": 713,
      "ft": 714,
      "Ġthem": 715,
      "reat": 716,
      "Ġcent": 717,
      "att": 718,
      "gan": 719,
      "ick": 720,
      "ake": 721,
      "aw": 722,
      "Ġrem": 723,
      "inal": 724,
      "ilm": 725,
      "ubl": 726,
      "ix": 727,
      "Ġonly": 728,
      "Ġdec": 729,
      "form": 730,
      "ved": 731,
      "Ġmost": 732,
      "way": 733,
      "ĠOn": 734,
      "Ġtr": 735,
      "Ġduring": 736,
      "ween": 737,
      "Ġear": 738,
      "Ġkn": 739,
      "oth": 740,
      "ss": 741,
      "Ġsong": 742,
      "orth": 743,
      "ron": 744,
      "Ġcan": 745,
      "ĠMar": 746,
      "Ġthan": 747,
      "Ġagain": 748,
      "ve": 749,
      "ollow": 750,
      "ath": 751,
      "ans": 752,
      "Ġfl": 753,
      "rop": 754,
      "Ġabout": 755,
      "ĠSe": 756,
      "ĠAn": 757,
      "Ġme": 758,
      "Ġbu": 759,
      "Ġthree": 760,
      "Ġbetween": 761,
      "iew": 762,
      "fore": 763,
      "Ġlater": 764,
      "Ġchar": 765,
      "als": 766,
      "hip": 767,
      "tern": 768,
      "Ġcol": 769,
      "Ġseason": 770,
      "Ġthrough": 771,
      "outh": 772,
      "ict": 773,
      "Ġret": 774,
      "Ġprodu": 775,
      "orn": 776,
      "Ġunder": 777,
      "Ġqu": 778,
      "Ġact": 779,
      "ug": 780,
      "hn": 781,
      "Ġra": 782,
      "Ġso": 783,
      "ames": 784,
      "ational": 785,
      "Ġfilm": 786,
      "Ġrel": 787,
      "Ġend": 788,
      "ob": 789,
      "ook": 790,
      "orld": 791,
      "Ġver": 792,
      "ons": 793,
      "ock": 794,
      "Ġwhile": 795,
      "ular": 796,
      "Ġrecord": 797,
      "Ġrele": 798,
      "ĠNew": 799,
      "Ġacc": 800,
      "ating": 801,
      "ĠAr": 802,
      "ever": 803,
      "ision": 804,
      "meric": 805,
      "lect": 806,
      "Ġpos": 807,
      "Ġnum": 808,
      "ĠAmeric": 809,
      "Ġmade": 810,
      "Ġpr": 811,
      "Ġreg": 812,
      "Ġwrit": 813,
      "Ġwhere": 814,
      "Ġpe": 815,
      "ished": 816,
      "Ġass": 817,
      "ener": 818,
      "Ġac": 819,
      "Ġep": 820,
      "ters": 821,
      "Ġsuch": 822,
      "Ġsub": 823,
      "ton": 824,
      "ived": 825,
      "Ġspec": 826,
      "In": 827,
      "ning": 828,
      "Ġsecond": 829,
      "Ġday": 830,
      "Ġform": 831,
      "ĠEn": 832,
      "bum": 833,
      "ral": 834,
      "Ġcall": 835,
      "ool": 836,
      "Ġfour": 837,
      "Ġam": 838,
      "Ġmov": 839,
      "Ġfollow": 840,
      "ĠCom": 841,
      "Ġused": 842,
      "Ġlar": 843,
      "hen": 844,
      "aid": 845,
      "Ġsome": 846,
      "ific": 847,
      "Ġbefore": 848,
      "Ġmus": 849,
      "Ġthere": 850,
      "Ġtra": 851,
      "ode": 852,
      "Ġdef": 853,
      "Ġind": 854,
      "ike": 855,
      "ury": 856,
      "io": 857,
      "hes": 858,
      "ll": 859,
      "ics": 860,
      "iel": 861,
      "Ġpubl": 862,
      "Ġepis": 863,
      "Ġyears": 864,
      "Ġalbum": 865,
      "ual": 866,
      "Ġno": 867,
      "ĠThis": 868,
      "Ġsy": 869,
      "Ġbl": 870,
      "ĠLe": 871,
      "Ġdo": 872,
      "rans": 873,
      "owever": 874,
      "ĠJo": 875,
      "Ġmon": 876,
      "Ġent": 877,
      "Ġbeing": 878,
      "Ġthen": 879,
      "ily": 880,
      "Ġhigh": 881,
      "ek": 882,
      "ank": 883,
      "son": 884,
      "Ġsupp": 885,
      "Ġsur": 886,
      "Ġ/": 887,
      "Ġloc": 888,
      "Ġset": 889,
      "Ġpres": 890,
      "ines": 891,
      "ten": 892,
      "ident": 893,
      "other": 894,
      "aj": 895,
      "ĠSp": 896,
      "ather": 897,
      "Ġfound": 898,
      "ject": 899,
      "ause": 900,
      "Ġteam": 901,
      "Ġexp": 902,
      "ained": 903,
      "ĠAt": 904,
      "iver": 905,
      "enn": 906,
      "Ġbecame": 907,
      "Ġmet": 908,
      "ised": 909,
      "Ġcharac": 910,
      "Ġshow": 911,
      "ik": 912,
      "Ġsever": 913,
      "Ġseries": 914,
      "Ġagainst": 915,
      "Ġwell": 916,
      "ram": 917,
      "velop": 918,
      "ise": 919,
      "ĠRe": 920,
      "uc": 921,
      "air": 922,
      "Ġadd": 923,
      "olog": 924,
      "Ġboth": 925,
      "Ġnumber": 926,
      "Ġco": 927,
      "Ġinv": 928,
      "Ġrece": 929,
      "ince": 930,
      "Ġrep": 931,
      "Ġsing": 932,
      "ĠAs": 933,
      "ĠBrit": 934,
      "ird": 935,
      "iet": 936,
      "Ġback": 937,
      "ities": 938,
      "Ġop": 939,
      "its": 940,
      "ins": 941,
      "led": 942,
      "Ġincluding": 943,
      "ale": 944,
      "ĠâĢĶ": 945,
      "ĠUnited": 946,
      "ars": 947,
      "ĠSh": 948,
      "Ġmain": 949,
      "ife": 950,
      "Ġtrans": 951,
      "Ġgo": 952,
      "any": 953,
      "ired": 954,
      "ane": 955,
      "ann": 956,
      "ement": 957,
      "der": 958,
      "Ġepisode": 959,
      "Ġdid": 960,
      "irect": 961,
      "ting": 962,
      "ivers": 963,
      "Ġsm": 964,
      "ful": 965,
      "ober": 966,
      "ower": 967,
      "ĠShe": 968,
      "ier": 969,
      "elf": 970,
      "ures": 971,
      "Ġem": 972,
      "Ġcould": 973,
      "Ġknown": 974,
      "ield": 975,
      "ven": 976,
      "Ġimp": 977,
      "Ġmany": 978,
      "az": 979,
      "Ġlong": 980,
      "Ġpol": 981,
      "Ġlead": 982,
      "Ġdevelop": 983,
      "uch": 984,
      "Ġbro": 985,
      "Ġorig": 986,
      "ative": 987,
      "erm": 988,
      "Ġcap": 989,
      "Ġcre": 990,
      "ross": 991,
      "ĠEng": 992,
      "ared": 993,
      "Ġperform": 994,
      "ually": 995,
      "Ġstud": 996,
      "roup": 997,
      "though": 998,
      "row": 999,
      "au": 1000,
      "Ġmin": 1001,
      "Ġdesc": 1002,
      "til": 1003,
      "Ġdif": 1004,
      "ĠJohn": 1005,
      "Ġmill": 1006,
      "Ġcomple": 1007,
      "ized": 1008,
      "Ġdep": 1009,
      "Ġob": 1010,
      "Ġcontin": 1011,
      "Ġest": 1012,
      "oot": 1013,
      "Ġseveral": 1014,
      "emb": 1015,
      "view": 1016,
      "overn": 1017,
      "Ġcalled": 1018,
      "Ġpop": 1019,
      "Ġsaid": 1020,
      "Ġconc": 1021,
      "Ġbegan": 1022,
      "Ġinst": 1023,
      "ĠSc": 1024,
      "Ġcar": 1025,
      "Ġext": 1026,
      "Ġship": 1027,
      "ĠInd": 1028,
      "ty": 1029,
      "ople": 1030,
      "aking": 1031,
      "iam": 1032,
      "ĠAmerican": 1033,
      "Ġany": 1034,
      "ute": 1035,
      "Ġreturn": 1036,
      "Ġbel": 1037,
      "Ġdown": 1038,
      "my": 1039,
      "Ġdist": 1040,
      "Ġdesign": 1041,
      "Ġpass": 1042,
      "Ġwar": 1043,
      "ern": 1044,
      "ert": 1045,
      "Ġnear": 1046,
      "ued": 1047,
      "ĠZ": 1048,
      "Ġeff": 1049,
      "Ġsign": 1050,
      "imes": 1051,
      "Ġair": 1052,
      "ash": 1053,
      "Ġmay": 1054,
      "Ġdisc": 1055,
      "ĠWh": 1056,
      "Ġuse": 1057,
      "Ġrun": 1058,
      "ĠCar": 1059,
      "ccess": 1060,
      "Ġcrit": 1061,
      "Ġmat": 1062,
      "ley": 1063,
      "Ġdirect": 1064,
      "Ġuntil": 1065,
      "Ġearly": 1066,
      "une": 1067,
      "ided": 1068,
      "ism": 1069,
      "Ġfeat": 1070,
      "Ġgener": 1071,
      "ĠMay": 1072,
      "und": 1073,
      "ouse": 1074,
      "Ġstart": 1075,
      "Ġfin": 1076,
      "ments": 1077,
      "Ã©": 1078,
      "Ġthese": 1079,
      "Ġinf": 1080,
      "Ġown": 1081,
      "Ġprov": 1082,
      "xt": 1083,
      "Ġdescrib": 1084,
      "chool": 1085,
      "Ġart": 1086,
      "Ġopen": 1087,
      "pr": 1088,
      "Ġresp": 1089,
      "ah": 1090,
      "Ġins": 1091,
      "ĠAfter": 1092,
      "Ġalong": 1093,
      "rid": 1094,
      "up": 1095,
      "els": 1096,
      "Ġreleased": 1097,
      "Ġpo": 1098,
      "ĠWar": 1099,
      "Ġph": 1100,
      "Ġcentury": 1101,
      "cept": 1102,
      "Ġconst": 1103,
      "Ġmusic": 1104,
      "ially": 1105,
      "Ġsim": 1106,
      "Ġsame": 1107,
      "ured": 1108,
      "ull": 1109,
      "Ġgroup": 1110,
      "gg": 1111,
      "Ġthough": 1112,
      "osed": 1113,
      "ĠBl": 1114,
      "ets": 1115,
      "Ġland": 1116,
      "ĠCon": 1117,
      "Ġoffic": 1118,
      "Ġprev": 1119,
      "amed": 1120,
      "ists": 1121,
      "Ġhist": 1122,
      "Ġpeople": 1123,
      "ĠBritish": 1124,
      "Ġbecause": 1125,
      "Ġwin": 1126,
      "Ġbuild": 1127,
      "Ġocc": 1128,
      "Ġpoin": 1129,
      "ĠAust": 1130,
      "ove": 1131,
      "ajor": 1132,
      "Ġfam": 1133,
      "ible": 1134,
      "ĠCol": 1135,
      "Ġcity": 1136,
      "ruct": 1137,
      "yp": 1138,
      "ĠIs": 1139,
      "Ġsuccess": 1140,
      "ĠCl": 1141,
      "ris": 1142,
      "Ġmillion": 1143,
      "Ġlike": 1144,
      "oss": 1145,
      "Ġmil": 1146,
      "Ġappear": 1147,
      "ium": 1148,
      "Ġcharacter": 1149,
      "Ġsmall": 1150,
      "stem": 1151,
      "Ġeach": 1152,
      "Ġpers": 1153,
      "rist": 1154,
      "ck": 1155,
      "ys": 1156,
      "ves": 1157,
      "ution": 1158,
      "ĠWorld": 1159,
      "ĠThey": 1160,
      "ĠGer": 1161,
      "ĠSept": 1162,
      "ger": 1163,
      "Ġmod": 1164,
      "Ġever": 1165,
      "Ġsix": 1166,
      "Ġconsid": 1167,
      "ended": 1168,
      "Ġgr": 1169,
      "eb": 1170,
      "ĠAug": 1171,
      "Ġgu": 1172,
      "Ġaround": 1173,
      "ink": 1174,
      "ĠSeptember": 1175,
      "ange": 1176,
      "Ġgovern": 1177,
      "ĠAugust": 1178,
      "Ġarea": 1179,
      "ĠAd": 1180,
      "ĠStates": 1181,
      "urch": 1182,
      "anc": 1183,
      "Ġoper": 1184,
      "ains": 1185,
      "ined": 1186,
      "Ġtook": 1187,
      "ĠJu": 1188,
      "Ġcount": 1189,
      "ina": 1190,
      "Ġsupport": 1191,
      "Ġfive": 1192,
      "Ġweek": 1193,
      "Ġhead": 1194,
      "Ġreceived": 1195,
      "Ġnorth": 1196,
      "ĠFran": 1197,
      "aving": 1198,
      "ored": 1199,
      "ble": 1200,
      "Ġprom": 1201,
      "Ġwill": 1202,
      "ues": 1203,
      "ax": 1204,
      "Ġpartic": 1205,
      "Ġaut": 1206,
      "Ġed": 1207,
      "Ġele": 1208,
      "ales": 1209,
      "Ġreport": 1210,
      "ilt": 1211,
      "Ġfinal": 1212,
      "Ġadv": 1213,
      "aced": 1214,
      "Ġfollowing": 1215,
      "ĠHowever": 1216,
      "ĠUS": 1217,
      "Ġann": 1218,
      "tle": 1219,
      "ged": 1220,
      "Ġattack": 1221,
      "ring": 1222,
      "ants": 1223,
      "ĠQ": 1224,
      "Ġ$": 1225,
      "esp": 1226,
      "Ġvar": 1227,
      "wards": 1228,
      "Ġclass": 1229,
      "ording": 1230,
      "ient": 1231,
      "ĠPl": 1232,
      "Ġkm": 1233,
      "Ġlarge": 1234,
      "erv": 1235,
      "iving": 1236,
      "ball": 1237,
      "Ġpublic": 1238,
      "ives": 1239,
      "gin": 1240,
      "ling": 1241,
      "ĠGerman": 1242,
      "Ġ]": 1243,
      "Ġstate": 1244,
      "ural": 1245,
      "ĠOct": 1246,
      "yl": 1247,
      "Ġbatt": 1248,
      "Ġconf": 1249,
      "ĠNov": 1250,
      "ner": 1251,
      "Ġref": 1252,
      "ĠOctober": 1253,
      "Ġ[": 1254,
      "ately": 1255,
      "ĠCan": 1256,
      "ĠMc": 1257,
      "Ġhel": 1258,
      "ility": 1259,
      "Ġcamp": 1260,
      "ĠFor": 1261,
      "Ġmajor": 1262,
      "ission": 1263,
      "Ġcontro": 1264,
      "Ġsince": 1265,
      "Ġrest": 1266,
      "ĠNorth": 1267,
      "ean": 1268,
      "Ġallow": 1269,
      "Ġline": 1270,
      "Ġsystem": 1271,
      "ox": 1272,
      "ĠJan": 1273,
      "med": 1274,
      "Ġold": 1275,
      "aim": 1276,
      "ene": 1277,
      "Ġleft": 1278,
      "Ġsl": 1279,
      "ague": 1280,
      "get": 1281,
      "ex": 1282,
      "Ġ%": 1283,
      "ĠJune": 1284,
      "Ġlast": 1285,
      "sion": 1286,
      "ĠSouth": 1287,
      "omet": 1288,
      "Ġworld": 1289,
      "Ġwhat": 1290,
      "ĠAustral": 1291,
      "Ġjust": 1292,
      "rote": 1293,
      "Ġmar": 1294,
      "Ġdet": 1295,
      "ĠAll": 1296,
      "uary": 1297,
      "ats": 1298,
      "Ġbook": 1299,
      "Ġtit": 1300,
      "ĠJuly": 1301,
      "Ġsingle": 1302,
      "ively": 1303,
      "rand": 1304,
      "Ġif": 1305,
      "Ġplayed": 1306,
      "Ġdiffer": 1307,
      "raph": 1308,
      "Ġincre": 1309,
      "ĠComm": 1310,
      "Ġdue": 1311,
      "ĠPh": 1312,
      "ĠDec": 1313,
      "empt": 1314,
      "Ġmed": 1315,
      "ĠApr": 1316,
      "ĠApril": 1317,
      "ection": 1318,
      "ected": 1319,
      "..": 1320,
      "ional": 1321,
      "Ġdescribed": 1322,
      "Ġanother": 1323,
      "Ġexpl": 1324,
      "ians": 1325,
      "oard": 1326,
      "Ġlife": 1327,
      "raft": 1328,
      "ĠEu": 1329,
      "Ġwrote": 1330,
      "oman": 1331,
      "lish": 1332,
      "ĠChrist": 1333,
      "Ġtri": 1334,
      "ĠBe": 1335,
      "Ġvis": 1336,
      "Ġmuch": 1337,
      "Ġstr": 1338,
      "Ġserv": 1339,
      "ĠNovember": 1340,
      "ically": 1341,
      "ĠMarch": 1342,
      "Ġsouth": 1343,
      "Ġname": 1344,
      "Ġschool": 1345,
      "ĠGu": 1346,
      "Ġshort": 1347,
      "orp": 1348,
      "ital": 1349,
      "ified": 1350,
      "app": 1351,
      "Ġcare": 1352,
      "Ġplace": 1353,
      "ret": 1354,
      "Ġbased": 1355,
      "Ġbre": 1356,
      "Ġtrack": 1357,
      "inc": 1358,
      "ĠYork": 1359,
      "rig": 1360,
      "Ġreview": 1361,
      "Ġdeath": 1362,
      "ĠKing": 1363,
      "Ġmonth": 1364,
      "ont": 1365,
      "Ġprog": 1366,
      "Ġthird": 1367,
      "ently": 1368,
      "ĠII": 1369,
      "Ġ...": 1370,
      "Ġgames": 1371,
      "Ġprot": 1372,
      "Ġnamed": 1373,
      "Ġposs": 1374,
      "Ġdr": 1375,
      "Ġlit": 1376,
      "ple": 1377,
      "Ġwon": 1378,
      "ĠJanuary": 1379,
      "ivision": 1380,
      "Ġstory": 1381,
      "Ġpower": 1382,
      "Ġappro": 1383,
      "Ġspecies": 1384,
      "Ġhome": 1385,
      "ilar": 1386,
      "ĠBro": 1387,
      "Ġrequ": 1388,
      "Ġbelie": 1389,
      "ony": 1390,
      "ĠDe": 1391,
      "Ġport": 1392,
      "Ġnow": 1393,
      "Ġdam": 1394,
      "rew": 1395,
      "hest": 1396,
      "Ġway": 1397,
      "ched": 1398,
      "Ġincluded": 1399,
      "ham": 1400,
      "Ġeven": 1401,
      "ness": 1402,
      "Ġevent": 1403,
      "ience": 1404,
      "ody": 1405,
      "ideo": 1406,
      "Ġattempt": 1407,
      "Ġwithin": 1408,
      "ĠDecember": 1409,
      "Ġbuilt": 1410,
      "ole": 1411,
      "ĠMan": 1412,
      "Ġeffect": 1413,
      "Ġelect": 1414,
      "apan": 1415,
      "Ġoriginal": 1416,
      "Ġpar": 1417,
      "Ġfamily": 1418,
      "ech": 1419,
      "Ġvery": 1420,
      "cl": 1421,
      "hel": 1422,
      "Ġlate": 1423,
      "ages": 1424,
      "avy": 1425,
      "Ġturn": 1426,
      "Ġgovernment": 1427,
      "Ġhand": 1428,
      "ĠHer": 1429,
      "Ġview": 1430,
      "iod": 1431,
      "Ġmake": 1432,
      "ĠJapan": 1433,
      "Ġled": 1434,
      "ĠEurop": 1435,
      "Ġgun": 1436,
      "Ġchild": 1437,
      "iversity": 1438,
      "Ġhum": 1439,
      "Ġterm": 1440,
      "Ġbest": 1441,
      "alf": 1442,
      "Ġtop": 1443,
      "Ġkill": 1444,
      "Ġmark": 1445,
      "by": 1446,
      "ne": 1447,
      "Ġfur": 1448,
      "ĠPro": 1449,
      "Ġprevious": 1450,
      "omin": 1451,
      "Ġperson": 1452,
      "Ġorgan": 1453,
      "Ġstill": 1454,
      "eng": 1455,
      "Ġdem": 1456,
      "ention": 1457,
      "Ġsk": 1458,
      "Ġestab": 1459,
      "Ġright": 1460,
      "Ġthose": 1461,
      "ature": 1462,
      "alk": 1463,
      "Ġexper": 1464,
      "ĠPr": 1465,
      "ĠHis": 1466,
      "iven": 1467,
      "Ġreal": 1468,
      "ense": 1469,
      "lev": 1470,
      "riend": 1471,
      "elt": 1472,
      "ĠPar": 1473,
      "ulation": 1474,
      "Ġnext": 1475,
      "Ġgreat": 1476,
      "Ġhelp": 1477,
      "Ġalthough": 1478,
      "Ġmemb": 1479,
      "Ġcommand": 1480,
      "ĠAnd": 1481,
      "Ġsold": 1482,
      "itions": 1483,
      "ĠGe": 1484,
      "Ġrole": 1485,
      "ached": 1486,
      "ung": 1487,
      "Ġband": 1488,
      "Ġdeb": 1489,
      "hor": 1490,
      "ior": 1491,
      "ruction": 1492,
      "Ġperiod": 1493,
      "Ġmen": 1494,
      "Ġiss": 1495,
      "Ġlist": 1496,
      "Ġopp": 1497,
      "Ġprop": 1498,
      "Ġeng": 1499,
      "arm": 1500,
      "Ġmag": 1501,
      "Ġrepl": 1502,
      "Ġleg": 1503,
      "Ġaddition": 1504,
      "ances": 1505,
      "ences": 1506,
      "aining": 1507,
      "Ġplayer": 1508,
      "ead": 1509,
      "ĠWill": 1510,
      "Ġwater": 1511,
      "ĠWhen": 1512,
      "ridge": 1513,
      "Ġdra": 1514,
      "ented": 1515,
      "ides": 1516,
      "dom": 1517,
      "ories": 1518,
      "pped": 1519,
      "Ġcaus": 1520,
      "Ġdest": 1521,
      "sh": 1522,
      "Ġcour": 1523,
      "oci": 1524,
      "reen": 1525,
      "Ġtyp": 1526,
      "ĠMich": 1527,
      "ister": 1528,
      "aken": 1529,
      "Ġsimilar": 1530,
      "Ġcur": 1531,
      "ĠFl": 1532,
      "ai": 1533,
      "que": 1534,
      "ĠWe": 1535,
      "self": 1536,
      "ival": 1537,
      "ards": 1538,
      "ĠMin": 1539,
      "akes": 1540,
      "read": 1541,
      "itary": 1542,
      "ĠBy": 1543,
      "Ġstorm": 1544,
      "ĠNational": 1545,
      "Ġconsidered": 1546,
      "mp": 1547,
      "Ġoften": 1548,
      "enc": 1549,
      "idd": 1550,
      "Ġformer": 1551,
      "ĠRiver": 1552,
      "Ġcame": 1553,
      "ĠÂ": 1554,
      "Ġclaim": 1555,
      "Ġvideo": 1556,
      "ract": 1557,
      "atic": 1558,
      "uss": 1559,
      "ler": 1560,
      "gy": 1561,
      "side": 1562,
      "lu": 1563,
      "Ġinit": 1564,
      "rench": 1565,
      "ropical": 1566,
      "Ġtown": 1567,
      "Ġhowever": 1568,
      "uted": 1569,
      "ĠEd": 1570,
      "oon": 1571,
      "Ġcover": 1572,
      "Ġfew": 1573,
      "ĠCanad": 1574,
      "ology": 1575,
      "Ġlocal": 1576,
      "Ġmoved": 1577,
      "Ġdifferent": 1578,
      "Ġmy": 1579,
      "oad": 1580,
      "Ġheld": 1581,
      "ays": 1582,
      "Ġwithout": 1583,
      "Ġstar": 1584,
      "Ġresult": 1585,
      "Ġcontinued": 1586,
      "aged": 1587,
      "Ġtw": 1588,
      "ĠHar": 1589,
      "Ġcapt": 1590,
      "Ġevery": 1591,
      "Ġfre": 1592,
      "ĠDuring": 1593,
      "ried": 1594,
      "Ġyou": 1595,
      "line": 1596,
      "eter": 1597,
      "ott": 1598,
      "Ġdays": 1599,
      "ĠCity": 1600,
      "aster": 1601,
      "ĠWest": 1602,
      "Ġamong": 1603,
      "Ġversion": 1604,
      "arn": 1605,
      "iety": 1606,
      "Ġmembers": 1607,
      "Ġjoin": 1608,
      "Ġstand": 1609,
      "Ġsent": 1610,
      "urs": 1611,
      "bs": 1612,
      "Ġav": 1613,
      "ebru": 1614,
      "ae": 1615,
      "Ġorder": 1616,
      "Ġspe": 1617,
      "ested": 1618,
      "Ġpolit": 1619,
      "reet": 1620,
      "let": 1621,
      "Ġtrad": 1622,
      "Ġcommon": 1623,
      "Ġcr": 1624,
      "Ġdel": 1625,
      "ĠFrench": 1626,
      "ĠFebru": 1627,
      "ĠFebruary": 1628,
      "Ġwind": 1629,
      "Ġant": 1630,
      "Ġvict": 1631,
      "estern": 1632,
      "Ġgen": 1633,
      "Ġlevel": 1634,
      "Ġ&": 1635,
      "Ġimport": 1636,
      "ĠThere": 1637,
      "rodu": 1638,
      "augh": 1639,
      "Ġtake": 1640,
      "Ġside": 1641,
      "Ġhalf": 1642,
      "Ġbeh": 1643,
      "Ġfurther": 1644,
      "hem": 1645,
      "ches": 1646,
      "ize": 1647,
      "Ġfore": 1648,
      "Ġbecome": 1649,
      "Ġsugg": 1650,
      "Ġrelease": 1651,
      "ĠCount": 1652,
      "Ġbas": 1653,
      "par": 1654,
      "Ġtem": 1655,
      "aul": 1656,
      "ms": 1657,
      "Ġfoot": 1658,
      "ĠEngland": 1659,
      "Ġfield": 1660,
      "Ġel": 1661,
      "ator": 1662,
      "Ġfind": 1663,
      "ĠAm": 1664,
      "irc": 1665,
      "Ġclub": 1666,
      "sp": 1667,
      "ering": 1668,
      "Ġpost": 1669,
      "Ġreturned": 1670,
      "ese": 1671,
      "Ġwritten": 1672,
      "tal": 1673,
      "Ġrecorded": 1674,
      "Ġinvol": 1675,
      "ĠMus": 1676,
      "Ġarr": 1677,
      "ampions": 1678,
      "Ġsoc": 1679,
      "Ġconv": 1680,
      "Ġpoint": 1681,
      "ls": 1682,
      "Ġhaving": 1683,
      "Ġcareer": 1684,
      "Ġprof": 1685,
      "levision": 1686,
      "Ġequ": 1687,
      "Ġparticular": 1688,
      "amb": 1689,
      "ograph": 1690,
      "Ġgave": 1691,
      "ops": 1692,
      "Ġpublished": 1693,
      "int": 1694,
      "ript": 1695,
      "Ġchang": 1696,
      "Ġstrong": 1697,
      "Ġlow": 1698,
      "ices": 1699,
      "Ġappe": 1700,
      "Ġsol": 1701,
      "anted": 1702,
      "Ġhistory": 1703,
      "roy": 1704,
      "ĠBatt": 1705,
      "Ġbuilding": 1706,
      "ĠOne": 1707,
      "ney": 1708,
      "echn": 1709,
      "ours": 1710,
      "Ġnever": 1711,
      "oung": 1712,
      "Ġrepres": 1713,
      "Ġless": 1714,
      "yle": 1715,
      "atter": 1716,
      "ĠCal": 1717,
      "Ġplan": 1718,
      "ĠNo": 1719,
      "Ġfriend": 1720,
      "ĠX": 1721,
      "ests": 1722,
      "Ġinflu": 1723,
      "rent": 1724,
      "ining": 1725,
      "aying": 1726,
      "eder": 1727,
      "ery": 1728,
      "Ġproduced": 1729,
      "cess": 1730,
      "ĠGener": 1731,
      "af": 1732,
      "Ġread": 1733,
      "Ġisland": 1734,
      "Ġeight": 1735,
      "Ġproject": 1736,
      "ĠWilliam": 1737,
      "Ġhow": 1738,
      "Ġposition": 1739,
      "ones": 1740,
      "atch": 1741,
      "Ġfather": 1742,
      "ccording": 1743,
      "ration": 1744,
      "Ġsound": 1745,
      "Ġcomb": 1746,
      "Ġstated": 1747,
      "Ġcompany": 1748,
      "ĠEnglish": 1749,
      "Ġrefer": 1750,
      "ĠPark": 1751,
      "Ġcompet": 1752,
      "Ġmatch": 1753,
      "Ġprogram": 1754,
      "Ġcommun": 1755,
      "Ġtitle": 1756,
      "Ġgiven": 1757,
      "ĠEl": 1758,
      "Ġshould": 1759,
      "On": 1760,
      "rad": 1761,
      "Ġwest": 1762,
      "lear": 1763,
      "hing": 1764,
      "Ġter": 1765,
      "Ġeast": 1766,
      "sequ": 1767,
      "Ġfun": 1768,
      "Ġsongs": 1769,
      "Ġsuper": 1770,
      "astern": 1771,
      "Ġred": 1772,
      "yn": 1773,
      "ĠAf": 1774,
      "Ġdefe": 1775,
      "ĠState": 1776,
      "Ġadm": 1777,
      "Ġroad": 1778,
      "Ġgood": 1779,
      "aur": 1780,
      "ĠAss": 1781,
      "Ġinclude": 1782,
      "Ġsurv": 1783,
      "Ġsomet": 1784,
      "ĠSu": 1785,
      "ĠDivision": 1786,
      "Ġreported": 1787,
      "Ġnort": 1788,
      "Ġships": 1789,
      "Ġcritic": 1790,
      "ĠAb": 1791,
      "omen": 1792,
      "used": 1793,
      "ably": 1794,
      "Ġlarg": 1795,
      "Ġer": 1796,
      "ĠGeor": 1797,
      "Ġmaking": 1798,
      "Ġneed": 1799,
      "Ġauthor": 1800,
      "ream": 1801,
      "Ġhouse": 1802,
      "Ġlight": 1803,
      "Ġnoted": 1804,
      "Ġsit": 1805,
      "ald": 1806,
      "Ġlim": 1807,
      "ief": 1808,
      "Ġproduction": 1809,
      "Ġorigin": 1810,
      "Ġtotal": 1811,
      "ĠChar": 1812,
      "ensive": 1813,
      "Ġmilitary": 1814,
      "outher": 1815,
      "ailed": 1816,
      "Ġobs": 1817,
      "aign": 1818,
      "ĠUniversity": 1819,
      "Ġnov": 1820,
      "ront": 1821,
      "Ġhig": 1822,
      "Ġaff": 1823,
      "aff": 1824,
      "Ġide": 1825,
      "Ġwent": 1826,
      "Ġpress": 1827,
      "ĠCent": 1828,
      "ges": 1829,
      "Ġfact": 1830,
      "omb": 1831,
      "aren": 1832,
      "ots": 1833,
      "Ġord": 1834,
      "outhern": 1835,
      "Ġlaw": 1836,
      "osp": 1837,
      "Ġla": 1838,
      "esc": 1839,
      "ĠBar": 1840,
      "Ġblack": 1841,
      "ĠNe": 1842,
      "Ġusing": 1843,
      "Ġannoun": 1844,
      "Ġfelt": 1845,
      "isc": 1846,
      "ĠDav": 1847,
      "Ġtimes": 1848,
      "ising": 1849,
      "Ġchart": 1850,
      "ape": 1851,
      "Ġacross": 1852,
      "Ġhistor": 1853,
      "rem": 1854,
      "itive": 1855,
      "ĠHigh": 1856,
      "Ġhimself": 1857,
      "ither": 1858,
      "ille": 1859,
      "Ġlost": 1860,
      "Ġintrodu": 1861,
      "ĠGeneral": 1862,
      "Ġstat": 1863,
      "ĠSte": 1864,
      "ĠThese": 1865,
      "Ġcountry": 1866,
      "utes": 1867,
      "ĠWith": 1868,
      "Ġcast": 1869,
      "Ġke": 1870,
      "iment": 1871,
      "ampionship": 1872,
      "Ġfire": 1873,
      "urric": 1874,
      "fic": 1875,
      "ĠLond": 1876,
      "Ġrad": 1877,
      "ĠMon": 1878,
      "Ġtelevision": 1879,
      "ĠOr": 1880,
      "Ġpra": 1881,
      "ĠLondon": 1882,
      "Ġdeveloped": 1883,
      "ford": 1884,
      "ks": 1885,
      "Ġwhite": 1886,
      "ĠComp": 1887,
      "ĠAfric": 1888,
      "na": 1889,
      "Ġten": 1890,
      "Ġground": 1891,
      "work": 1892,
      "Ġaway": 1893,
      "ĠLeague": 1894,
      "ĠSm": 1895,
      "Ġarch": 1896,
      "hern": 1897,
      "Ġtechn": 1898,
      "Ġson": 1899,
      "ĠAmerica": 1900,
      "ploy": 1901,
      "idence": 1902,
      "Ġdevelopment": 1903,
      "cer": 1904,
      "Ġdestroy": 1905,
      "itted": 1906,
      "Ġpat": 1907,
      "aces": 1908,
      "ett": 1909,
      "Ġfem": 1910,
      "ffic": 1911,
      "Ġpopular": 1912,
      "ĠRoy": 1913,
      "ination": 1914,
      "Ġanim": 1915,
      "Ġcampaign": 1916,
      "lished": 1917,
      "ster": 1918,
      "Ġpresent": 1919,
      "Ġsignific": 1920,
      "Ġsw": 1921,
      "Ġwriting": 1922,
      "Ġcontrol": 1923,
      "Ġchildren": 1924,
      "iness": 1925,
      "Ġthroughout": 1926,
      "Ġsite": 1927,
      "Ġstarted": 1928,
      "ĠAir": 1929,
      "ĠAlthough": 1930,
      "for": 1931,
      "ĠJack": 1932,
      "ries": 1933,
      "Ġbus": 1934,
      "cast": 1935,
      "Ġdied": 1936,
      "Ġget": 1937,
      "ression": 1938,
      "Ġmonths": 1939,
      "ĠSw": 1940,
      "tain": 1941,
      "Ġcirc": 1942,
      "alt": 1943,
      "less": 1944,
      "Ġintern": 1945,
      "craft": 1946,
      "ĠPer": 1947,
      "Ã¡": 1948,
      "aint": 1949,
      "Ġseen": 1950,
      "abor": 1951,
      "ĠâĢĻ": 1952,
      "ĠPort": 1953,
      "ĠArmy": 1954,
      "Ġtoo": 1955,
      "Ġcharacters": 1956,
      "Ġdiscover": 1957,
      "Ġpromot": 1958,
      "Ġenc": 1959,
      "Ġestablished": 1960,
      "oll": 1961,
      "Ġseven": 1962,
      "Ġremained": 1963,
      "Ġsuccessful": 1964,
      "ords": 1965,
      "ĠMo": 1966,
      "ases": 1967,
      "vers": 1968,
      "Ġrank": 1969,
      "Ġareas": 1970,
      "Ġbody": 1971,
      "Ġprocess": 1972,
      "Ġbegin": 1973,
      "Ġofficial": 1974,
      "ĠCo": 1975,
      "Ġwid": 1976,
      "Ġsee": 1977,
      "Ġmanag": 1978,
      "Ġthought": 1979,
      "Ġdiv": 1980,
      "ament": 1981,
      "ael": 1982,
      "Ġcross": 1983,
      "Ġnational": 1984,
      "Ġstation": 1985,
      "Ġimportant": 1986,
      "Ġmid": 1987,
      "Ġreached": 1988,
      "Ġlook": 1989,
      "ublic": 1990,
      "Ġdecl": 1991,
      "ways": 1992,
      "Ġlittle": 1993,
      "iber": 1994,
      "rick": 1995,
      "Ġpolitical": 1996,
      "Ġnight": 1997,
      "Ġconstruction": 1998,
      "Ġcy": 1999,
      "Ġsum": 2000,
      "ĠCounty": 2001,
      "Ġstyle": 2002,
      "Ġage": 2003,
      "Ġaward": 2004,
      "Ġfull": 2005,
      "ality": 2006,
      "Ġtropical": 2007,
      "isted": 2008,
      "Ġsqu": 2009,
      "itar": 2010,
      "field": 2011,
      "Ġgl": 2012,
      "pper": 2013,
      "Ġloss": 2014,
      "Ġable": 2015,
      "Ġste": 2016,
      "ĠEx": 2017,
      "elling": 2018,
      "imately": 2019,
      "ĠSec": 2020,
      "Ġservice": 2021,
      "Ġmm": 2022,
      "Ġcond": 2023,
      "ĠAccording": 2024,
      "vent": 2025,
      "Ġcor": 2026,
      "Ġvarious": 2027,
      "iec": 2028,
      "most": 2029,
      "Ġcult": 2030,
      "Ġrelations": 2031,
      "reg": 2032,
      "Ġmeet": 2033,
      "iting": 2034,
      "Ġstruct": 2035,
      "urricane": 2036,
      "Ġaud": 2037,
      "ĠRober": 2038,
      "Ġpopulation": 2039,
      "alth": 2040,
      "ization": 2041,
      "ressed": 2042,
      "Ġprim": 2043,
      "ĠJames": 2044,
      "Ġoccur": 2045,
      "ogn": 2046,
      "Ġperformed": 2047,
      "ĠTr": 2048,
      "Ġbroad": 2049,
      "Ġcreated": 2050,
      "iers": 2051,
      "Ġfav": 2052,
      "ump": 2053,
      "Ġyoung": 2054,
      "ee": 2055,
      "Ġval": 2056,
      "Ġarm": 2057,
      "Ġdoes": 2058,
      "Ġput": 2059,
      "rie": 2060,
      "Ġlet": 2061,
      "rap": 2062,
      "ĠWhile": 2063,
      "ana": 2064,
      "Ġnon": 2065,
      "ĠTe": 2066,
      "lected": 2067,
      "Ġbattle": 2068,
      "ĠAustralia": 2069,
      "Ġsignificant": 2070,
      "ky": 2071,
      "Ġredu": 2072,
      "ids": 2073,
      "Ġhuman": 2074,
      "Ġaver": 2075,
      "ĠPol": 2076,
      "alls": 2077,
      "Ġforces": 2078,
      "Ġcompleted": 2079,
      "orse": 2080,
      "oice": 2081,
      "ivil": 2082,
      "ĠEar": 2083,
      "Ġbar": 2084,
      "Ġplayers": 2085,
      "Ġtour": 2086,
      "leet": 2087,
      "Ġhit": 2088,
      "Ġentire": 2089,
      "asing": 2090,
      "Ġvol": 2091,
      "ĠAng": 2092,
      "ĠReg": 2093,
      "Ġbo": 2094,
      "ĠJapanese": 2095,
      "Ġlik": 2096,
      "Ġfeet": 2097,
      "Ġearl": 2098,
      "ertain": 2099,
      "Ġcolle": 2100,
      "Ġactiv": 2101,
      "ency": 2102,
      "Ġfollowed": 2103,
      "rest": 2104,
      "ened": 2105,
      "ĠIsland": 2106,
      "Ġcaused": 2107,
      "Ġgrow": 2108,
      "ĠBut": 2109,
      "Ġformed": 2110,
      "ĠRec": 2111,
      "Ġrock": 2112,
      "play": 2113,
      "Ġannounced": 2114,
      "ned": 2115,
      "reed": 2116,
      "Ġft": 2117,
      "Ġbase": 2118,
      "ĠMad": 2119,
      "Ġforce": 2120,
      "Ġcost": 2121,
      "ells": 2122,
      "Ġperformance": 2123,
      "Ġrev": 2124,
      "Ġstri": 2125,
      "ĠRep": 2126,
      "Ġlocated": 2127,
      "Ġmodern": 2128,
      "aly": 2129,
      "ĠStreet": 2130,
      "Ġbecom": 2131,
      "Ġdecided": 2132,
      "con": 2133,
      "ĠAct": 2134,
      "lant": 2135,
      "Ġpri": 2136,
      "ĠCro": 2137,
      "Ġothers": 2138,
      "itch": 2139,
      "Ġconn": 2140,
      "ĠMe": 2141,
      "Ġmiles": 2142,
      "Ġnovel": 2143,
      "iron": 2144,
      "ope": 2145,
      "ought": 2146,
      "Ġimpro": 2147,
      "ĠMiss": 2148,
      "Ġknow": 2149,
      "Ġspecial": 2150,
      "Ġinstead": 2151,
      "ĠChristian": 2152,
      "Ġtaken": 2153,
      "Ġtoget": 2154,
      "Ġappeared": 2155,
      "Ġtogether": 2156,
      "ades": 2157,
      "rict": 2158,
      "olution": 2159,
      "Ġcreat": 2160,
      "Ġmix": 2161,
      "Ġserved": 2162,
      "Ġfac": 2163,
      "ument": 2164,
      "Ġcoun": 2165,
      "Ġly": 2166,
      "rought": 2167,
      "Ġcoll": 2168,
      "ison": 2169,
      "ask": 2170,
      "icated": 2171,
      "ĠSim": 2172,
      "Ġarg": 2173,
      "Ġaircraft": 2174,
      "Ġadded": 2175,
      "ĠBlack": 2176,
      "eth": 2177,
      "emy": 2178,
      "ample": 2179,
      "ĠEurope": 2180,
      "rison": 2181,
      "day": 2182,
      "Ġkilled": 2183,
      "Ġident": 2184,
      "ington": 2185,
      "ĠDu": 2186,
      "board": 2187,
      "com": 2188,
      "sc": 2189,
      "ĠSan": 2190,
      "ĠBill": 2191,
      "Ġrange": 2192,
      "ĠPhil": 2193,
      "ĠMed": 2194,
      "ĠEast": 2195,
      "Ġgeneral": 2196,
      "Ġonce": 2197,
      "ivid": 2198,
      "Ġborn": 2199,
      "Ġpeak": 2200,
      "enced": 2201,
      "ecut": 2202,
      "ĠGl": 2203,
      "duct": 2204,
      "rac": 2205,
      "ĠPres": 2206,
      "ĠMcC": 2207,
      "Ġpred": 2208,
      "Ġround": 2209,
      "Ġwomen": 2210,
      "ĠSy": 2211,
      "ĠSong": 2212,
      "epend": 2213,
      "azine": 2214,
      "ficult": 2215,
      "Ġcou": 2216,
      "unk": 2217,
      "ĠYou": 2218,
      "here": 2219,
      "Ġcomment": 2220,
      "Ġopened": 2221,
      "Ġtradition": 2222,
      "Ġupon": 2223,
      "ects": 2224,
      "Ġdifficult": 2225,
      "ĠRoad": 2226,
      "ological": 2227,
      "ĠMor": 2228,
      "Ġproble": 2229,
      "Ġplaying": 2230,
      "por": 2231,
      "Ġz": 2232,
      "ara": 2233,
      "Ġmember": 2234,
      "Ġlive": 2235,
      "umb": 2236,
      "Ġscored": 2237,
      "ĠRoyal": 2238,
      "Ġguns": 2239,
      "Ġball": 2240,
      "ĠSer": 2241,
      "Ġfeatures": 2242,
      "Ġbehind": 2243,
      "ĠAustralian": 2244,
      "rated": 2245,
      "Ġtravel": 2246,
      "Ġcoast": 2247,
      "Ġcut": 2248,
      "ceed": 2249,
      "ĠIntern": 2250,
      "ica": 2251,
      "Ġmiss": 2252,
      "Ġmot": 2253,
      "urb": 2254,
      "chie": 2255,
      "Ġinsp": 2256,
      "omp": 2257,
      "Ġeventually": 2258,
      "Ġmother": 2259,
      "Ġgenerally": 2260,
      "Ġleast": 2261,
      "Ġtre": 2262,
      "Ġsaw": 2263,
      "ĠRoman": 2264,
      "Ġappoin": 2265,
      "Ġ!": 2266,
      "Ġvill": 2267,
      "Ġchurch": 2268,
      "aper": 2269,
      "ĠRich": 2270,
      "Ġcritics": 2271,
      "ĠIndian": 2272,
      "Ġcrew": 2273,
      "Ġpoints": 2274,
      "Ġallowed": 2275,
      "Ġmater": 2276,
      "ĠTo": 2277,
      "Ġvoc": 2278,
      "Ġtro": 2279,
      "Ġrather": 2280,
      "ĠAtlant": 2281,
      "odes": 2282,
      "Ġhold": 2283,
      "Ġestim": 2284,
      "iddle": 2285,
      "Ġrecogn": 2286,
      "Ġevents": 2287,
      "Ġaction": 2288,
      "aval": 2289,
      "Ġsepar": 2290,
      "aps": 2291,
      "Ġworked": 2292,
      "Ġrelationship": 2293,
      "la": 2294,
      "Ġren": 2295,
      "Ġcop": 2296,
      "iding": 2297,
      "ĠRed": 2298,
      "Ġmass": 2299,
      "ements": 2300,
      "ĠKingdom": 2301,
      "Ġhon": 2302,
      "Ġclos": 2303,
      "Ġmult": 2304,
      "ending": 2305,
      "reek": 2306,
      "Ġaccept": 2307,
      "ush": 2308,
      "ĠGeorge": 2309,
      "Ġfig": 2310,
      "ential": 2311,
      "anish": 2312,
      "Ġprofess": 2313,
      "ray": 2314,
      "Ġeither": 2315,
      "Ġbelieved": 2316,
      "Ġlaun": 2317,
      "Ġfif": 2318,
      "Ġlack": 2319,
      "Ġrace": 2320,
      "Ġsuff": 2321,
      "oring": 2322,
      "Ġfight": 2323,
      "oph": 2324,
      "Ġfront": 2325,
      "Ġregion": 2326,
      "Ġweeks": 2327,
      "ully": 2328,
      "Ġprovided": 2329,
      "ĠBo": 2330,
      "Ġassoci": 2331,
      "Ġvictory": 2332,
      "Ġbrought": 2333,
      "Ġclose": 2334,
      "Ġindivid": 2335,
      "medi": 2336,
      "Ġdou": 2337,
      "Ġexample": 2338,
      "Ġleading": 2339,
      "ellow": 2340,
      "Ġregular": 2341,
      "Ġce": 2342,
      "Ġhost": 2343,
      "Ġwanted": 2344,
      "Ġfoc": 2345,
      "Ġfinished": 2346,
      "istic": 2347,
      "ills": 2348,
      "Ġoriginally": 2349,
      "Ġwife": 2350,
      "Ġrespect": 2351,
      "ators": 2352,
      "iction": 2353,
      "adron": 2354,
      "aves": 2355,
      "Ġking": 2356,
      "aching": 2357,
      "ollowing": 2358,
      "oor": 2359,
      "orts": 2360,
      "Ġgoal": 2361,
      "men": 2362,
      "ino": 2363,
      "ĠLa": 2364,
      "ption": 2365,
      "Ġinform": 2366,
      "be": 2367,
      "iol": 2368,
      "igned": 2369,
      "Ġsubsequ": 2370,
      "Ġfourth": 2371,
      "olf": 2372,
      "Ġask": 2373,
      "ĠChurch": 2374,
      "Ġworking": 2375,
      "Ġbrother": 2376,
      "go": 2377,
      "ĠBrown": 2378,
      "Ġalmost": 2379,
      "Ġexc": 2380,
      "ĠKe": 2381,
      "Ġroute": 2382,
      "ĠCanada": 2383,
      "ying": 2384,
      "Ġesc": 2385,
      "Ġopening": 2386,
      "Ġheavy": 2387,
      "ĠPe": 2388,
      "ulf": 2389,
      "den": 2390,
      "Ġmer": 2391,
      "ule": 2392,
      "Ġdev": 2393,
      "to": 2394,
      "Ġflag": 2395,
      "Ġsouthern": 2396,
      "arch": 2397,
      "alion": 2398,
      "Ġfar": 2399,
      "ĠVir": 2400,
      "ipp": 2401,
      "Ġnar": 2402,
      "ĠMil": 2403,
      "Ġplaced": 2404,
      "Ġquar": 2405,
      "Ġsequ": 2406,
      "Ġinterest": 2407,
      "Ġfeatured": 2408,
      "omm": 2409,
      "ĠMag": 2410,
      "Ġquest": 2411,
      "ĠFrance": 2412,
      "Ġill": 2413,
      "Ġbird": 2414,
      "ĠHouse": 2415,
      "artment": 2416,
      "Ġcurrent": 2417,
      "ama": 2418,
      "ems": 2419,
      "ĠQue": 2420,
      "ĠIr": 2421,
      "ĠMichael": 2422,
      "right": 2423,
      "ving": 2424,
      "Ġcommer": 2425,
      "Ġquick": 2426,
      "cil": 2427,
      "atural": 2428,
      "Ġreb": 2429,
      "ength": 2430,
      "Ġparticularly": 2431,
      "Ġrelig": 2432,
      "Ġrepresent": 2433,
      "ico": 2434,
      "ude": 2435,
      "espite": 2436,
      "rigade": 2437,
      "Ġdamage": 2438,
      "ki": 2439,
      "Ġsour": 2440,
      "Ġpresident": 2441,
      "ĠGrand": 2442,
      "Ġindust": 2443,
      "Ġinj": 2444,
      "Ġstage": 2445,
      "ÃŃ": 2446,
      "Ġstru": 2447,
      "Ġregard": 2448,
      "rain": 2449,
      "Ġmaterial": 2450,
      "Ġsaying": 2451,
      "ata": 2452,
      "Ġey": 2453,
      "Ġpract": 2454,
      "Ġtreat": 2455,
      "Ġreve": 2456,
      "After": 2457,
      "angu": 2458,
      "cing": 2459,
      "cent": 2460,
      "ĠPlay": 2461,
      "ĠBow": 2462,
      "igan": 2463,
      "ĠHen": 2464,
      "Ġscene": 2465,
      "Ġdesp": 2466,
      "Ġappearance": 2467,
      "ique": 2468,
      "ĠGame": 2469,
      "ĠEm": 2470,
      "Ġsex": 2471,
      "Ġdesigned": 2472,
      "Ġfund": 2473,
      "ĠAg": 2474,
      "urg": 2475,
      "head": 2476,
      "ference": 2477,
      "liam": 2478,
      "uel": 2479,
      "Ġfree": 2480,
      "Ġworks": 2481,
      "ĠDavid": 2482,
      "wood": 2483,
      "Ġneg": 2484,
      "Ġmeas": 2485,
      "orpor": 2486,
      "Ġfootball": 2487,
      "ius": 2488,
      "off": 2489,
      "Ġmust": 2490,
      "Ġhours": 2491,
      "Ġnec": 2492,
      "Ġexist": 2493,
      "Ġinvolved": 2494,
      "erous": 2495,
      "Ġsoon": 2496,
      "enes": 2497,
      "Ġresear": 2498,
      "ming": 2499,
      "Ġbusiness": 2500,
      "Ġresul": 2501,
      "ĠSqu": 2502,
      "ago": 2503,
      "Ġcase": 2504,
      "stit": 2505,
      "Ġyard": 2506,
      "ios": 2507,
      "Ġengine": 2508,
      "ĠQu": 2509,
      "Ġtowards": 2510,
      "Ġhy": 2511,
      "ĠThom": 2512,
      "BC": 2513,
      "rey": 2514,
      "rab": 2515,
      "Ġjoined": 2516,
      "Ġlength": 2517,
      "Ġforced": 2518,
      "Ġve": 2519,
      "co": 2520,
      "ps": 2521,
      "Ġriver": 2522,
      "cher": 2523,
      "eal": 2524,
      "ĠBest": 2525,
      "Ġvot": 2526,
      "Ġgrad": 2527,
      "Ġaverage": 2528,
      "Ġproper": 2529,
      "ĠOld": 2530,
      "now": 2531,
      "Ġpur": 2532,
      "Ġprob": 2533,
      "liament": 2534,
      "ze": 2535,
      "ĠSch": 2536,
      "ĠSome": 2537,
      "ĠVal": 2538,
      "Ġdirected": 2539,
      "Ġparticip": 2540,
      "Ġavail": 2541,
      "lic": 2542,
      "Ġmove": 2543,
      "Ġpossible": 2544,
      "Ġche": 2545,
      "ĠSchool": 2546,
      "ĠMy": 2547,
      "ĠBer": 2548,
      "ourn": 2549,
      "onst": 2550,
      "ĠWil": 2551,
      "Ġcentral": 2552,
      "ĠPaul": 2553,
      "Ġflight": 2554,
      "Ġobject": 2555,
      "Ġconstruct": 2556,
      "Ġachie": 2557,
      "ĠMex": 2558,
      "Ġpraised": 2559,
      "erved": 2560,
      "ville": 2561,
      "ĠBra": 2562,
      "Ġremov": 2563,
      "Ġinvest": 2564,
      "cial": 2565,
      "sel": 2566,
      "Ġtransfer": 2567,
      "Ġphys": 2568,
      "Ġterrit": 2569,
      "mb": 2570,
      "usion": 2571,
      "Ġrespons": 2572,
      "ĠEuropean": 2573,
      "ĠRobert": 2574,
      "fall": 2575,
      "val": 2576,
      "oke": 2577,
      "Ġhard": 2578,
      "ĠViet": 2579,
      "Ġenough": 2580,
      "Ġdirector": 2581,
      "ishing": 2582,
      "ĠCompany": 2583,
      "ĠCap": 2584,
      "key": 2585,
      "Ġoutside": 2586,
      "Ġdraw": 2587,
      "Ġlargest": 2588,
      "ga": 2589,
      "Ġsil": 2590,
      "ĠHol": 2591,
      "ĠHall": 2592,
      "Ġemploy": 2593,
      "iation": 2594,
      "Ġeastern": 2595,
      "Ġnomin": 2596,
      "Ġwhom": 2597,
      "Ġarmy": 2598,
      "Ġelements": 2599,
      "ites": 2600,
      "Ġthreat": 2601,
      "ĠÂ°": 2602,
      "west": 2603,
      "ountain": 2604,
      "Ġruns": 2605,
      "ĠRepublic": 2606,
      "uter": 2607,
      "Ġtaking": 2608,
      "enz": 2609,
      "Ġdebut": 2610,
      "Ġdisp": 2611,
      "Ġpreviously": 2612,
      "Ġreplaced": 2613,
      "Ġclaimed": 2614,
      "ĠPresident": 2615,
      "ida": 2616,
      "Ġevidence": 2617,
      "Ġfeel": 2618,
      "Ġ.\"": 2619,
      "rag": 2620,
      "Ġcenter": 2621,
      "Ġmean": 2622,
      "etwork": 2623,
      "ĠSpanish": 2624,
      "Ġpassed": 2625,
      "ĠWhite": 2626,
      "ground": 2627,
      "lor": 2628,
      "ĠPart": 2629,
      "Ġunits": 2630,
      "Ġrap": 2631,
      "Ġlove": 2632,
      "ĠMary": 2633,
      "ĠGod": 2634,
      "antry": 2635,
      "uck": 2636,
      "Ġinitially": 2637,
      "ston": 2638,
      "Ġfrequ": 2639,
      "me": 2640,
      "acy": 2641,
      "Ġincreased": 2642,
      "Ġearlier": 2643,
      "conom": 2644,
      "atory": 2645,
      "Ġhom": 2646,
      "ĠTwo": 2647,
      "Ġstars": 2648,
      "Ġrail": 2649,
      "Ġrequired": 2650,
      "Ġhighest": 2651,
      "ergy": 2652,
      "Ġbi": 2653,
      "Ġusually": 2654,
      "Ġlangu": 2655,
      "Ġcontrib": 2656,
      "ĠVirgin": 2657,
      "oid": 2658,
      "uation": 2659,
      "heast": 2660,
      "Ġthink": 2661,
      "ĠNavy": 2662,
      "aker": 2663,
      "uk": 2664,
      "anding": 2665,
      "iforn": 2666,
      "ĠThomas": 2667,
      "Ġpot": 2668,
      "ĠPal": 2669,
      "Ġissue": 2670,
      "Ġnorthern": 2671,
      "Ġnine": 2672,
      "ĠMac": 2673,
      "ĠHam": 2674,
      "ĠChampionship": 2675,
      "Ġspecific": 2676,
      "itor": 2677,
      "erson": 2678,
      "ession": 2679,
      "Ġspent": 2680,
      "Ġsigned": 2681,
      "oo": 2682,
      "ĠCaliforn": 2683,
      "inist": 2684,
      "ift": 2685,
      "anned": 2686,
      "Ġparty": 2687,
      "ecutive": 2688,
      "itt": 2689,
      "Ġfall": 2690,
      "Ġhous": 2691,
      "Ġreason": 2692,
      "Ġstren": 2693,
      "Ġfemale": 2694,
      "ma": 2695,
      "Ġhop": 2696,
      "ĠSl": 2697,
      "ĠDr": 2698,
      "ateg": 2699,
      "Ġslow": 2700,
      "Ġchange": 2701,
      "Ġoffice": 2702,
      "Ġpriv": 2703,
      "Ġclear": 2704,
      "Ġintroduced": 2705,
      "Ġap": 2706,
      "ores": 2707,
      "Ġpositive": 2708,
      "reland": 2709,
      "Ġmi": 2710,
      "iff": 2711,
      "Ġaccording": 2712,
      "Ġstudy": 2713,
      "ĠIndia": 2714,
      "Ġbill": 2715,
      "Ġtold": 2716,
      "osing": 2717,
      "Ġtraining": 2718,
      "ĠHot": 2719,
      "Ġinterview": 2720,
      "wer": 2721,
      "ĠGreat": 2722,
      "ĠLove": 2723,
      "Ġbreak": 2724,
      "asion": 2725,
      "bert": 2726,
      "ĠCalifornia": 2727,
      "aled": 2728,
      "Ġinn": 2729,
      "atin": 2730,
      "Ġdro": 2731,
      "ĠPac": 2732,
      "Ġabove": 2733,
      "Ġestimated": 2734,
      "aut": 2735,
      "itte": 2736,
      "Ġpiec": 2737,
      "Ġfort": 2738,
      "ĠNor": 2739,
      "Ġitself": 2740,
      "Ġavailable": 2741,
      "mar": 2742,
      "Ã³": 2743,
      "ado": 2744,
      "Ġpoor": 2745,
      "ĠInternational": 2746,
      "Ġstreng": 2747,
      "ĠIreland": 2748,
      "ĠRock": 2749,
      "Ġconduct": 2750,
      "ĠFirst": 2751,
      "itz": 2752,
      "ĠGr": 2753,
      "ability": 2754,
      "ĠTimes": 2755,
      "Ġcontract": 2756,
      "Ġidea": 2757,
      "Ġdespite": 2758,
      "Ġpast": 2759,
      "Ġgive": 2760,
      "ibility": 2761,
      "Ġwriter": 2762,
      "Ġwestern": 2763,
      "oms": 2764,
      "etic": 2765,
      "irth": 2766,
      "Ġabs": 2767,
      "Ġcru": 2768,
      "ander": 2769,
      "Ġended": 2770,
      "ilities": 2771,
      "Ġyards": 2772,
      "hib": 2773,
      "Ġsection": 2774,
      "Ġshot": 2775,
      "ĠVietn": 2776,
      "bor": 2777,
      "Ġwat": 2778,
      "Ġviol": 2779,
      "Ġmight": 2780,
      "Ġcome": 2781,
      "Ġbuildings": 2782,
      "Ġwinds": 2783,
      "Ġbeg": 2784,
      "Ġbetter": 2785,
      "Ġsocial": 2786,
      "ĠÃ": 2787,
      "Ġfly": 2788,
      "ulated": 2789,
      "Ġhighway": 2790,
      "Ġmetal": 2791,
      "ĠColle": 2792,
      "eum": 2793,
      "Ġpain": 2794,
      "Ġleague": 2795,
      "Ġpolice": 2796,
      "Ġturned": 2797,
      "Ġtroops": 2798,
      "Ġfut": 2799,
      "rian": 2800,
      "Ġimmedi": 2801,
      "Ġrecording": 2802,
      "Ġbeginning": 2803,
      "Ġlyric": 2804,
      "ĠPacific": 2805,
      "Ġhurricane": 2806,
      "ĠOl": 2807,
      "ification": 2808,
      "Ġmagazine": 2809,
      "Ġordered": 2810,
      "Ġesp": 2811,
      "Ġpit": 2812,
      "ĠSing": 2813,
      "Ġcourt": 2814,
      "Ġcal": 2815,
      "Ġeduc": 2816,
      "Ġtru": 2817,
      "iter": 2818,
      "ready": 2819,
      "het": 2820,
      "Ġdon": 2821,
      "Ġsometimes": 2822,
      "ĠBattle": 2823,
      "lex": 2824,
      "Ġstaff": 2825,
      "ĠPet": 2826,
      "Ġwhose": 2827,
      "Ġmanager": 2828,
      "Ġcivil": 2829,
      "Ġden": 2830,
      "ĠCong": 2831,
      "unt": 2832,
      "Ġpercent": 2833,
      "Ġsurf": 2834,
      "icle": 2835,
      "ĠFlor": 2836,
      "ha": 2837,
      "ĠTown": 2838,
      "ĠÂ£": 2839,
      "Ġwood": 2840,
      "ĠCup": 2841,
      "ĠDay": 2842,
      "ĠOther": 2843,
      "Ġcommission": 2844,
      "Ġsubject": 2845,
      "han": 2846,
      "leb": 2847,
      "Ġparts": 2848,
      "Ġshows": 2849,
      "ĠBritain": 2850,
      "ĠMusic": 2851,
      "ĠHenry": 2852,
      "NA": 2853,
      "Ġbomb": 2854,
      "Ġeconom": 2855,
      "Ġgod": 2856,
      "Ġindepend": 2857,
      "ĠMark": 2858,
      "ĠFrank": 2859,
      "inct": 2860,
      "arily": 2861,
      "Ġdi": 2862,
      "ĠTex": 2863,
      "Ġnuc": 2864,
      "ranch": 2865,
      "Ġscreen": 2866,
      "Ġstudio": 2867,
      "lin": 2868,
      "asy": 2869,
      "ĠSen": 2870,
      "Ġlower": 2871,
      "ĠBu": 2872,
      "ĠDep": 2873,
      "Ġvir": 2874,
      "Ġgoing": 2875,
      "Ġeffects": 2876,
      "Ġadditional": 2877,
      "Ġfriends": 2878,
      "raw": 2879,
      "Ġcomplet": 2880,
      "edy": 2881,
      "Ġalready": 2882,
      "elled": 2883,
      "Ġemb": 2884,
      "ĠMichigan": 2885,
      "ĠDon": 2886,
      "Ġepisodes": 2887,
      "Ġquarter": 2888,
      "rd": 2889,
      "Ġcertain": 2890,
      "rief": 2891,
      "ena": 2892,
      "Ġflood": 2893,
      "Ġsurround": 2894,
      "Ġsuggested": 2895,
      "Ġpen": 2896,
      "rying": 2897,
      "Ġremaining": 2898,
      "back": 2899,
      "hile": 2900,
      "ume": 2901,
      "ĠUnion": 2902,
      "Ġwinning": 2903,
      "Ġcat": 2904,
      "ĠAc": 2905,
      "Ġunc": 2906,
      "Ġacqu": 2907,
      "Ġlarger": 2908,
      "Ġcomplete": 2909,
      "aughter": 2910,
      "down": 2911,
      "Ġmem": 2912,
      "ecially": 2913,
      "Ġrul": 2914,
      "Ġkey": 2915,
      "Ġtransport": 2916,
      "Ġbreed": 2917,
      "Ġsize": 2918,
      "aries": 2919,
      "osition": 2920,
      "Ġlimited": 2921,
      "ands": 2922,
      "Ġawarded": 2923,
      "Ġappointed": 2924,
      "rack": 2925,
      "Ġtrib": 2926,
      "Ġstates": 2927,
      "Ġgoals": 2928,
      "Ġdeterm": 2929,
      "Ġincreasing": 2930,
      "Ġkeep": 2931,
      "porary": 2932,
      "Ġcommercial": 2933,
      "Ġgold": 2934,
      "Ġdeal": 2935,
      "Ġremain": 2936,
      "Ġsoldiers": 2937,
      "aring": 2938,
      "usp": 2939,
      "Ġexcept": 2940,
      "ĠThat": 2941,
      "orses": 2942,
      "Ġreviews": 2943,
      "Ġarrived": 2944,
      "Ġbroadcast": 2945,
      "ota": 2946,
      "ylan": 2947,
      "ĠVict": 2948,
      "Ġimm": 2949,
      "Ġespecially": 2950,
      "iqu": 2951,
      "Ġfood": 2952,
      "ĠHill": 2953,
      "ĠWales": 2954,
      "ĠEr": 2955,
      "ĠDespite": 2956,
      "Ġcapital": 2957,
      "ĠAssoci": 2958,
      "amer": 2959,
      "ĠBay": 2960,
      "ĠSmith": 2961,
      "Ġmph": 2962,
      "ĠPeter": 2963,
      "ĠGovern": 2964,
      "ĠUK": 2965,
      "ĠMissou": 2966,
      "Ġphot": 2967,
      "Ġoccup": 2968,
      "enth": 2969,
      "ĠStar": 2970,
      "ĠCanadian": 2971,
      "Ġassist": 2972,
      "ĠAngel": 2973,
      "ittee": 2974,
      "ĠAward": 2975,
      "ĠMal": 2976,
      "ĠMont": 2977,
      "inese": 2978,
      "Ġapprox": 2979,
      "Ġproposed": 2980,
      "Ġcred": 2981,
      "ĠSoc": 2982,
      "vert": 2983,
      "ĠJenn": 2984,
      "ĠChinese": 2985,
      "aire": 2986,
      "leg": 2987,
      "ĠMet": 2988,
      "lands": 2989,
      "Ġgroups": 2990,
      "Ġestablish": 2991,
      "Ġforest": 2992,
      "ĠRichard": 2993,
      "Ġremains": 2994,
      "Ġliter": 2995,
      "Ġquickly": 2996,
      "Ġwoman": 2997,
      "Ġdoc": 2998,
      "ĠCour": 2999,
      "olic": 3000,
      "Ġproduct": 3001,
      "Ġinternational": 3002,
      "tation": 3003,
      "ises": 3004,
      "acing": 3005,
      "Ġwithd": 3006,
      "rav": 3007,
      "Ġintended": 3008,
      "Ġdecision": 3009,
      "ĠVirginia": 3010,
      "Ġtouch": 3011,
      "ĠTech": 3012,
      "Ġmarket": 3013,
      "Ġprior": 3014,
      "Ġbrief": 3015,
      "ĠIm": 3016,
      "Ġconcept": 3017,
      "ĠGo": 3018,
      "ĠFeder": 3019,
      "Ġminutes": 3020,
      "Ġoperations": 3021,
      "Ġexperience": 3022,
      "Ġ?": 3023,
      "ĠMart": 3024,
      "Ġblock": 3025,
      "Ġconclud": 3026,
      "gl": 3027,
      "reak": 3028,
      "abit": 3029,
      "ĠAtlantic": 3030,
      "Ġfuture": 3031,
      "Ã¶": 3032,
      "Ġfailed": 3033,
      "Ġpair": 3034,
      "Ġlatter": 3035,
      "ĠHa": 3036,
      "Ġcommunity": 3037,
      "Ġbridge": 3038,
      "Ġtourn": 3039,
      "Ġsyn": 3040,
      "Ġasked": 3041,
      "Ġfleet": 3042,
      "ĠSom": 3043,
      "Ġlines": 3044,
      "ĠWash": 3045,
      "ĠCarol": 3046,
      "Ġsummer": 3047,
      "Ġlab": 3048,
      "ĠRuss": 3049,
      "ĠSuper": 3050,
      "As": 3051,
      "Ġdeg": 3052,
      "ography": 3053,
      "ĠCharles": 3054,
      "Ġpressure": 3055,
      "Ġbecoming": 3056,
      "ĠMost": 3057,
      "ĠOt": 3058,
      "Ġscore": 3059,
      "Ġrain": 3060,
      "Ġdestroyed": 3061,
      "ĠJust": 3062,
      "Ġfilms": 3063,
      "Ġstudents": 3064,
      "ospital": 3065,
      "van": 3066,
      "Ġtest": 3067,
      "onse": 3068,
      "isl": 3069,
      "Ġbig": 3070,
      "ĠFrom": 3071,
      "ĠLou": 3072,
      "ĠChic": 3073,
      "Ġdiss": 3074,
      "Ġbur": 3075,
      "ĠTom": 3076,
      "Ġthus": 3077,
      "Ġnatural": 3078,
      "ĠDylan": 3079,
      "thing": 3080,
      "Ġprobably": 3081,
      "Ġbr": 3082,
      "Ġanc": 3083,
      "Ġnearly": 3084,
      "Ġmultip": 3085,
      "ĠWashington": 3086,
      "Ġbank": 3087,
      "Ġliving": 3088,
      "ĠGold": 3089,
      "ounted": 3090,
      "Ġens": 3091,
      "Ġchanged": 3092,
      "Ġchanges": 3093,
      "gen": 3094,
      "iser": 3095,
      "oul": 3096,
      "ĠNY": 3097,
      "Ġcycl": 3098,
      "ĠFlorida": 3099,
      "light": 3100,
      "Ġentered": 3101,
      "AF": 3102,
      "Ġcoin": 3103,
      "illa": 3104,
      "Ġminor": 3105,
      "ĠSam": 3106,
      "Ġshoot": 3107,
      "Ġsupported": 3108,
      "Ġmixed": 3109,
      "Ġvoice": 3110,
      "Ġlearn": 3111,
      "Ġintens": 3112,
      "Ġenv": 3113,
      "Ġmusical": 3114,
      "Ġrunning": 3115,
      "ĠHow": 3116,
      "Ġmoney": 3117,
      "Ġfeature": 3118,
      "ĠHo": 3119,
      "Ġprem": 3120,
      "Ġresearch": 3121,
      "uals": 3122,
      "Ġfail": 3123,
      "ula": 3124,
      "Ġaccess": 3125,
      "Ġstructure": 3126,
      "Ġpark": 3127,
      "Ġmale": 3128,
      "Ġheav": 3129,
      "Ġteams": 3130,
      "rate": 3131,
      "Ġwide": 3132,
      "ĠPenn": 3133,
      "Ġagreed": 3134,
      "Ġcarried": 3135,
      "Ġproblems": 3136,
      "ires": 3137,
      "Ġcause": 3138,
      "ĠRes": 3139,
      "Ġarran": 3140,
      "ĠItal": 3141,
      "Ġindic": 3142,
      "ĠVictor": 3143,
      "ĠStud": 3144,
      "teen": 3145,
      "Ġdefeated": 3146,
      "band": 3147,
      "alled": 3148,
      "Ġleaving": 3149,
      "Ġtemper": 3150,
      "Ġlikely": 3151,
      "uing": 3152,
      "ership": 3153,
      "Ġdiscovered": 3154,
      "Ġquestion": 3155,
      "Ġdram": 3156,
      "ĠBoy": 3157,
      "ĠEver": 3158,
      "Ġconsider": 3159,
      "ĠBillboard": 3160,
      "ournal": 3161,
      "Ġburn": 3162,
      "ĠMer": 3163,
      "Ġconcern": 3164,
      "Ġradio": 3165,
      "Ġfarm": 3166,
      "Ġdate": 3167,
      "Ġhapp": 3168,
      "ĠEv": 3169,
      "force": 3170,
      "Ġlyrics": 3171,
      "Ġcompl": 3172,
      "Ġadop": 3173,
      "Ġhelped": 3174,
      "ĠChicago": 3175,
      "ĠFollowing": 3176,
      "ĠJim": 3177,
      "Ġrare": 3178,
      "Ġmarried": 3179,
      "Ġcopies": 3180,
      "Ġhorse": 3181,
      "Ġlived": 3182,
      "thlet": 3183,
      "ĠWood": 3184,
      "Ġbattles": 3185,
      "Ġpay": 3186,
      "Ġlo": 3187,
      "Ġdiscuss": 3188,
      "Ġtype": 3189,
      "nes": 3190,
      "Ġsusp": 3191,
      "ows": 3192,
      "ĠDan": 3193,
      "ging": 3194,
      "uit": 3195,
      "inent": 3196,
      "Ġparen": 3197,
      "Ġdone": 3198,
      "Ġthemsel": 3199,
      "Ġprovide": 3200,
      "incip": 3201,
      "Ġapproximately": 3202,
      "Ġthemselves": 3203,
      "hy": 3204,
      "Ġlonger": 3205,
      "Ġofficers": 3206,
      "Ġranked": 3207,
      "ih": 3208,
      "ĠTay": 3209,
      "Ġnetwork": 3210,
      "ĠBel": 3211,
      "umber": 3212,
      "Ġmostly": 3213,
      "bers": 3214,
      "tained": 3215,
      "atively": 3216,
      "Ġnames": 3217,
      "ĠMr": 3218,
      "ĠBrigade": 3219,
      "ĠRo": 3220,
      "Ġfocus": 3221,
      "Ġlanguage": 3222,
      "fect": 3223,
      "rast": 3224,
      "ĠIf": 3225,
      "ĠJew": 3226,
      "Ġdead": 3227,
      "Ġmoving": 3228,
      "orial": 3229,
      "Ġbirth": 3230,
      "Ġpurch": 3231,
      "Ġexam": 3232,
      "ĠUp": 3233,
      "hips": 3234,
      "Ġsat": 3235,
      "Ġcm": 3236,
      "Ġbring": 3237,
      "ĠTV": 3238,
      "ĠSun": 3239,
      "Ġstay": 3240,
      "Ġrelated": 3241,
      "Ġvillage": 3242,
      "ros": 3243,
      "Ġearned": 3244,
      "Ġresponse": 3245,
      "Ġfavor": 3246,
      "Ġcomplex": 3247,
      "ĠCollege": 3248,
      "Äģ": 3249,
      "Ġface": 3250,
      "Ġder": 3251,
      "Ġalways": 3252,
      "ĠLake": 3253,
      "Ġran": 3254,
      "Ġraised": 3255,
      "ari": 3256,
      "alv": 3257,
      "undred": 3258,
      "ny": 3259,
      "Ġmakes": 3260,
      "Ġemer": 3261,
      "ĠMa": 3262,
      "uth": 3263,
      "ĠWestern": 3264,
      "Ġinfluence": 3265,
      "ĠAfrica": 3266,
      "Ġself": 3267,
      "Ġdomin": 3268,
      "Ġreact": 3269,
      "urt": 3270,
      "idents": 3271,
      "change": 3272,
      "Ġleave": 3273,
      "Ġvisit": 3274,
      "ĠBattalion": 3275,
      "eg": 3276,
      "lo": 3277,
      "Ġsmaller": 3278,
      "Ġmedia": 3279,
      "ening": 3280,
      "Ġcell": 3281,
      "acter": 3282,
      "ĠVer": 3283,
      "Ġenergy": 3284,
      "ĠAfrican": 3285,
      "Ġscenes": 3286,
      "Ġlocation": 3287,
      "hester": 3288,
      "Ġsomething": 3289,
      "Ġpil": 3290,
      "ĠOly": 3291,
      "Ġcompared": 3292,
      "Ġfifth": 3293,
      "Ġconver": 3294,
      "ĠFort": 3295,
      "Ġsea": 3296,
      "Ġtrade": 3297,
      "Ġunderst": 3298,
      "hod": 3299,
      "Ġcer": 3300,
      "Ġmom": 3301,
      "Ġmur": 3302,
      "ĠBig": 3303,
      "ĠLaw": 3304,
      "ously": 3305,
      "Ġincludes": 3306,
      "Ġceleb": 3307,
      "Ġdaughter": 3308,
      "Ġforward": 3309,
      "Ġchall": 3310,
      "ĠInf": 3311,
      "orps": 3312,
      "ĠTexas": 3313,
      "ĠOlymp": 3314,
      "not": 3315,
      "Ġflow": 3316,
      "oper": 3317,
      "Ġkil": 3318,
      "Ġmovement": 3319,
      "Ġsett": 3320,
      "ĠTaylor": 3321,
      "iring": 3322,
      "Ġstories": 3323,
      "Ġdeep": 3324,
      "Ġelection": 3325,
      "Ġincrease": 3326,
      "Ġtwent": 3327,
      "isions": 3328,
      "uments": 3329,
      "ĠOver": 3330,
      "Ġcreate": 3331,
      "Ġdistrib": 3332,
      "Ġboard": 3333,
      "Ġdark": 3334,
      "Ġgir": 3335,
      "ĠLos": 3336,
      "Ġcontem": 3337,
      "Ġroom": 3338,
      "During": 3339,
      "Ġour": 3340,
      "ĠPri": 3341,
      "Ġselected": 3342,
      "Ġplot": 3343,
      "ective": 3344,
      "ĠEarth": 3345,
      "Ġmach": 3346,
      "Ġtheme": 3347,
      "Ġrecords": 3348,
      "Ġlaunched": 3349,
      "Ġreligious": 3350,
      "ĠAssociation": 3351,
      "ĠLater": 3352,
      "Ġterms": 3353,
      "Ġanti": 3354,
      "Ġoccurred": 3355,
      "ĠApp": 3356,
      "aches": 3357,
      "Ġgot": 3358,
      "tered": 3359,
      "Ġpersonal": 3360,
      "ĠCourt": 3361,
      "iest": 3362,
      "of": 3363,
      "ror": 3364,
      "itude": 3365,
      "icles": 3366,
      "imum": 3367,
      "berg": 3368,
      "quar": 3369,
      "ears": 3370,
      "Ġund": 3371,
      "Ġconsist": 3372,
      "Ġcaptured": 3373,
      "hew": 3374,
      "ĠRad": 3375,
      "ĠCroat": 3376,
      "Ġconstructed": 3377,
      "Ġsch": 3378,
      "Ġwalk": 3379,
      "Ġhorses": 3380,
      "ĠBC": 3381,
      "imate": 3382,
      "Ġuns": 3383,
      "Ġvers": 3384,
      "ĠGermany": 3385,
      "Ġhigher": 3386,
      "ĠSecond": 3387,
      "ĠSaint": 3388,
      "cean": 3389,
      "ĠScott": 3390,
      "Ġcourse": 3391,
      "Ġmeeting": 3392,
      "iant": 3393,
      "nel": 3394,
      "ware": 3395,
      "Ã¼": 3396,
      "atives": 3397,
      "ĠAwards": 3398,
      "Ġshown": 3399,
      "ĠJohnson": 3400,
      "Ġexperi": 3401,
      "Ġsaf": 3402,
      "Ġword": 3403,
      "Ġdig": 3404,
      "ĠWal": 3405,
      "ĠFoot": 3406,
      "Ġprote": 3407,
      "illed": 3408,
      "Ġrat": 3409,
      "Ġlisted": 3410,
      "ĠJackson": 3411,
      "Ġprivate": 3412,
      "kin": 3413,
      "Ġthr": 3414,
      "ĠCross": 3415,
      "Ġwhether": 3416,
      "Ġspeed": 3417,
      "Ġcommented": 3418,
      "Ġult": 3419,
      "ĠBell": 3420,
      "ria": 3421,
      "ĠHighway": 3422,
      "Ġprofessional": 3423,
      "Ġmention": 3424,
      "ams": 3425,
      "ĠMill": 3426,
      "Ġinitial": 3427,
      "Ġprimary": 3428,
      "ĠMexico": 3429,
      "inated": 3430,
      "ĠSol": 3431,
      "Ġcontains": 3432,
      "ples": 3433,
      "Ġcollect": 3434,
      "ĠZeal": 3435,
      "ties": 3436,
      "ĠRob": 3437,
      "Ġdamaged": 3438,
      "Ġfans": 3439,
      "Ġlink": 3440,
      "Ġnature": 3441,
      "eway": 3442,
      "Ġkind": 3443,
      "Ġguitar": 3444,
      "Ġcombat": 3445,
      "Ġlargely": 3446,
      "Ġinspired": 3447,
      "Ġsubsequently": 3448,
      "ĠIrish": 3449,
      "ĠSir": 3450,
      "Ġspace": 3451,
      "gypt": 3452,
      "Ġinvestig": 3453,
      "cript": 3454,
      "Ġbord": 3455,
      "ĠPat": 3456,
      "Ġcolon": 3457,
      "Ġsociety": 3458,
      "ken": 3459,
      "erve": 3460,
      "Ġjob": 3461,
      "Ġreferred": 3462,
      "Ġnecess": 3463,
      "Ġsurface": 3464,
      "ĠZealand": 3465,
      "itation": 3466,
      "asc": 3467,
      "rown": 3468,
      "ĠTur": 3469,
      "Ġoverall": 3470,
      "orning": 3471,
      "Ġaccount": 3472,
      "Ġsuggest": 3473,
      "Ġpurp": 3474,
      "oned": 3475,
      "Ġsem": 3476,
      "olves": 3477,
      "umn": 3478,
      "Ġwhole": 3479,
      "izing": 3480,
      "Ġneeded": 3481,
      "ĠCentral": 3482,
      "Ġsect": 3483,
      "Ġgrand": 3484,
      "ĠFilm": 3485,
      "agon": 3486,
      "Ġspir": 3487,
      "ĠArt": 3488,
      "Ġmethod": 3489,
      "annel": 3490,
      "Ġtracks": 3491,
      "ĠIII": 3492,
      "Ġdisapp": 3493,
      "ĠSquadron": 3494,
      "Ġri": 3495,
      "ĠBr": 3496,
      "ĠNort": 3497,
      "Ġcritical": 3498,
      "Ġpoet": 3499,
      "road": 3500,
      "ĠMic": 3501,
      "Ġgiving": 3502,
      "odies": 3503,
      "Ġnumbers": 3504,
      "Ġmajority": 3505,
      "Ġstatus": 3506,
      "Ġpow": 3507,
      "Ġreally": 3508,
      "Ġhealth": 3509,
      "ĠOs": 3510,
      "Ġadap": 3511,
      "Ġnewsp": 3512,
      "Ġappears": 3513,
      "Ġcountries": 3514,
      "aught": 3515,
      "Ġlay": 3516,
      "ĠGreen": 3517,
      "Ġnotes": 3518,
      "Ġupper": 3519,
      "imb": 3520,
      "Ġdise": 3521,
      "Ġmeant": 3522,
      "Al": 3523,
      "ona": 3524,
      "reater": 3525,
      "Ġcho": 3526,
      "Ġcompan": 3527,
      "Ġadminist": 3528,
      "de": 3529,
      "Ġtalk": 3530,
      "ĠAlex": 3531,
      "Ġproducer": 3532,
      "ervation": 3533,
      "Ġinformation": 3534,
      "ĠTor": 3535,
      "Ġthick": 3536,
      "stant": 3537,
      "Ġscript": 3538,
      "Ġdefeat": 3539,
      "Ġarchit": 3540,
      "ironment": 3541,
      "Ġremoved": 3542,
      "pping": 3543,
      "Ġplanned": 3544,
      "Ġartist": 3545,
      "Ġcontroll": 3546,
      "Ġtournament": 3547,
      "fact": 3548,
      "ĠIts": 3549,
      "umed": 3550,
      "riage": 3551,
      "ibly": 3552,
      "Ġdouble": 3553,
      "well": 3554,
      "Ġpick": 3555,
      "Ġstating": 3556,
      "ulations": 3557,
      "ĠEgypt": 3558,
      "Ġclosed": 3559,
      "Ġsuffered": 3560,
      "gar": 3561,
      "Ġboy": 3562,
      "Ġpath": 3563,
      "ounds": 3564,
      "Ġsymb": 3565,
      "Ġfinally": 3566,
      "Ġimmediately": 3567,
      "tar": 3568,
      "Ġsen": 3569,
      "isher": 3570,
      "ĠCamp": 3571,
      "osen": 3572,
      "Ġending": 3573,
      "ennon": 3574,
      "ĠFranc": 3575,
      "ĠIll": 3576,
      "ĠHaw": 3577,
      "Ġunable": 3578,
      "Ġoffered": 3579,
      "uz": 3580,
      "Ġtakes": 3581,
      "ĠTer": 3582,
      "ĠMany": 3583,
      "ĠPo": 3584,
      "ĠInter": 3585,
      "aily": 3586,
      "Ġtar": 3587,
      "Ġmiddle": 3588,
      "iles": 3589,
      "ĠDo": 3590,
      "udd": 3591,
      "Ġslight": 3592,
      "Ġhundred": 3593,
      "ĠCoun": 3594,
      "ĠBec": 3595,
      "ĠGar": 3596,
      "Ġaband": 3597,
      "Ġtraditional": 3598,
      "ĠCrit": 3599,
      "ortun": 3600,
      "Ġplans": 3601,
      "Ġyet": 3602,
      "Ġprevent": 3603,
      "ij": 3604,
      "ĠBur": 3605,
      "ĠJe": 3606,
      "Ġassigned": 3607,
      "ĠEnter": 3608,
      "Ġfell": 3609,
      "Ġreach": 3610,
      "Ġaccomp": 3611,
      "Ġrefused": 3612,
      "Ġassociated": 3613,
      "Ġindustry": 3614,
      "Ġmeaning": 3615,
      "ĠItalian": 3616,
      "inn": 3617,
      "atre": 3618,
      "ĠHist": 3619,
      "ady": 3620,
      "Ġsevent": 3621,
      "Ġattention": 3622,
      "Ġprec": 3623,
      "Ġcompetition": 3624,
      "oral": 3625,
      "Ġsched": 3626,
      "Ġpolic": 3627,
      "Ġfinanc": 3628,
      "ault": 3629,
      "Ġcle": 3630,
      "Ġbene": 3631,
      "Ġdivision": 3632,
      "ĠCle": 3633,
      "ĠSea": 3634,
      "Ġdepression": 3635,
      "ĠParliament": 3636,
      "Ġvocal": 3637,
      "Ġnorm": 3638,
      "arts": 3639,
      "Ġactive": 3640,
      "Ġnumerous": 3641,
      "hens": 3642,
      "Ġindividual": 3643,
      "ĠJennings": 3644,
      "quarters": 3645,
      "iated": 3646,
      "zy": 3647,
      "iled": 3648,
      "andid": 3649,
      "Ġchampionship": 3650,
      "Ġjud": 3651,
      "anna": 3652,
      "venue": 3653,
      "Ġnearby": 3654,
      "iy": 3655,
      "oura": 3656,
      "ĠHel": 3657,
      "osh": 3658,
      "ify": 3659,
      "Ġserious": 3660,
      "Ġminute": 3661,
      "Ġvariety": 3662,
      "Ġservices": 3663,
      "Ġissued": 3664,
      "Ġrespectively": 3665,
      "At": 3666,
      "Ġmeans": 3667,
      "Ġmetres": 3668,
      "Ġelected": 3669,
      "ĠEdward": 3670,
      "Ġreduced": 3671,
      "Ġrapid": 3672,
      "Ġlegisl": 3673,
      "Ġhour": 3674,
      "uries": 3675,
      "ĠBoth": 3676,
      "oses": 3677,
      "Ġuses": 3678,
      "Ġtext": 3679,
      "ension": 3680,
      "Ġpresence": 3681,
      "Ġconditions": 3682,
      "Ġbirds": 3683,
      "hood": 3684,
      "joy": 3685,
      "acher": 3686,
      "Ġdirectly": 3687,
      "ĠForce": 3688,
      "ĠRegiment": 3689,
      "Ġreject": 3690,
      "ĠServ": 3691,
      "ĠDel": 3692,
      "ĠLord": 3693,
      "Ġscient": 3694,
      "Ġattacked": 3695,
      "Ġconfir": 3696,
      "Ġaudience": 3697,
      "awn": 3698,
      "Ġwall": 3699,
      "oured": 3700,
      "ĠTenn": 3701,
      "ĠBond": 3702,
      "Ġasp": 3703,
      "utch": 3704,
      "ĠUnder": 3705,
      "Ġprincip": 3706,
      "Ġpoem": 3707,
      "Ġhands": 3708,
      "ĠCare": 3709,
      "ĠGames": 3710,
      "Ġvia": 3711,
      "Ġattacks": 3712,
      "Ġresulted": 3713,
      "Ġsales": 3714,
      "Ġdu": 3715,
      "Ġhot": 3716,
      "ĠNot": 3717,
      "Ġmodel": 3718,
      "Ġobserved": 3719,
      "Ġlog": 3720,
      "Ġchap": 3721,
      "Ġsettle": 3722,
      "Ġextended": 3723,
      "Ġextrem": 3724,
      "Ġmarked": 3725,
      "Ġwatch": 3726,
      "ĠMatt": 3727,
      "Ġstra": 3728,
      "ounts": 3729,
      "Ġinstr": 3730,
      "Ġstandard": 3731,
      "hold": 3732,
      "Åį": 3733,
      "Ġ-": 3734,
      "Ġdom": 3735,
      "ĠCath": 3736,
      "Ġdisplay": 3737,
      "cle": 3738,
      "iny": 3739,
      "Ġbad": 3740,
      "rial": 3741,
      "ĠOut": 3742,
      "astic": 3743,
      "Ġblood": 3744,
      "airs": 3745,
      "Ġschools": 3746,
      "Ġattempted": 3747,
      "ka": 3748,
      "uge": 3749,
      "Ġess": 3750,
      "edo": 3751,
      "urity": 3752,
      "Ġang": 3753,
      "ĠKn": 3754,
      "Ġunit": 3755,
      "Ġweap": 3756,
      "Ġconstit": 3757,
      "Ġdetail": 3758,
      "uated": 3759,
      "Ġbow": 3760,
      "Ġgraph": 3761,
      "ĠBon": 3762,
      "aby": 3763,
      "ordan": 3764,
      "Ġamb": 3765,
      "Ġcovered": 3766,
      "Ġlevels": 3767,
      "aurus": 3768,
      "Ġdeclared": 3769,
      "ĠAcad": 3770,
      "Ġschol": 3771,
      "Ġpurs": 3772,
      "Ġnation": 3773,
      "Ġrate": 3774,
      "Ġcontinue": 3775,
      "Ġbelow": 3776,
      "rary": 3777,
      "Ġcomposed": 3778,
      "ares": 3779,
      "rical": 3780,
      "ĠGulf": 3781,
      "Ġunl": 3782,
      "Ġcentre": 3783,
      "Ġhighly": 3784,
      "Ġallowing": 3785,
      "Ġbooks": 3786,
      "Ġaccepted": 3787,
      "win": 3788,
      "Ġwant": 3789,
      "Ġbound": 3790,
      "ĠJer": 3791,
      "Ġenjoy": 3792,
      "Ġfigure": 3793,
      "Ġsource": 3794,
      "Ġrevealed": 3795,
      "ĠParty": 3796,
      "ĠFe": 3797,
      "ĠEmp": 3798,
      "Ġplant": 3799,
      "Ġattended": 3800,
      "Ġneigh": 3801,
      "Ġpresented": 3802,
      "Ġfighting": 3803,
      "ĠCongress": 3804,
      "ĠAngeles": 3805,
      "ĠCarolina": 3806,
      "uff": 3807,
      "Ġbox": 3808,
      "Ġhun": 3809,
      "oud": 3810,
      "ils": 3811,
      "ĠDou": 3812,
      "anded": 3813,
      "Ġrid": 3814,
      "Ġsearch": 3815,
      "ĠRev": 3816,
      "ĠClub": 3817,
      "Ġrights": 3818,
      "can": 3819,
      "een": 3820,
      "Ġfr": 3821,
      "ingu": 3822,
      "Ġhus": 3823,
      "Ġthings": 3824,
      "Ġseem": 3825,
      "Ġrecomm": 3826,
      "Ġprep": 3827,
      "Ġproduce": 3828,
      "Ġstarting": 3829,
      "Ġi": 3830,
      "ĠCorps": 3831,
      "ema": 3832,
      "pted": 3833,
      "Ġwrite": 3834,
      "ĠCenter": 3835,
      "ĠQueen": 3836,
      "ĠCouncil": 3837,
      "Ġrein": 3838,
      "ĠSo": 3839,
      "ĠOper": 3840,
      "embly": 3841,
      "Ġfunction": 3842,
      "vement": 3843,
      "ĠLennon": 3844,
      "Ġuniversity": 3845,
      "Ġdistinct": 3846,
      "Ġmatches": 3847,
      "Ġcounter": 3848,
      "enant": 3849,
      "Ġhar": 3850,
      "ruit": 3851,
      "Ġscoring": 3852,
      "ĠScot": 3853,
      "ĠHero": 3854,
      "Ġtower": 3855,
      "icip": 3856,
      "ĠFore": 3857,
      "Ġrecover": 3858,
      "Ġtraffic": 3859,
      "Ġofficer": 3860,
      "Ġconcluded": 3861,
      "ĠTre": 3862,
      "Ġlot": 3863,
      "ĠDist": 3864,
      "ĠArch": 3865,
      "Ġveh": 3866,
      "ĠArab": 3867,
      "eler": 3868,
      "ĠCreek": 3869,
      "Ġchief": 3870,
      "Ġplat": 3871,
      "Ġinside": 3872,
      "Ġpowerful": 3873,
      "Ġterritory": 3874,
      "Ġresponsible": 3875,
      "Ġtouchdown": 3876,
      "ĠLouis": 3877,
      "ero": 3878,
      "icted": 3879,
      "Ġded": 3880,
      "aped": 3881,
      "Ġcalling": 3882,
      "Ġleader": 3883,
      "Ġcommander": 3884,
      "AA": 3885,
      "cers": 3886,
      "ication": 3887,
      "ĠAnn": 3888,
      "Ġstrength": 3889,
      "ĠFootball": 3890,
      "onna": 3891,
      "ĠRail": 3892,
      "ĠOp": 3893,
      "stitute": 3894,
      "Ġparents": 3895,
      "rat": 3896,
      "ĠBen": 3897,
      "ĠBey": 3898,
      "Ġaltern": 3899,
      "Ġanal": 3900,
      "Ġfounded": 3901,
      "Ġoperation": 3902,
      "Ġseparate": 3903,
      "Ġkilomet": 3904,
      "ani": 3905,
      "ĠTrans": 3906,
      "ĠMount": 3907,
      "ĠWork": 3908,
      "ĠLatin": 3909,
      "Ġcorn": 3910,
      "Ġmission": 3911,
      "ĠTurn": 3912,
      "Ġgreater": 3913,
      "ims": 3914,
      "Ġquality": 3915,
      "Ġsinger": 3916,
      "Ġeffort": 3917,
      "Ġannual": 3918,
      "echan": 3919,
      "Ġhero": 3920,
      "Ġheart": 3921,
      "ĠLiber": 3922,
      "Ġdrum": 3923,
      "Ġviewers": 3924,
      "Ġgreatest": 3925,
      "Ġcerem": 3926,
      "inary": 3927,
      "ita": 3928,
      "alty": 3929,
      "ĠTour": 3930,
      "emic": 3931,
      "peror": 3932,
      "ĠAnother": 3933,
      "ĠAdm": 3934,
      "Ġtwenty": 3935,
      "ĠNorthern": 3936,
      "Ġwalls": 3937,
      "Ġcandid": 3938,
      "ĠTra": 3939,
      "Ġattract": 3940,
      "ĠYear": 3941,
      "oint": 3942,
      "Ġsecret": 3943,
      "Ġamount": 3944,
      "iro": 3945,
      "ipped": 3946,
      "mas": 3947,
      "ras": 3948,
      "ora": 3949,
      "Ġdoll": 3950,
      "Ġlif": 3951,
      "ĠBus": 3952,
      "Ġagre": 3953,
      "Ġactually": 3954,
      "ĠSpok": 3955,
      "Ġperformances": 3956,
      "ĠHarrison": 3957,
      "ych": 3958,
      "itting": 3959,
      "isk": 3960,
      "anced": 3961,
      "ĠKent": 3962,
      "Ġcontrast": 3963,
      "Ġshowed": 3964,
      "Th": 3965,
      "che": 3966,
      "gu": 3967,
      "vin": 3968,
      "Ġsister": 3969,
      "Ġwa": 3970,
      "Ġstop": 3971,
      "orpedo": 3972,
      "Ġattempts": 3973,
      "Ġissues": 3974,
      "mitted": 3975,
      "rative": 3976,
      "ãĥ": 3977,
      "Ġpip": 3978,
      "use": 3979,
      "Ġemot": 3980,
      "Ġhouses": 3981,
      "Ġarchitect": 3982,
      "Ġchem": 3983,
      "ĠChina": 3984,
      "Ġblue": 3985,
      "Ġdepart": 3986,
      "Ġkept": 3987,
      "ĠExp": 3988,
      "wick": 3989,
      "Ġcas": 3990,
      "Ġelectron": 3991,
      "ĠWeek": 3992,
      "orter": 3993,
      "ican": 3994,
      "Ġmax": 3995,
      "ĠCr": 3996,
      "Ġactions": 3997,
      "Ġstruck": 3998,
      "Ġtransferred": 3999,
      "Ġcompletely": 4000,
      "Ġhusband": 4001,
      "mark": 4002,
      "Ġfeder": 4003,
      "ĠSat": 4004,
      "omer": 4005,
      "ĠUN": 4006,
      "Ġwriters": 4007,
      "Ġforms": 4008,
      "Ġappearances": 4009,
      "ylvan": 4010,
      "Ġbegins": 4011,
      "ĠDepartment": 4012,
      "Ġmultiple": 4013,
      "bour": 4014,
      "Ġcore": 4015,
      "Ġpan": 4016,
      "Ġrating": 4017,
      "Ġqual": 4018,
      "Ġcollection": 4019,
      "Ġeducation": 4020,
      "Ġir": 4021,
      "ittle": 4022,
      "Ġkick": 4023,
      "Ġmanaged": 4024,
      "Ġmarriage": 4025,
      "Ġsituation": 4026,
      "Ġencoun": 4027,
      "cy": 4028,
      "Ġtorpedo": 4029,
      "ĠSant": 4030,
      "Ġge": 4031,
      "ĠJul": 4032,
      "ĠJose": 4033,
      "aven": 4034,
      "iano": 4035,
      "Ġcolor": 4036,
      "Ġprison": 4037,
      "Ġefforts": 4038,
      "racted": 4039,
      "mond": 4040,
      "cend": 4041,
      "ledge": 4042,
      "Ġstudies": 4043,
      "Ġdemonst": 4044,
      "Ġtypically": 4045,
      "Ġletter": 4046,
      "Ġtax": 4047,
      "ĠChe": 4048,
      "ĠGroup": 4049,
      "ĠOff": 4050,
      "Ġapproach": 4051,
      "Ġwidely": 4052,
      "bed": 4053,
      "Ġrough": 4054,
      "onc": 4055,
      "Ġmorning": 4056,
      "ĠJordan": 4057,
      "Ġcontent": 4058,
      "Ġdism": 4059,
      "Ġdesignated": 4060,
      "Ġfamil": 4061,
      "Ġconducted": 4062,
      "Ġenvironment": 4063,
      "ety": 4064,
      "ĠFur": 4065,
      "Ġimag": 4066,
      "Ġolder": 4067,
      "Ġpeaked": 4068,
      "Ġwit": 4069,
      "Ġreign": 4070,
      "ĠSouthern": 4071,
      "ada": 4072,
      "adium": 4073,
      "ĠHal": 4074,
      "Ġcoach": 4075,
      "ĠSecret": 4076,
      "lict": 4077,
      "track": 4078,
      "Ġple": 4079,
      "Ġtoday": 4080,
      "ĠSov": 4081,
      "ĠLo": 4082,
      "Ġscience": 4083,
      "Ġpractice": 4084,
      "Ġtrue": 4085,
      "ees": 4086,
      "pool": 4087,
      "Ġiron": 4088,
      "anz": 4089,
      "ĠBank": 4090,
      "ĠDem": 4091,
      "Ġability": 4092,
      "ieut": 4093,
      "ends": 4094,
      "Ġrespond": 4095,
      "ĠTheir": 4096,
      "ighter": 4097,
      "Ġacting": 4098,
      "Ġopportun": 4099,
      "Ġsn": 4100,
      "ste": 4101,
      "ĠCast": 4102,
      "ether": 4103,
      "ĠFer": 4104,
      "ĠGard": 4105,
      "Ġexhib": 4106,
      "ĠThree": 4107,
      "Ġfeaturing": 4108,
      "Ġnortheast": 4109,
      "Ġhistorical": 4110,
      "Ġofficials": 4111,
      "Ġsquare": 4112,
      "Ġcyclone": 4113,
      "ĠEmpire": 4114,
      "MS": 4115,
      "ship": 4116,
      "sylvan": 4117,
      "Ġcrow": 4118,
      "Ġfiction": 4119,
      "Ġmountain": 4120,
      "ĠSur": 4121,
      "ĠRout": 4122,
      "Ġpromoted": 4123,
      "rect": 4124,
      "Ġmechan": 4125,
      "ĠSince": 4126,
      "Ġbeat": 4127,
      "ĠDV": 4128,
      "Ġspread": 4129,
      "Ġrepe": 4130,
      "Ġdistance": 4131,
      "Ġportray": 4132,
      "ĠManning": 4133,
      "ĠMoore": 4134,
      "ĠInfantry": 4135,
      "lew": 4136,
      "lement": 4137,
      "ĠRam": 4138,
      "Ġroy": 4139,
      "Ġjournal": 4140,
      "Ġplays": 4141,
      "Ġmainly": 4142,
      "Ġgenus": 4143,
      "Ġbecomes": 4144,
      "Ġstrugg": 4145,
      "TV": 4146,
      "ez": 4147,
      "Ġshare": 4148,
      "ecting": 4149,
      "ĠArm": 4150,
      "Ġprogress": 4151,
      "Ġactivity": 4152,
      "Ġpotential": 4153,
      "Ġsymbol": 4154,
      "cel": 4155,
      "under": 4156,
      "inus": 4157,
      "Ġbacter": 4158,
      "lection": 4159,
      "ĠBob": 4160,
      "Ġunivers": 4161,
      "Ġwinter": 4162,
      "Ġera": 4163,
      "ĠMissouri": 4164,
      "ĠMartin": 4165,
      "Ġslightly": 4166,
      "ĠCarey": 4167,
      "Ġpun": 4168,
      "Ġnative": 4169,
      "ĠDis": 4170,
      "ĠGro": 4171,
      "estival": 4172,
      "amese": 4173,
      "ĠBlue": 4174,
      "Ġresulting": 4175,
      "ĠSeries": 4176,
      "ĠVietnamese": 4177,
      "ĠPennsylvan": 4178,
      "Ġheight": 4179,
      "ĠLew": 4180,
      "ighth": 4181,
      "antasy": 4182,
      "Ġproducers": 4183,
      "ĠRecords": 4184,
      "ĠAcademy": 4185,
      "Ġfast": 4186,
      "Ġspring": 4187,
      "Ġinches": 4188,
      "Ġexplained": 4189,
      "arent": 4190,
      "Ġcouple": 4191,
      "ca": 4192,
      "nown": 4193,
      "Ġwing": 4194,
      "Ġwild": 4195,
      "Ġwords": 4196,
      "Ġpaper": 4197,
      "room": 4198,
      "ĠRow": 4199,
      "ounded": 4200,
      "Ġconcert": 4201,
      "Ġtried": 4202,
      "ĠSociety": 4203,
      "ĠOtt": 4204,
      "Ġfinancial": 4205,
      "ieutenant": 4206,
      "ĠDVD": 4207,
      "ply": 4208,
      "sen": 4209,
      "Ġnin": 4210,
      "ĠMiddle": 4211,
      "ĠBrad": 4212,
      "Ġalone": 4213,
      "ĠWater": 4214,
      "ĠVar": 4215,
      "Ġearth": 4216,
      "Ġcontrovers": 4217,
      "ceeded": 4218,
      "Ġdisease": 4219,
      "uous": 4220,
      "Ġthous": 4221,
      "Ġstone": 4222,
      "ĠDom": 4223,
      "Ġincorpor": 4224,
      "Ġseasons": 4225,
      "Ġbackground": 4226,
      "Ġimpact": 4227,
      "Ġbrown": 4228,
      "Ġcontinues": 4229,
      "Ġculture": 4230,
      "Ġsilver": 4231,
      "ĠSpokane": 4232,
      "ev": 4233,
      "oration": 4234,
      "Ġhospital": 4235,
      "Ġonto": 4236,
      "istry": 4237,
      "ips": 4238,
      "Ġtitled": 4239,
      "Ġwaters": 4240,
      "house": 4241,
      "isation": 4242,
      "Ġmess": 4243,
      "Ġthir": 4244,
      "eline": 4245,
      "aging": 4246,
      "irection": 4247,
      "Ġmatter": 4248,
      "ĠCamb": 4249,
      "ĠManc": 4250,
      "rier": 4251,
      "Ġproved": 4252,
      "Ġvess": 4253,
      "Ġrang": 4254,
      "ĠKh": 4255,
      "Ġresidents": 4256,
      "Ġenemy": 4257,
      "Ġweight": 4258,
      "Ġpositions": 4259,
      "Ġtransl": 4260,
      "Ġbroke": 4261,
      "Ġalongside": 4262,
      "Ġadvant": 4263,
      "Ġbehav": 4264,
      "ĠMuseum": 4265,
      "lies": 4266,
      "roll": 4267,
      "Ġdut": 4268,
      "ĠSal": 4269,
      "olk": 4270,
      "ĠLittle": 4271,
      "rance": 4272,
      "ĠAnt": 4273,
      "Ġtrain": 4274,
      "Ġinstit": 4275,
      "shire": 4276,
      "Ã¡n": 4277,
      "Ġancient": 4278,
      "Ġgirl": 4279,
      "ĠRoute": 4280,
      "onents": 4281,
      "perial": 4282,
      "ports": 4283,
      "Ġrelatively": 4284,
      "Ġexpected": 4285,
      "Ġarchae": 4286,
      "Ġfa": 4287,
      "ĠCor": 4288,
      "Ġoffer": 4289,
      "Ġdefense": 4290,
      "Ġdoing": 4291,
      "Ġcriticized": 4292,
      "Ġanimals": 4293,
      "ĠSoviet": 4294,
      "Ġsense": 4295,
      "Ġmel": 4296,
      "Ġmind": 4297,
      "ĠDream": 4298,
      "ĠUs": 4299,
      "mann": 4300,
      "ocks": 4301,
      "Ġowned": 4302,
      "ker": 4303,
      "aling": 4304,
      "Ġpaid": 4305,
      "uses": 4306,
      "Ġstations": 4307,
      "ĠLight": 4308,
      "Ġyour": 4309,
      "Ġmurder": 4310,
      "Ġnewspaper": 4311,
      "ding": 4312,
      "while": 4313,
      "Ġoil": 4314,
      "roph": 4315,
      "Ġdog": 4316,
      "ĠSum": 4317,
      "Ġsto": 4318,
      "Ġadj": 4319,
      "Ġweather": 4320,
      "Ġweaken": 4321,
      "Ġsixth": 4322,
      "Ġmagn": 4323,
      "Ġcollabor": 4324,
      "Ġsequence": 4325,
      "Ġcontemporary": 4326,
      "AS": 4327,
      "II": 4328,
      "da": 4329,
      "gian": 4330,
      "iate": 4331,
      "Ġtail": 4332,
      "Ġcases": 4333,
      "Ġtoward": 4334,
      "utions": 4335,
      "ĠLong": 4336,
      "ĠAmericans": 4337,
      "ologist": 4338,
      "Ġeditor": 4339,
      "Ġadopted": 4340,
      "Ġspirit": 4341,
      "Ġfederal": 4342,
      "gs": 4343,
      "yph": 4344,
      "Ġtur": 4345,
      "Ġcondom": 4346,
      "Ġagg": 4347,
      "Ġattend": 4348,
      "Ġphysical": 4349,
      "known": 4350,
      "lied": 4351,
      "Ġlib": 4352,
      "ĠMajor": 4353,
      "rael": 4354,
      "Ġscale": 4355,
      "Ġtrial": 4356,
      "Ġproperty": 4357,
      "Ġheavily": 4358,
      "bit": 4359,
      "grad": 4360,
      "lines": 4361,
      "Ġinh": 4362,
      "Ġhair": 4363,
      "Ġgained": 4364,
      "ibb": 4365,
      "Ġadvance": 4366,
      "Ġfigures": 4367,
      "ĠOliv": 4368,
      "Ġbatter": 4369,
      "Ġgrew": 4370,
      "Ġchosen": 4371,
      "ellig": 4372,
      "Ġexped": 4373,
      "Ġexpressed": 4374,
      "ĠMinister": 4375,
      "Ġinfluenced": 4376,
      "Ġprimarily": 4377,
      "ĠBowl": 4378,
      "ien": 4379,
      "Ġwolves": 4380,
      "ĠTem": 4381,
      "ĠTime": 4382,
      "resh": 4383,
      "iance": 4384,
      "Ġimage": 4385,
      "Ġpassing": 4386,
      "ĠAdd": 4387,
      "Ġdivided": 4388,
      "Ġpiece": 4389,
      "ĠCatholic": 4390,
      "Ġhabit": 4391,
      "ĠRh": 4392,
      "Ġemph": 4393,
      "Ġoccasion": 4394,
      "ĠCommission": 4395,
      "Ġlegal": 4396,
      "Ġvalue": 4397,
      "Ġdoub": 4398,
      "Ġinnings": 4399,
      "Ġwithdraw": 4400,
      "bury": 4401,
      "Ġaired": 4402,
      "Ġathlet": 4403,
      "ĠDes": 4404,
      "ĠFinal": 4405,
      "illery": 4406,
      "ourney": 4407,
      "ograp": 4408,
      "Ġfeed": 4409,
      "Ġactor": 4410,
      "ĠNews": 4411,
      "ĠIsrael": 4412,
      "Ġreports": 4413,
      "Ġpossibly": 4414,
      "ĠDef": 4415,
      "Ġcausing": 4416,
      "Ġargued": 4417,
      "ĠService": 4418,
      "Ġsac": 4419,
      "Ġcust": 4420,
      "Ġdirection": 4421,
      "ĠMass": 4422,
      "Ġspot": 4423,
      "ĠChris": 4424,
      "Ġinteract": 4425,
      "Ġdefend": 4426,
      "ĠConference": 4427,
      "heless": 4428,
      "Ġultimately": 4429,
      "BA": 4430,
      "aver": 4431,
      "Ġsides": 4432,
      "Ġthrow": 4433,
      "Ġsuc": 4434,
      "Ġsust": 4435,
      "ocr": 4436,
      "earing": 4437,
      "Ġinterp": 4438,
      "Ġactivities": 4439,
      "Ġborder": 4440,
      "Ġcompanies": 4441,
      "Ġsought": 4442,
      "Ġcit": 4443,
      "arian": 4444,
      "ĠHu": 4445,
      "ctor": 4446,
      "estic": 4447,
      "Ġrecent": 4448,
      "ricult": 4449,
      "Ġworkers": 4450,
      "ĠSever": 4451,
      "Ġpeace": 4452,
      "Ġcounty": 4453,
      "Ġheadquarters": 4454,
      "ĠPrince": 4455,
      "Ġpros": 4456,
      "ĠKa": 4457,
      "Ġarrest": 4458,
      "Ġspecim": 4459,
      "Ġedition": 4460,
      "Ġtwice": 4461,
      "Ġstrike": 4462,
      "Ġvocals": 4463,
      "Ġnarrow": 4464,
      "Ġhomes": 4465,
      "Ġast": 4466,
      "ini": 4467,
      "ĠBost": 4468,
      "ushed": 4469,
      "ĠGreek": 4470,
      "Ġcontest": 4471,
      "izes": 4472,
      "Ġdescribes": 4473,
      "ĠColon": 4474,
      "Ġavoid": 4475,
      "Ġsoundtrack": 4476,
      "Ġtrees": 4477,
      "ĠManchester": 4478,
      "RA": 4479,
      "ĠFleet": 4480,
      "ype": 4481,
      "Ġconflict": 4482,
      "Ġrepresented": 4483,
      "cul": 4484,
      "Ġur": 4485,
      "Ġbodies": 4486,
      "add": 4487,
      "Ġgra": 4488,
      "ĠHon": 4489,
      "ĠFox": 4490,
      "Ġshell": 4491,
      "Ġstudent": 4492,
      "ĠCarl": 4493,
      "onym": 4494,
      "Ġequip": 4495,
      "Ġcombined": 4496,
      "oncÃ©": 4497,
      "ufact": 4498,
      "Ã¸": 4499,
      "Ġtun": 4500,
      "resp": 4501,
      "Ġextra": 4502,
      "ĠCont": 4503,
      "Ġsurvey": 4504,
      "Ġcondition": 4505,
      "Ġgrowing": 4506,
      "Ġeye": 4507,
      "Ġflying": 4508,
      "stein": 4509,
      "Ġtons": 4510,
      "Ġsay": 4511,
      "enge": 4512,
      "Ġbit": 4513,
      "Ġpal": 4514,
      "Ġstep": 4515,
      "ĠNic": 4516,
      "Ġspl": 4517,
      "ishop": 4518,
      "Ġartists": 4519,
      "ancy": 4520,
      "Ġindependent": 4521,
      "BS": 4522,
      "wide": 4523,
      "Ġhip": 4524,
      "ĠSil": 4525,
      "Ġlives": 4526,
      "achel": 4527,
      "ĠBet": 4528,
      "ĠOcean": 4529,
      "Ġconcent": 4530,
      "Ġrequire": 4531,
      "Ġachieved": 4532,
      "alle": 4533,
      "Ġreaching": 4534,
      "ĠRose": 4535,
      "osa": 4536,
      "ĠLine": 4537,
      "Ġofficially": 4538,
      "ĠParis": 4539,
      "Ã¤": 4540,
      "ĠBridge": 4541,
      "Ġstreet": 4542,
      "Ġattrib": 4543,
      "Ġfollows": 4544,
      "Ġalbums": 4545,
      "ĠAnderson": 4546,
      "Ġauthority": 4547,
      "Ġsquadron": 4548,
      "Ġproblem": 4549,
      "Ġregarded": 4550,
      "Ġnuclear": 4551,
      "ĠJeff": 4552,
      "Ġinch": 4553,
      "ĠCivil": 4554,
      "ĠRoss": 4555,
      "Ġrule": 4556,
      "ĠKenn": 4557,
      "Ġvisited": 4558,
      "Ġshortly": 4559,
      "ricket": 4560,
      "Ġsources": 4561,
      "anes": 4562,
      "ĠMos": 4563,
      "ĠFI": 4564,
      "odia": 4565,
      "Ġseek": 4566,
      "essions": 4567,
      "Ġhumans": 4568,
      "Ġsolo": 4569,
      "Ġpattern": 4570,
      "Ġindividuals": 4571,
      "Ġnecessary": 4572,
      "ĠBeyoncÃ©": 4573,
      "Ġmaximum": 4574,
      "ĠLewis": 4575,
      "writ": 4576,
      "Ġahead": 4577,
      "Ġsal": 4578,
      "unte": 4579,
      "ĠLand": 4580,
      "Ġmaintained": 4581,
      "ĠEntertain": 4582,
      "hm": 4583,
      "Ġtall": 4584,
      "Ġsays": 4585,
      "Ġcert": 4586,
      "Ġfer": 4587,
      "ĠWin": 4588,
      "ĠLy": 4589,
      "ĠJones": 4590,
      "Ġunknown": 4591,
      "Ġcontain": 4592,
      "enden": 4593,
      "Ġroles": 4594,
      "Ġprepar": 4595,
      "Ġoperated": 4596,
      "Ġportion": 4597,
      "ĠWilliams": 4598,
      "Ġcrowd": 4599,
      "Ġroyal": 4600,
      "When": 4601,
      "Ġsout": 4602,
      "Ġlaid": 4603,
      "ĠWay": 4604,
      "Ġyellow": 4605,
      "Ġherself": 4606,
      "Ġwebs": 4607,
      "ĠPolish": 4608,
      "ĠHolly": 4609,
      "Ġtells": 4610,
      "Ġsle": 4611,
      "ĠDen": 4612,
      "ĠRom": 4613,
      "ĠKar": 4614,
      "ĠClass": 4615,
      "Ġpropos": 4616,
      "ĠBoston": 4617,
      "onic": 4618,
      "Ġselling": 4619,
      "ĠMax": 4620,
      "olved": 4621,
      "ĠHurricane": 4622,
      "ĠWhe": 4623,
      "Ġrival": 4624,
      "Ġdispl": 4625,
      "Ġapparent": 4626,
      "Ġnorthwest": 4627,
      "Ġadvent": 4628,
      "Ġinjury": 4629,
      "Ġsexual": 4630,
      "ala": 4631,
      "ĠCons": 4632,
      "adel": 4633,
      "ĠMul": 4634,
      "irm": 4635,
      "ĠStone": 4636,
      "ĠHeb": 4637,
      "Ġdrive": 4638,
      "Ġdebuted": 4639,
      "ĠBois": 4640,
      "Ġsurrounding": 4641,
      "Ġanalys": 4642,
      "Ġadvantage": 4643,
      "Ġemphas": 4644,
      "onent": 4645,
      "Ġnaval": 4646,
      "ĠCard": 4647,
      "Ġadvert": 4648,
      "Ġjump": 4649,
      "Ġconsecutive": 4650,
      "Ġremark": 4651,
      "Ġenter": 4652,
      "Ġreturning": 4653,
      "Ġpasses": 4654,
      "ĠCommittee": 4655,
      "Ġaffected": 4656,
      "ĠPennsylvania": 4657,
      "Ġequipment": 4658,
      "Ġx": 4659,
      "Ġwolf": 4660,
      "Ġfully": 4661,
      "ĠSar": 4662,
      "ĠLady": 4663,
      "eller": 4664,
      "Ġunique": 4665,
      "ĠVan": 4666,
      "ogue": 4667,
      "Ġresc": 4668,
      "Ġinters": 4669,
      "Ġcannot": 4670,
      "azz": 4671,
      "Ġsimply": 4672,
      "ĠColumb": 4673,
      "Ġgrass": 4674,
      "Ġcampus": 4675,
      "ĠChristmas": 4676,
      "fficient": 4677,
      "Ġfrequently": 4678,
      "Ġgar": 4679,
      "ĠBull": 4680,
      "ĠBBC": 4681,
      "anda": 4682,
      "Ġexec": 4683,
      "Ġcontained": 4684,
      "Ġprominent": 4685,
      "Ġbasis": 4686,
      "Ġhistorian": 4687,
      "Ġhonor": 4688,
      "Ġmeasure": 4689,
      "Ġdropped": 4690,
      "ĠBecause": 4691,
      "Station": 4692,
      "lers": 4693,
      "ĠAvenue": 4694,
      "Ġseg": 4695,
      "Ġarmed": 4696,
      "Ġnews": 4697,
      "Ġopposed": 4698,
      "Ġgrowth": 4699,
      "ĠCaptain": 4700,
      "ĠHawai": 4701,
      "Äĩ": 4702,
      "Ġbey": 4703,
      "ĠLu": 4704,
      "ĠLuc": 4705,
      "Ġmanufact": 4706,
      "attle": 4707,
      "Ġleaders": 4708,
      "Ġgranted": 4709,
      "Ġillust": 4710,
      "Ġmoment": 4711,
      "Ġstraight": 4712,
      "break": 4713,
      "itan": 4714,
      "Ġmaster": 4715,
      "ĠHome": 4716,
      "ĠLiver": 4717,
      "Ġbelong": 4718,
      "Ġelev": 4719,
      "urban": 4720,
      "Ġsubsequent": 4721,
      "Ġsenior": 4722,
      "Ġbeyond": 4723,
      "ners": 4724,
      "Ġps": 4725,
      "Ġmole": 4726,
      "ĠTri": 4727,
      "ĠDam": 4728,
      "ĠFle": 4729,
      "Ġchose": 4730,
      "ocated": 4731,
      "gend": 4732,
      "Ġbroken": 4733,
      "Ġtitles": 4734,
      "Ġobserv": 4735,
      "ĠGovernment": 4736,
      "By": 4737,
      "Ġrom": 4738,
      "heim": 4739,
      "Ġcells": 4740,
      "Ġhol": 4741,
      "Ġgreen": 4742,
      "ette": 4743,
      "Ġcoming": 4744,
      "Ġcomedy": 4745,
      "Ġnewly": 4746,
      "Ġtransform": 4747,
      "Ġletters": 4748,
      "ĠPlayStation": 4749,
      "Ġpremi": 4750,
      "ĠJewish": 4751,
      "Ġmachine": 4752,
      "Ġmentioned": 4753,
      "bur": 4754,
      "uate": 4755,
      "Ġut": 4756,
      "Ġsun": 4757,
      "ĠTod": 4758,
      "ĠAut": 4759,
      "ĠRap": 4760,
      "ĠJon": 4761,
      "Ġplaces": 4762,
      "Ġunp": 4763,
      "Ġretired": 4764,
      "Ġauthorities": 4765,
      "Ġlooking": 4766,
      "Ġcollege": 4767,
      "Ġnominated": 4768,
      "Ġschedul": 4769,
      "zep": 4770,
      "Ġswe": 4771,
      "ura": 4772,
      "ola": 4773,
      "ĠPit": 4774,
      "ĠNations": 4775,
      "istics": 4776,
      "Ġcompos": 4777,
      "Ġcharge": 4778,
      "ocked": 4779,
      "Ġexpans": 4780,
      "Ġclaims": 4781,
      "Ġdeliver": 4782,
      "Ġknowledge": 4783,
      "ĠMcCain": 4784,
      "Ġnegative": 4785,
      "ategory": 4786,
      "Ã³n": 4787,
      "ĠEntertainment": 4788,
      "burg": 4789,
      "fort": 4790,
      "eno": 4791,
      "Ġmis": 4792,
      "rol": 4793,
      "ĠSix": 4794,
      "ĠBook": 4795,
      "ager": 4796,
      "ĠThrough": 4797,
      "athan": 4798,
      "Ġsets": 4799,
      "Ġreceive": 4800,
      "Ġelectric": 4801,
      "Ġresults": 4802,
      "Ġconfirmed": 4803,
      "ĠLiverpool": 4804,
      "eed": 4805,
      "Ġdru": 4806,
      "lying": 4807,
      "ĠDirect": 4808,
      "ĠRy": 4809,
      "ĠNight": 4810,
      "Ġmovie": 4811,
      "elsh": 4812,
      "ĠConf": 4813,
      "Ġcapture": 4814,
      "Ġmanagement": 4815,
      "Ġpieces": 4816,
      "ĠVictoria": 4817,
      "Ġrejected": 4818,
      "Ġfix": 4819,
      "ental": 4820,
      "Ġseconds": 4821,
      "ĠSpain": 4822,
      "ika": 4823,
      "Ġopin": 4824,
      "fully": 4825,
      "Ġcommonly": 4826,
      "Ġidentified": 4827,
      "Ġhyd": 4828,
      "Ġabandoned": 4829,
      "haps": 4830,
      "Ġdyn": 4831,
      "ĠAv": 4832,
      "Ġrisk": 4833,
      "hedral": 4834,
      "Ġperfect": 4835,
      "ĠThough": 4836,
      "Ġguest": 4837,
      "intin": 4838,
      "Ġeconomic": 4839,
      "ĠScotland": 4840,
      "Ġwick": 4841,
      "Ġpict": 4842,
      "aming": 4843,
      "ider": 4844,
      "ĠDar": 4845,
      "Ġplants": 4846,
      "orship": 4847,
      "Ġsystems": 4848,
      "Ġbelieve": 4849,
      "Ġorganization": 4850,
      "Ġspeak": 4851,
      "Ġparticipated": 4852,
      "ĠSenate": 4853,
      "Ġplatform": 4854,
      "ĠJoseph": 4855,
      "Ġsail": 4856,
      "Ġmic": 4857,
      "Ġhor": 4858,
      "omy": 4859,
      "ĠDutch": 4860,
      "ĠFair": 4861,
      "Ġsuit": 4862,
      "Ġexcl": 4863,
      "Ġchoice": 4864,
      "ĠScient": 4865,
      "eanwhile": 4866,
      "Ġvisual": 4867,
      "Ġtypes": 4868,
      "Ġforeign": 4869,
      "Ġcultural": 4870,
      "ĠDistrict": 4871,
      "bon": 4872,
      "more": 4873,
      "rong": 4874,
      "Ġrear": 4875,
      "aded": 4876,
      "antly": 4877,
      "Ġactress": 4878,
      "Ġelement": 4879,
      "ĠCommun": 4880,
      "ĠGuitar": 4881,
      "laim": 4882,
      "Ġfaced": 4883,
      "Ġdance": 4884,
      "ĠAre": 4885,
      "ĠWelsh": 4886,
      "ĠFin": 4887,
      "Ġcomes": 4888,
      "Ġsport": 4889,
      "ella": 4890,
      "iami": 4891,
      "Ġserving": 4892,
      "lsen": 4893,
      "Ġpilot": 4894,
      "Ġversions": 4895,
      "yphoon": 4896,
      "era": 4897,
      "Ġnest": 4898,
      "ĠMel": 4899,
      "Ġgain": 4900,
      "ĠStep": 4901,
      "ĠChief": 4902,
      "Ġresist": 4903,
      "Ġserve": 4904,
      "ressive": 4905,
      "Ġrelief": 4906,
      "Ġtherefore": 4907,
      "Ġplanet": 4908,
      "ĠErn": 4909,
      "Ġlabel": 4910,
      "Ġtarget": 4911,
      "Ġdedicated": 4912,
      "lav": 4913,
      "mission": 4914,
      "town": 4915,
      "Ġfellow": 4916,
      "Ġpack": 4917,
      "Ġlosing": 4918,
      "ĠHung": 4919,
      "apore": 4920,
      "Ġspect": 4921,
      "ĠSega": 4922,
      "Ġformation": 4923,
      "Ġdidn": 4924,
      "Ġextensive": 4925,
      "Ġartillery": 4926,
      "Ġelim": 4927,
      "rin": 4928,
      "Ġdeploy": 4929,
      "Ġshape": 4930,
      "ounger": 4931,
      "ĠVol": 4932,
      "Ġjun": 4933,
      "Ġconsisted": 4934,
      "awa": 4935,
      "Ġsetting": 4936,
      "Ġlands": 4937,
      "ket": 4938,
      "mon": 4939,
      "Ã¨": 4940,
      "ivity": 4941,
      "Ġhere": 4942,
      "umes": 4943,
      "Ġcontaining": 4944,
      "Ġperman": 4945,
      "Ġreference": 4946,
      "Ġlaunch": 4947,
      "Ġtreatment": 4948,
      "Ġbreeding": 4949,
      "Although": 4950,
      "ĠAddition": 4951,
      "ĠHebrew": 4952,
      "Ġbed": 4953,
      "Ġmales": 4954,
      "acement": 4955,
      "iva": 4956,
      "ayer": 4957,
      "ĠDest": 4958,
      "Ġcompar": 4959,
      "ĠAlbert": 4960,
      "Ġprefer": 4961,
      "ilding": 4962,
      "Ġsinging": 4963,
      "ĠEngine": 4964,
      "Ġideas": 4965,
      "Ġmotion": 4966,
      "Ġrecognized": 4967,
      "Ġeyes": 4968,
      "ographer": 4969,
      "ĠSeveral": 4970,
      "ĠSund": 4971,
      "otic": 4972,
      "ĠFar": 4973,
      "essee": 4974,
      "Ġcontact": 4975,
      "anger": 4976,
      "Ġacad": 4977,
      "Ġexpanded": 4978,
      "Ġsevere": 4979,
      "Ġrequest": 4980,
      "Ġdrama": 4981,
      "Ġpiano": 4982,
      "ĠTintin": 4983,
      "utation": 4984,
      "ĠRun": 4985,
      "Ġrhy": 4986,
      "aka": 4987,
      "Ġexecutive": 4988,
      "Ġsports": 4989,
      "Ġsingles": 4990,
      "Ġdetermined": 4991,
      "bridge": 4992,
      "lusion": 4993,
      "Ġtank": 4994,
      "Ġwor": 4995,
      "orus": 4996,
      "Ġfruit": 4997,
      "Ġdy": 4998,
      "ĠMem": 4999,
      "Ġbeaut": 5000,
      "ĠGood": 5001,
      "ifying": 5002,
      "Ġapplic": 5003,
      "ĠScully": 5004,
      "Ġmedical": 5005,
      "Ġexplos": 5006,
      "Ġfreeway": 5007,
      "Ġdocument": 5008,
      "Ġpowers": 5009,
      "ho": 5010,
      "rant": 5011,
      "ux": 5012,
      "upp": 5013,
      "Ġcamer": 5014,
      "Ġpitch": 5015,
      "rog": 5016,
      "ĠSud": 5017,
      "ĠMiami": 5018,
      "ĠGi": 5019,
      "ĠLive": 5020,
      "agn": 5021,
      "ables": 5022,
      "ĠKore": 5023,
      "Ġaccident": 5024,
      "Ġsurre": 5025,
      "Ġsurpr": 5026,
      "Ġcreation": 5027,
      "Ġgovernor": 5028,
      "Ġreflect": 5029,
      "ĠCommand": 5030,
      "Ġorders": 5031,
      "Ġnegot": 5032,
      "An": 5033,
      "Ġtask": 5034,
      "iced": 5035,
      "ĠMas": 5036,
      "apt": 5037,
      "Ġroll": 5038,
      "Ġfilmed": 5039,
      "ĠSpec": 5040,
      "Ġpoly": 5041,
      "Ġsimple": 5042,
      "Ġeffective": 5043,
      "Ġcreating": 5044,
      "ĠValley": 5045,
      "Ġnucle": 5046,
      "ĠFederer": 5047,
      "Ġaccompan": 5048,
      "Ġseventh": 5049,
      "Ġtry": 5050,
      "isers": 5051,
      "ĠMid": 5052,
      "ĠBol": 5053,
      "eman": 5054,
      "ĠFA": 5055,
      "illing": 5056,
      "asty": 5057,
      "Ġincident": 5058,
      "Ġthemes": 5059,
      "ĠOnce": 5060,
      "Ġfloor": 5061,
      "Ġactors": 5062,
      "Ġhighlight": 5063,
      "ashion": 5064,
      "Ġsuggests": 5065,
      "Ġexisting": 5066,
      "Ġintensity": 5067,
      "ĠTennessee": 5068,
      "ĠOlivier": 5069,
      "hou": 5070,
      "mit": 5071,
      "za": 5072,
      "ãĤ": 5073,
      "isters": 5074,
      "Ġdraft": 5075,
      "ĠDie": 5076,
      "ĠLar": 5077,
      "ĠOx": 5078,
      "Ġintellig": 5079,
      "phia": 5080,
      "Ġweak": 5081,
      "Ġlanding": 5082,
      "ancing": 5083,
      "ĠAndrew": 5084,
      "ĠCharl": 5085,
      "ĠSingapore": 5086,
      "Ġrainfall": 5087,
      "Ġagreement": 5088,
      "Ġcitiz": 5089,
      "adelphia": 5090,
      "lim": 5091,
      "arp": 5092,
      "stream": 5093,
      "Ġeas": 5094,
      "Ġgas": 5095,
      "ĠHy": 5096,
      "ĠWind": 5097,
      "ĠNash": 5098,
      "Ġsend": 5099,
      "ĠItaly": 5100,
      "Ġneut": 5101,
      "ampion": 5102,
      "Ġarrival": 5103,
      "Ġprojects": 5104,
      "ĠPortug": 5105,
      "Ġstructures": 5106,
      "Ġdegree": 5107,
      "Ġkilometres": 5108,
      "Ġcasual": 5109,
      "itian": 5110,
      "Ġmob": 5111,
      "ulate": 5112,
      "Ġleaves": 5113,
      "Ġcastle": 5114,
      "Ġfemales": 5115,
      "ĠCroatia": 5116,
      "oh": 5117,
      "Ġbranch": 5118,
      "Ġpet": 5119,
      "oma": 5120,
      "ĠCub": 5121,
      "ĠMike": 5122,
      "uting": 5123,
      "ĠDi": 5124,
      "ĠJin": 5125,
      "Ġunus": 5126,
      "ĠYoung": 5127,
      "ansas": 5128,
      "Ġends": 5129,
      "ĠAsh": 5130,
      "Ġstarts": 5131,
      "Ġguard": 5132,
      "Ġoldest": 5133,
      "Ġcontrolled": 5134,
      "ĠRevolution": 5135,
      "Ġaid": 5136,
      "Ġox": 5137,
      "Ġcities": 5138,
      "ishes": 5139,
      "Ġthing": 5140,
      "Ġnothing": 5141,
      "iana": 5142,
      "ĠAtt": 5143,
      "Ġbelief": 5144,
      "ĠAirport": 5145,
      "ĠStudios": 5146,
      "bar": 5147,
      "uct": 5148,
      "Ġtrying": 5149,
      "Ġmist": 5150,
      "Ġconqu": 5151,
      "Ġshall": 5152,
      "Ġarms": 5153,
      "Ġfamous": 5154,
      "ĠAssembly": 5155,
      "Ġanimal": 5156,
      "Ġlosses": 5157,
      "ĠPhiladelphia": 5158,
      "ĠVietnam": 5159,
      "Ġwitness": 5160,
      "Ġwebsite": 5161,
      "iences": 5162,
      "Ġsave": 5163,
      "Ġfat": 5164,
      "Ġfresh": 5165,
      "Ġbud": 5166,
      "ĠAri": 5167,
      "ĠMat": 5168,
      "ĠMore": 5169,
      "Ġans": 5170,
      "ĠJane": 5171,
      "Ġkg": 5172,
      "ĠStew": 5173,
      "Ġrecently": 5174,
      "Ġrow": 5175,
      "Ġpublication": 5176,
      "Ġparliament": 5177,
      "Ġcommissioned": 5178,
      "Ġincreasingly": 5179,
      "Ġbriefly": 5180,
      "Ġsafety": 5181,
      "Ġpurpose": 5182,
      "Ġsens": 5183,
      "ĠTw": 5184,
      "Ġgives": 5185,
      "ĠBoard": 5186,
      "ĠHum": 5187,
      "ĠDet": 5188,
      "ĠWolf": 5189,
      "ersey": 5190,
      "ĠOf": 5191,
      "essed": 5192,
      "Ġprin": 5193,
      "ographic": 5194,
      "Ġcouncil": 5195,
      "Ġcontributed": 5196,
      "ĠTurner": 5197,
      "ĠAdmir": 5198,
      "inity": 5199,
      "elve": 5200,
      "iments": 5201,
      "verse": 5202,
      "ĠEach": 5203,
      "ixon": 5204,
      "Ġtrav": 5205,
      "Ġorganized": 5206,
      "Ġsites": 5207,
      "Ġtechnology": 5208,
      "glas": 5209,
      "Ġweapons": 5210,
      "respond": 5211,
      "Ġtend": 5212,
      "Ġfair": 5213,
      "Ġfilled": 5214,
      "Ġmile": 5215,
      "Ġdrop": 5216,
      "Ġlabor": 5217,
      "ĠBor": 5218,
      "ĠFred": 5219,
      "ĠFour": 5220,
      "ĠGir": 5221,
      "ĠNorm": 5222,
      "ĠInst": 5223,
      "Ġagricult": 5224,
      "ĠShow": 5225,
      "Ġkilling": 5226,
      "Ġprograms": 5227,
      "Ġliterature": 5228,
      "ĠHistor": 5229,
      "Ġfaith": 5230,
      "Ġwounded": 5231,
      "Ġload": 5232,
      "ĠBase": 5233,
      "oted": 5234,
      "ĠDNA": 5235,
      "eston": 5236,
      "ĠEastern": 5237,
      "ĠArg": 5238,
      "Ġsecondary": 5239,
      "Ġdefin": 5240,
      "Ġentrance": 5241,
      "Ġexpress": 5242,
      "Ġphil": 5243,
      "Ġpurchased": 5244,
      "Ġpolicy": 5245,
      "Ġrepeated": 5246,
      "Ġawards": 5247,
      "Ġtheory": 5248,
      "Ġsalt": 5249,
      "orters": 5250,
      "Ġmor": 5251,
      "Ġdim": 5252,
      "ĠTen": 5253,
      "raham": 5254,
      "Ġjourney": 5255,
      "Ġadvanced": 5256,
      "Ġallows": 5257,
      "Ġdeclined": 5258,
      "Ġbaseball": 5259,
      "Ġflooding": 5260,
      "ĠOttoman": 5261,
      "gn": 5262,
      "war": 5263,
      "Ġice": 5264,
      "Ġharm": 5265,
      "ads": 5266,
      "ĠBart": 5267,
      "ote": 5268,
      "ushing": 5269,
      "ĠPost": 5270,
      "ĠJam": 5271,
      "ĠOrig": 5272,
      "pton": 5273,
      "Ġcolumn": 5274,
      "orney": 5275,
      "Ġanything": 5276,
      "Ġdistrict": 5277,
      "Ġarticle": 5278,
      "Ġviewed": 5279,
      "Ġencoura": 5280,
      "ĠCoast": 5281,
      "ĠOlympic": 5282,
      "Ġadministration": 5283,
      "Ġinstrument": 5284,
      "Following": 5285,
      "oen": 5286,
      "erc": 5287,
      "ĠAp": 5288,
      "ĠRachel": 5289,
      "ĠWild": 5290,
      "ĠAlbum": 5291,
      "icks": 5292,
      "Ġmuseum": 5293,
      "Ġbattalion": 5294,
      "ĠGuard": 5295,
      "Ġcaptain": 5296,
      "Ġentirely": 5297,
      "ĠSystem": 5298,
      "Ġacquired": 5299,
      "gal": 5300,
      "Ġbott": 5301,
      "etts": 5302,
      "ĠDun": 5303,
      "agle": 5304,
      "ĠERA": 5305,
      "Ġchair": 5306,
      "There": 5307,
      "Ġwrites": 5308,
      "Ġauth": 5309,
      "Ġprotect": 5310,
      "Ġparalle": 5311,
      "ĠProject": 5312,
      "Ġcriticism": 5313,
      "Ġvolume": 5314,
      "ĠOldham": 5315,
      "Ġbillion": 5316,
      "Ġgods": 5317,
      "GN": 5318,
      "chest": 5319,
      "iÄĩ": 5320,
      "like": 5321,
      "pass": 5322,
      "Ġtree": 5323,
      "rell": 5324,
      "Ġmouth": 5325,
      "Ġhits": 5326,
      "acity": 5327,
      "ĠEven": 5328,
      "Ġseems": 5329,
      "ordon": 5330,
      "Ġcomputer": 5331,
      "ĠYe": 5332,
      "Ġregions": 5333,
      "Ġworldwide": 5334,
      "Ġdelay": 5335,
      "Ġfinds": 5336,
      "wa": 5337,
      "Ġ×": 5338,
      "Ġbul": 5339,
      "stone": 5340,
      "ĠHin": 5341,
      "rif": 5342,
      "ĠOh": 5343,
      "apers": 5344,
      "ova": 5345,
      "Ġinvasion": 5346,
      "Ġdistingu": 5347,
      "Ġsupporting": 5348,
      "Ġlaws": 5349,
      "ĠSwed": 5350,
      "Ġcorrespond": 5351,
      "Ġearliest": 5352,
      "Ġclosely": 5353,
      "Ġescape": 5354,
      "ãģ": 5355,
      "Ġtim": 5356,
      "Ġcold": 5357,
      "Ġreform": 5358,
      "iling": 5359,
      "imal": 5360,
      "ĠField": 5361,
      "ĠInstitute": 5362,
      "ĠNewton": 5363,
      "Ġdescript": 5364,
      "Ġarrang": 5365,
      "hews": 5366,
      "Ġexperienced": 5367,
      "Ġdismiss": 5368,
      "ĠFurther": 5369,
      "TC": 5370,
      "asure": 5371,
      "Ġdaily": 5372,
      "omew": 5373,
      "ĠCra": 5374,
      "Ġheard": 5375,
      "ieval": 5376,
      "Ġsecurity": 5377,
      "ĠMario": 5378,
      "ĠGovernor": 5379,
      "Ġsynt": 5380,
      "ĠFrancisc": 5381,
      "Ġroughly": 5382,
      "ĠSummer": 5383,
      "hat": 5384,
      "hol": 5385,
      "rates": 5386,
      "tenden": 5387,
      "Ġsand": 5388,
      "Ġopt": 5389,
      "Ġdial": 5390,
      "ĠMir": 5391,
      "ĠForm": 5392,
      "Ġseat": 5393,
      "Ġsupply": 5394,
      "Ġprotected": 5395,
      "Ġstanding": 5396,
      "Ġboats": 5397,
      "ĠUpon": 5398,
      "Ġdomestic": 5399,
      "Ġexpansion": 5400,
      "iable": 5401,
      "ients": 5402,
      "rete": 5403,
      "Ġcited": 5404,
      "Ġfought": 5405,
      "ano": 5406,
      "ĠMod": 5407,
      "ĠBurn": 5408,
      "ĠPre": 5409,
      "ĠPop": 5410,
      "ĠRa": 5411,
      "Ġyounger": 5412,
      "ĠChild": 5413,
      "Ġresemb": 5414,
      "Ġcollected": 5415,
      "Ġfilming": 5416,
      "Ġcalls": 5417,
      "Ġdefensive": 5418,
      "Ġcarry": 5419,
      "ĠRoberts": 5420,
      "Ġconnected": 5421,
      "uzz": 5422,
      "With": 5423,
      "Ġpul": 5424,
      "ĠTropical": 5425,
      "ĠBern": 5426,
      "ĠEll": 5427,
      "range": 5428,
      "Ġcommittee": 5429,
      "Ġdeck": 5430,
      "Ġimproved": 5431,
      "Ġfailure": 5432,
      "Ġbudget": 5433,
      "oes": 5434,
      "Ġfired": 5435,
      "Ġbass": 5436,
      "Ġegg": 5437,
      "erset": 5438,
      "osaurus": 5439,
      "Ġvon": 5440,
      "Ġunf": 5441,
      "Ġoffensive": 5442,
      "Ġpopulations": 5443,
      "Ġdrawn": 5444,
      "Ġpitched": 5445,
      "Ġtemperature": 5446,
      "ĠDaniel": 5447,
      "Ġvehicles": 5448,
      "ef": 5449,
      "iations": 5450,
      "ua": 5451,
      "Ġpaint": 5452,
      "Ġlb": 5453,
      "eld": 5454,
      "ecess": 5455,
      "Ġstore": 5456,
      "unicip": 5457,
      "ĠDown": 5458,
      "Ġconference": 5459,
      "Ġrise": 5460,
      "ĠUl": 5461,
      "Ġperhaps": 5462,
      "Ġfinish": 5463,
      "Ġedge": 5464,
      "espread": 5465,
      "Ġcorrect": 5466,
      "Ġburied": 5467,
      "ĠDouglas": 5468,
      "Ġceremony": 5469,
      "Ġexpedition": 5470,
      "ĠSus": 5471,
      "Ġisol": 5472,
      "ĠNBA": 5473,
      "ĠVen": 5474,
      "Ġquite": 5475,
      "ugos": 5476,
      "Ġviews": 5477,
      "Ġimportance": 5478,
      "Ġfinding": 5479,
      "While": 5480,
      "lam": 5481,
      "Ġfashion": 5482,
      "Ġbrand": 5483,
      "Ġdrew": 5484,
      "Ġdata": 5485,
      "ĠBan": 5486,
      "ĠGall": 5487,
      "Ġven": 5488,
      "Ġselect": 5489,
      "outs": 5490,
      "Ġgameplay": 5491,
      "Ġassault": 5492,
      "Ġtemple": 5493,
      "intend": 5494,
      "Ġmissions": 5495,
      "ÃŃa": 5496,
      "Ġshooting": 5497,
      "Ġbenef": 5498,
      "ĠWheeler": 5499,
      "Ġpsych": 5500,
      "Ġmounted": 5501,
      "ĠMov": 5502,
      "Ġstages": 5503,
      "ĠLes": 5504,
      "ĠEnd": 5505,
      "Ġvo": 5506,
      "Ġring": 5507,
      "Ġshaped": 5508,
      "ĠStorm": 5509,
      "ĠChap": 5510,
      "Ġgoes": 5511,
      "Ġoccas": 5512,
      "ĠBefore": 5513,
      "ĠBarb": 5514,
      "Ġsuccessfully": 5515,
      "Ġgradually": 5516,
      "Ġsettlement": 5517,
      "Ġbacteria": 5518,
      "Ġscheduled": 5519,
      "iar": 5520,
      "Ġcool": 5521,
      "standing": 5522,
      "ĠHard": 5523,
      "Ġwhy": 5524,
      "ĠWall": 5525,
      "ĠNever": 5526,
      "Ġadult": 5527,
      "Ġprey": 5528,
      "rence": 5529,
      "Ġacid": 5530,
      "ysc": 5531,
      "ĠRussian": 5532,
      "Ġlearned": 5533,
      "Ġprepared": 5534,
      "Ġfamilies": 5535,
      "net": 5536,
      "och": 5537,
      "set": 5538,
      "inate": 5539,
      "Ġwave": 5540,
      "ĠCat": 5541,
      "thur": 5542,
      "ĠWrit": 5543,
      "ĠFestival": 5544,
      "ĠNas": 5545,
      "ĠLike": 5546,
      "ockey": 5547,
      "Ġdefined": 5548,
      "Ġlocations": 5549,
      "undy": 5550,
      "Ġoccupied": 5551,
      "Ġcredited": 5552,
      "met": 5553,
      "matic": 5554,
      "rations": 5555,
      "Ġpric": 5556,
      "Ġhall": 5557,
      "Ġhired": 5558,
      "ĠRos": 5559,
      "antic": 5560,
      "Ġreceiving": 5561,
      "ĠCarlsen": 5562,
      "Ġtrip": 5563,
      "Ġrebu": 5564,
      "ĠRepublican": 5565,
      "enzodia": 5566,
      "hetic": 5567,
      "Ġvirt": 5568,
      "Ġsustained": 5569,
      "ocratic": 5570,
      "enzodiazep": 5571,
      "ias": 5572,
      "Ġfict": 5573,
      "rot": 5574,
      "ĠTop": 5575,
      "ĠJac": 5576,
      "Ġvac": 5577,
      "ĠVilla": 5578,
      "rupt": 5579,
      "ube": 5580,
      "Ġdoor": 5581,
      "ĠShort": 5582,
      "Ġperforming": 5583,
      "ĠPrinc": 5584,
      "Ġengaged": 5585,
      "Ġadmitted": 5586,
      "ĠSteve": 5587,
      "ĠEarly": 5588,
      "Ġfocused": 5589,
      "Ġexclus": 5590,
      "Ġign": 5591,
      "Ġcaught": 5592,
      "Ġfrag": 5593,
      "Ġdated": 5594,
      "oli": 5595,
      "ĠPrem": 5596,
      "ĠNC": 5597,
      "Ġoverl": 5598,
      "Ġteacher": 5599,
      "ĠTeam": 5600,
      "Ġboat": 5601,
      "chers": 5602,
      "Ġstrengt": 5603,
      "Ġproteins": 5604,
      "Ġaccompanied": 5605,
      "Ġtorn": 5606,
      "itled": 5607,
      "Ġbought": 5608,
      "ĠMD": 5609,
      "ults": 5610,
      "ĠJud": 5611,
      "Ġcenturies": 5612,
      "Ġexperiment": 5613,
      "Ġcrime": 5614,
      "Ġtechnical": 5615,
      "Ġregarding": 5616,
      "ĠCrittenden": 5617,
      "Ġscholars": 5618,
      "Ġastron": 5619,
      "lan": 5620,
      "rating": 5621,
      "worth": 5622,
      "ĠÎ": 5623,
      "Ġcra": 5624,
      "ĠMen": 5625,
      "aved": 5626,
      "avig": 5627,
      "bery": 5628,
      "ĠProt": 5629,
      "Ġbands": 5630,
      "Ġtwelve": 5631,
      "ĠSecretary": 5632,
      "Ġstopped": 5633,
      "Ġanalysis": 5634,
      "ugoslav": 5635,
      "One": 5636,
      "wise": 5637,
      "Ġtied": 5638,
      "Ġfan": 5639,
      "ĠHMS": 5640,
      "ĠGordon": 5641,
      "Ġchannel": 5642,
      "abin": 5643,
      "Ġnotable": 5644,
      "Ġinteg": 5645,
      "Ġarc": 5646,
      "ĠWhat": 5647,
      "helm": 5648,
      "reme": 5649,
      "Ġwidespread": 5650,
      "Ġsteel": 5651,
      "ĠMagazine": 5652,
      "Ġcurrently": 5653,
      "ĠSomerset": 5654,
      "Ġopportunity": 5655,
      "Ġsurrender": 5656,
      "According": 5657,
      "Ġdiam": 5658,
      "ilton": 5659,
      "ĠIGN": 5660,
      "ĠPen": 5661,
      "ĠPan": 5662,
      "ava": 5663,
      "Ġcomic": 5664,
      "Ġrac": 5665,
      "ĠStan": 5666,
      "ibl": 5667,
      "ĠMars": 5668,
      "ĠAsia": 5669,
      "Ġmedal": 5670,
      "Ġsignificantly": 5671,
      "Ġaspects": 5672,
      "He": 5673,
      "mun": 5674,
      "Ġbal": 5675,
      "ĠMot": 5676,
      "Ġcong": 5677,
      "Ġsufficient": 5678,
      "ĠAlso": 5679,
      "Ġevac": 5680,
      "Ġprovides": 5681,
      "ĠClark": 5682,
      "ĠAndy": 5683,
      "Ġtowns": 5684,
      "Ġglob": 5685,
      "Ġfacilities": 5686,
      "Ġdenied": 5687,
      "Ġdigital": 5688,
      "ĠColonel": 5689,
      "Ġaware": 5690,
      "Ġbat": 5691,
      "Ġbrigade": 5692,
      "ĠSand": 5693,
      "ĠTheatre": 5694,
      "ĠPed": 5695,
      "Ġproceed": 5696,
      "Ġspons": 5697,
      "ĠVill": 5698,
      "ĠYugoslav": 5699,
      "Ġretire": 5700,
      "Ġproducing": 5701,
      "Ġacres": 5702,
      "Ġadding": 5703,
      "Ġmaintain": 5704,
      "Ġproviding": 5705,
      "Ġprotection": 5706,
      "nesota": 5707,
      "ĠTurk": 5708,
      "wen": 5709,
      "Ġurban": 5710,
      "Ġworth": 5711,
      "ingly": 5712,
      "ĠTam": 5713,
      "ivered": 5714,
      "ĠJes": 5715,
      "iful": 5716,
      "ights": 5717,
      "Ġdepth": 5718,
      "isms": 5719,
      "idden": 5720,
      "Ġreading": 5721,
      "ĠSerb": 5722,
      "avalry": 5723,
      "agonist": 5724,
      "ĠMulder": 5725,
      "ĠScientology": 5726,
      "uan": 5727,
      "var": 5728,
      "Ê»": 5729,
      "Ġaer": 5730,
      "rel": 5731,
      "ĠAI": 5732,
      "ĠIV": 5733,
      "aine": 5734,
      "ĠInn": 5735,
      "ĠâĪ": 5736,
      "ĠArts": 5737,
      "ĠLee": 5738,
      "ĠIndust": 5739,
      "Ġinfantry": 5740,
      "Ġoccurs": 5741,
      "Ġheaded": 5742,
      "ĠCommon": 5743,
      "ĠMinnesota": 5744,
      "Ġhousehold": 5745,
      "Ġcharts": 5746,
      "Ġconverted": 5747,
      "Ġpoetry": 5748,
      "ĠMichel": 5749,
      "Ġrapidly": 5750,
      "ĠOxford": 5751,
      "ĠInstead": 5752,
      "Ġaim": 5753,
      "Ġfirm": 5754,
      "Ġtow": 5755,
      "lee": 5756,
      "ĠId": 5757,
      "emies": 5758,
      "ipl": 5759,
      "Ġnote": 5760,
      "izations": 5761,
      "Ġdecade": 5762,
      "Ġreputation": 5763,
      "Ġturns": 5764,
      "Ġskin": 5765,
      "Ġeverything": 5766,
      "Ġdelivered": 5767,
      "Ġbasket": 5768,
      "Ġposted": 5769,
      "Ġimprove": 5770,
      "Ġreasons": 5771,
      "ĠExpress": 5772,
      "Ġresponded": 5773,
      "ĠFrancisco": 5774,
      "Ġ+": 5775,
      "Ġsomew": 5776,
      "Ġmount": 5777,
      "Ġdry": 5778,
      "ĠTim": 5779,
      "ĠSound": 5780,
      "ĠMur": 5781,
      "ĠBul": 5782,
      "ĠDj": 5783,
      "ĠRol": 5784,
      "ĠLieutenant": 5785,
      "agement": 5786,
      "ĠKap": 5787,
      "Ġconsists": 5788,
      "Ġsoft": 5789,
      "Ġcapacity": 5790,
      "Ġestate": 5791,
      "Ġphase": 5792,
      "Ġmusicians": 5793,
      "Ġdeaths": 5794,
      "ĠBroad": 5795,
      "ĠDev": 5796,
      "Ġsupern": 5797,
      "Ġpromotion": 5798,
      "Ġemployed": 5799,
      "Ġimmig": 5800,
      "Ġdissip": 5801,
      "Ġbattleships": 5802,
      "Ġunsu": 5803,
      "Ġenjoyed": 5804,
      "Ġcasualties": 5805,
      "Ġouter": 5806,
      "Ġhyp": 5807,
      "ĠTest": 5808,
      "ĠBre": 5809,
      "ĠBalt": 5810,
      "iration": 5811,
      "ĠLife": 5812,
      "Ġshark": 5813,
      "Ġimages": 5814,
      "Ġshowing": 5815,
      "ĠIndepend": 5816,
      "Ġspeech": 5817,
      "ĠBraz": 5818,
      "Ġsections": 5819,
      "Ġdetails": 5820,
      "kan": 5821,
      "mes": 5822,
      "Ġtact": 5823,
      "Ġfranch": 5824,
      "ompl": 5825,
      "ĠBrian": 5826,
      "ĠBudd": 5827,
      "ĠDer": 5828,
      "agan": 5829,
      "Ġnoting": 5830,
      "Ġenl": 5831,
      "Ġdescend": 5832,
      "ansen": 5833,
      "Ġundert": 5834,
      "Ġsubstant": 5835,
      "Ġgenre": 5836,
      "Ġintroduction": 5837,
      "Ġpopularity": 5838,
      "Ġconnection": 5839,
      "Ġextremely": 5840,
      "burgh": 5841,
      "ĠStephen": 5842,
      "rim": 5843,
      "ĠTrib": 5844,
      "aman": 5845,
      "Ġeth": 5846,
      "ĠCold": 5847,
      "imet": 5848,
      "irt": 5849,
      "ĠHead": 5850,
      "Ġcancer": 5851,
      "Ġaccompl": 5852,
      "Ġconcer": 5853,
      "ĠPhoen": 5854,
      "ĠParaly": 5855,
      "Ġroads": 5856,
      "Ġwatched": 5857,
      "ĠMontana": 5858,
      "ĠDisney": 5859,
      "kare": 5860,
      "tical": 5861,
      "ĠSa": 5862,
      "Ġlic": 5863,
      "Ġeighth": 5864,
      "Ġnor": 5865,
      "ĠCy": 5866,
      "ĠPublic": 5867,
      "ceived": 5868,
      "Ġselection": 5869,
      "onder": 5870,
      "Ġdecre": 5871,
      "anny": 5872,
      "Ġsemi": 5873,
      "ĠParalymp": 5874,
      "theless": 5875,
      "vey": 5876,
      "heastern": 5877,
      "atures": 5878,
      "Ġcricket": 5879,
      "Ġfung": 5880,
      "Ġmort": 5881,
      "ĠBand": 5882,
      "Ġrit": 5883,
      "aba": 5884,
      "sey": 5885,
      "ĠVideo": 5886,
      "Ġroof": 5887,
      "Ġoverse": 5888,
      "Ġentry": 5889,
      "ĠPhill": 5890,
      "ĠBeat": 5891,
      "ĠOrder": 5892,
      "ĠSongs": 5893,
      "Ġmissing": 5894,
      "Ġreligion": 5895,
      "Ġnormal": 5896,
      "Ġphilos": 5897,
      "Ġfictional": 5898,
      "mosp": 5899,
      "rine": 5900,
      "Ġsession": 5901,
      "Ġmo": 5902,
      "acted": 5903,
      "irates": 5904,
      "ĠNaz": 5905,
      "Ġknew": 5906,
      "Ġskysc": 5907,
      "Ġsolar": 5908,
      "ĠAdditionally": 5909,
      "rum": 5910,
      "vention": 5911,
      "inson": 5912,
      "Ġdates": 5913,
      "entially": 5914,
      "ĠPC": 5915,
      "Ġpreced": 5916,
      "Ġsubmar": 5917,
      "Ġlasted": 5918,
      "Ġequal": 5919,
      "orporation": 5920,
      "Ġexistence": 5921,
      "Ġproducts": 5922,
      "ĠImperial": 5923,
      "Ġconsisting": 5924,
      "ĠScottish": 5925,
      "ĠForest": 5926,
      "ĠOffice": 5927,
      "onymous": 5928,
      "Ġunsuccess": 5929,
      "Ch": 5930,
      "Ġha": 5931,
      "ĠMeanwhile": 5932,
      "ĠFam": 5933,
      "ĠNixon": 5934,
      "Ġexerc": 5935,
      "ĠChron": 5936,
      "rane": 5937,
      "Ġmanner": 5938,
      "Ġsole": 5939,
      "Ġindicated": 5940,
      "Ġsupposed": 5941,
      "Ġreality": 5942,
      "Ġclubs": 5943,
      "Ġislands": 5944,
      "Ġsurvived": 5945,
      "ĠIslands": 5946,
      "Ġnarrative": 5947,
      "ĠRyan": 5948,
      "ĠArgent": 5949,
      "gers": 5950,
      "eral": 5951,
      "Ġwed": 5952,
      "isa": 5953,
      "ĠAk": 5954,
      "ĠHan": 5955,
      "ĠDue": 5956,
      "ĠGree": 5957,
      "ĠElect": 5958,
      "Ġrated": 5959,
      "ĠChannel": 5960,
      "Ġoffers": 5961,
      "Ġflank": 5962,
      "Ġdefence": 5963,
      "Ġsupplies": 5964,
      "ĠConn": 5965,
      "former": 5966,
      "Ġrailway": 5967,
      "Ġabsor": 5968,
      "Ġpainting": 5969,
      "ihanna": 5970,
      "Ġopinion": 5971,
      "Ġbottom": 5972,
      "eign": 5973,
      "Ġfit": 5974,
      "omar": 5975,
      "Ġonline": 5976,
      "Ġconsequ": 5977,
      "Ġru": 5978,
      "overeign": 5979,
      "ĠAlf": 5980,
      "Ġindig": 5981,
      "Ġinvited": 5982,
      "Ġapproached": 5983,
      "Ġways": 5984,
      "Ġopposition": 5985,
      "Ġrenamed": 5986,
      "ĠRadio": 5987,
      "ĠWalter": 5988,
      "ĠIllino": 5989,
      "Ġoccasionally": 5990,
      "ĠBrazil": 5991,
      "rec": 5992,
      "organ": 5993,
      "ĠSR": 5994,
      "ĠHorse": 5995,
      "osite": 5996,
      "ĠKong": 5997,
      "ender": 5998,
      "Ġapplied": 5999,
      "eyer": 6000,
      "Ġcommitted": 6001,
      "ĠOnly": 6002,
      "ĠMcG": 6003,
      "engers": 6004,
      "Ġtypical": 6005,
      "Ġconvoy": 6006,
      "ĠEliz": 6007,
      "Ġlimit": 6008,
      "Ġholding": 6009,
      "stitution": 6010,
      "Ġeconomy": 6011,
      "Ġcandidate": 6012,
      "ĠHollywood": 6013,
      "St": 6014,
      "Ġcin": 6015,
      "Ġfish": 6016,
      "Ġdress": 6017,
      "amber": 6018,
      "ĠCorn": 6019,
      "ĠBos": 6020,
      "Ġstret": 6021,
      "ĠPot": 6022,
      "ĠDrag": 6023,
      "abeth": 6024,
      "Ġshared": 6025,
      "Ġagent": 6026,
      "Ġinterchange": 6027,
      "ropri": 6028,
      "Ġdesigns": 6029,
      "Ġairport": 6030,
      "aha": 6031,
      "ĠAdam": 6032,
      "Ġstoryline": 6033,
      "Ġmyth": 6034,
      "Ġspeaking": 6035,
      "Ġneck": 6036,
      "Ġconstitution": 6037,
      "ĠCambridge": 6038,
      "Ġsplit": 6039,
      "FL": 6040,
      "know": 6041,
      "Ġtheat": 6042,
      "Ġsort": 6043,
      "Ġmart": 6044,
      "Ġliber": 6045,
      "ols": 6046,
      "ĠRay": 6047,
      "ĠRod": 6048,
      "ĠRome": 6049,
      "Ġitems": 6050,
      "Ġexact": 6051,
      "Ġplas": 6052,
      "Ġshif": 6053,
      "Ġdecades": 6054,
      "ĠMarsh": 6055,
      "Ġunderw": 6056,
      "Ġsubs": 6057,
      "ifications": 6058,
      "ĠReview": 6059,
      "Ġdisturb": 6060,
      "Ġmedieval": 6061,
      "Ġfavour": 6062,
      "ĠPeople": 6063,
      "Ġindustrial": 6064,
      "Ġprotein": 6065,
      "Ġratings": 6066,
      "ĠOpen": 6067,
      "intendo": 6068,
      "Sp": 6069,
      "oe": 6070,
      "Ġmig": 6071,
      "Ġones": 6072,
      "iminal": 6073,
      "ĠNintendo": 6074,
      "sole": 6075,
      "ĠAlice": 6076,
      "Ġdoct": 6077,
      "Ġrestaur": 6078,
      "ĠDuke": 6079,
      "ipping": 6080,
      "Ġarranged": 6081,
      "Ġweakened": 6082,
      "ĠTurkish": 6083,
      "ĠâĪĴ": 6084,
      "eer": 6085,
      "western": 6086,
      "reets": 6087,
      "Ġcrop": 6088,
      "oln": 6089,
      "ĠBenz": 6090,
      "ĠBundy": 6091,
      "irman": 6092,
      "owler": 6093,
      "ĠRihanna": 6094,
      "Ġatmosp": 6095,
      "ĠOffic": 6096,
      "Ġchance": 6097,
      "Ġshel": 6098,
      "Ġacclaim": 6099,
      "Ġclassified": 6100,
      "Ġskills": 6101,
      "Ġcombination": 6102,
      "Ġstrik": 6103,
      "Ġbegun": 6104,
      "Ġderived": 6105,
      "alveston": 6106,
      "Ġlibrary": 6107,
      "Ġsoutheast": 6108,
      "yer": 6109,
      "Ġtrou": 6110,
      "onica": 6111,
      "Ġwars": 6112,
      "ati": 6113,
      "Ġham": 6114,
      "ĠBat": 6115,
      "ĠBang": 6116,
      "ĠJean": 6117,
      "Ġvision": 6118,
      "aret": 6119,
      "Ġinterested": 6120,
      "Ġcoal": 6121,
      "Ġemp": 6122,
      "Ġdeveloping": 6123,
      "Ġlandfall": 6124,
      "inking": 6125,
      "Ġreviewers": 6126,
      "ĠPrime": 6127,
      "Ġgetting": 6128,
      "Ġcrossing": 6129,
      "ĠEmperor": 6130,
      "ĠMexican": 6131,
      "Ġfeeling": 6132,
      "Ġscientific": 6133,
      "ĠOperation": 6134,
      "Ġbattery": 6135,
      "ĠColumbia": 6136,
      "For": 6137,
      "come": 6138,
      "Ġ#": 6139,
      "ading": 6140,
      "uration": 6141,
      "ĠRog": 6142,
      "ĠHeart": 6143,
      "Ġparties": 6144,
      "Ġintercept": 6145,
      "iously": 6146,
      "Ġdecline": 6147,
      "ĠAnth": 6148,
      "Ġactual": 6149,
      "ĠAmong": 6150,
      "ĠMedal": 6151,
      "Ġslowly": 6152,
      "Ġathletes": 6153,
      "ĠHonor": 6154,
      "born": 6155,
      "eenth": 6156,
      "iary": 6157,
      "Ġtable": 6158,
      "ĠCa": 6159,
      "Ġalle": 6160,
      "ĠWW": 6161,
      "Ġresident": 6162,
      "angerous": 6163,
      "aware": 6164,
      "Ġpossibility": 6165,
      "ĠProv": 6166,
      "Ġrevolution": 6167,
      "ĠSquare": 6168,
      "Ġrailroad": 6169,
      "iques": 6170,
      "Ġrarely": 6171,
      "ĠAdmiral": 6172,
      "bl": 6173,
      "ii": 6174,
      "Ġfolk": 6175,
      "alent": 6176,
      "asi": 6177,
      "Ġmut": 6178,
      "Ġnick": 6179,
      "acts": 6180,
      "ĠHorn": 6181,
      "aya": 6182,
      "ĠWat": 6183,
      "ĠGram": 6184,
      "ĠNH": 6185,
      "agues": 6186,
      "Ġexchange": 6187,
      "essa": 6188,
      "Ġresour": 6189,
      "Ġrob": 6190,
      "Ġserves": 6191,
      "ĠWho": 6192,
      "Ġmoder": 6193,
      "Ġcourts": 6194,
      "Ġmissed": 6195,
      "Ġpenalty": 6196,
      "ĠMissoula": 6197,
      "ĠBonds": 6198,
      "mn": 6199,
      "Ġdens": 6200,
      "ctions": 6201,
      "ĠNative": 6202,
      "ifa": 6203,
      "iller": 6204,
      "opher": 6205,
      "Ġentitled": 6206,
      "ucky": 6207,
      "Ġinstruct": 6208,
      "Ġclasses": 6209,
      "Ġdemol": 6210,
      "Ġbasic": 6211,
      "Ġappeal": 6212,
      "ĠMoh": 6213,
      "Ġvolunte": 6214,
      "Ġconnect": 6215,
      "Ġexcav": 6216,
      "ĠWilhelm": 6217,
      "Ġviolence": 6218,
      "Ġremainder": 6219,
      "Ġsettled": 6220,
      "ician": 6221,
      "Ġlov": 6222,
      "olph": 6223,
      "ivals": 6224,
      "ussion": 6225,
      "ĠHell": 6226,
      "iege": 6227,
      "Ġschem": 6228,
      "Ġenemies": 6229,
      "Ġsecure": 6230,
      "Ġsouthwest": 6231,
      "incoln": 6232,
      "Ġgreatly": 6233,
      "Ġstrongly": 6234,
      "Ã¡r": 6235,
      "Ġspecifically": 6236,
      "ĠGolden": 6237,
      "Ġgraphics": 6238,
      "Ġrecommended": 6239,
      "Ġportrayed": 6240,
      "BI": 6241,
      "gest": 6242,
      "load": 6243,
      "rm": 6244,
      "erted": 6245,
      "rets": 6246,
      "Ġod": 6247,
      "Ġcart": 6248,
      "aria": 6249,
      "Ġhang": 6250,
      "ĠSn": 6251,
      "ĠSub": 6252,
      "elly": 6253,
      "ĠCD": 6254,
      "ĠCole": 6255,
      "urrent": 6256,
      "ĠDor": 6257,
      "Ġclock": 6258,
      "Ġrose": 6259,
      "Ġwealth": 6260,
      "Ġconsum": 6261,
      "ĠAnton": 6262,
      "ĠColor": 6263,
      "Ġappearing": 6264,
      "ĠMadonna": 6265,
      "Ġflights": 6266,
      "Ġalternative": 6267,
      "Ġcustom": 6268,
      "Ġsynthes": 6269,
      "ĠIllinois": 6270,
      "bec": 6271,
      "hi": 6272,
      "tty": 6273,
      "vis": 6274,
      "Ġcatch": 6275,
      "Ġdream": 6276,
      "ador": 6277,
      "osis": 6278,
      "ĠGreg": 6279,
      "ĠLet": 6280,
      "ĠLincoln": 6281,
      "aga": 6282,
      "Ġyouth": 6283,
      "Ġconvin": 6284,
      "iece": 6285,
      "Ġkingdom": 6286,
      "ĠBowie": 6287,
      "ĠNorway": 6288,
      "Ġthousands": 6289,
      "ĠToday": 6290,
      "Ġhydro": 6291,
      "OK": 6292,
      "oir": 6293,
      "onn": 6294,
      "Ġcul": 6295,
      "Ġfuel": 6296,
      "ĠBaby": 6297,
      "Ġintention": 6298,
      "atty": 6299,
      "Ġremn": 6300,
      "Ġaddress": 6301,
      "Ġcapable": 6302,
      "Ġdepartment": 6303,
      "Ġwarm": 6304,
      "Ġmathem": 6305,
      "ĠAllied": 6306,
      "ĠBrook": 6307,
      "quez": 6308,
      "Ġappoint": 6309,
      "Ġvote": 6310,
      "ĠErnest": 6311,
      "gÃ©": 6312,
      "Ġsight": 6313,
      "enon": 6314,
      "illy": 6315,
      "ĠAst": 6316,
      "stances": 6317,
      "acent": 6318,
      "unch": 6319,
      "ĠChart": 6320,
      "Ġrecalled": 6321,
      "ĠLeg": 6322,
      "Ġentering": 6323,
      "insula": 6324,
      "Ġstudied": 6325,
      "Ġdescribing": 6326,
      "Ġautom": 6327,
      "Ġreplace": 6328,
      "Ġinternal": 6329,
      "Ġdifficulty": 6330,
      "ĠHamilton": 6331,
      "ĠEvery": 6332,
      "Ġclean": 6333,
      "Ġsucceeded": 6334,
      "Ġcertified": 6335,
      "Ġproposal": 6336,
      "nt": 6337,
      "Ġpump": 6338,
      "amm": 6339,
      "rait": 6340,
      "ĠGalveston": 6341,
      "usted": 6342,
      "Ġcomposition": 6343,
      "rang": 6344,
      "Ġneither": 6345,
      "Ġaccused": 6346,
      "ĠJoe": 6347,
      "Ġgeneration": 6348,
      "ĠConstant": 6349,
      "Ġwinner": 6350,
      "Ġbreaking": 6351,
      "ĠBros": 6352,
      "ĠCrown": 6353,
      "Ġbrothers": 6354,
      "Ġobjects": 6355,
      "itzer": 6356,
      "Ġpermanent": 6357,
      "ĠSudirman": 6358,
      "Ġcitizens": 6359,
      "Ġbasketball": 6360,
      "aug": 6361,
      "vements": 6362,
      "onia": 6363,
      "alo": 6364,
      "Ġpy": 6365,
      "Ġeat": 6366,
      "ĠMort": 6367,
      "ĠMountain": 6368,
      "ĠHomer": 6369,
      "Ġsty": 6370,
      "ĠLi": 6371,
      "ĠObs": 6372,
      "Ġverse": 6373,
      "Ġmoves": 6374,
      "Ġobtained": 6375,
      "ĠBlood": 6376,
      "Ġgray": 6377,
      "Ġheads": 6378,
      "Ġturning": 6379,
      "Ġcommanded": 6380,
      "Ġfields": 6381,
      "ĠAbb": 6382,
      "Ġcircum": 6383,
      "Ġdiscovery": 6384,
      "Ġcrossed": 6385,
      "Ġmassive": 6386,
      "Ġinjured": 6387,
      "Ġapart": 6388,
      "Ġrules": 6389,
      "ĠSomal": 6390,
      "Ġpipeline": 6391,
      "ĠWeekly": 6392,
      "Ġauthors": 6393,
      "mph": 6394,
      "zen": 6395,
      "Ġcad": 6396,
      "elson": 6397,
      "ĠCE": 6398,
      "Ġgrav": 6399,
      "Ġbeach": 6400,
      "apes": 6401,
      "Ġlegend": 6402,
      "Ġscul": 6403,
      "Ġattracted": 6404,
      "Ġfled": 6405,
      "Ġflat": 6406,
      "arsh": 6407,
      "Ġidentity": 6408,
      "Ġnomination": 6409,
      "Ġwooden": 6410,
      "Ġconcerns": 6411,
      "Ġchallenge": 6412,
      "ĠCroatian": 6413,
      "Ġparallel": 6414,
      "pole": 6415,
      "Ġsell": 6416,
      "Ġfear": 6417,
      "anth": 6418,
      "Ġdin": 6419,
      "ĠTru": 6420,
      "Ġlap": 6421,
      "Ġlung": 6422,
      "ĠCer": 6423,
      "othes": 6424,
      "ĠWalk": 6425,
      "ĠWright": 6426,
      "ĠNBC": 6427,
      "Ġorchest": 6428,
      "Ġshore": 6429,
      "okes": 6430,
      "ogen": 6431,
      "Ġremix": 6432,
      "Ġregional": 6433,
      "Ġformat": 6434,
      "Ġsomeone": 6435,
      "ĠLev": 6436,
      "Ġreviewer": 6437,
      "Ġcauses": 6438,
      "Ġsolid": 6439,
      "ĠGeorg": 6440,
      "Ġvalley": 6441,
      "Ġescort": 6442,
      "Ġvoted": 6443,
      "Ġhoped": 6444,
      "Ġdiscussed": 6445,
      "Ġdistribution": 6446,
      "ĠAlexander": 6447,
      "Ġprincipal": 6448,
      "Ġreinforce": 6449,
      "Ġcorner": 6450,
      "ĠTemple": 6451,
      "Ġcamera": 6452,
      "Ġfranchise": 6453,
      "FA": 6454,
      "Ġtell": 6455,
      "Ġbra": 6456,
      "inger": 6457,
      "ĠSky": 6458,
      "omic": 6459,
      "ĠMTV": 6460,
      "urches": 6461,
      "ĠHor": 6462,
      "abled": 6463,
      "ĠKir": 6464,
      "ĠYour": 6465,
      "ribed": 6466,
      "Ġcolour": 6467,
      "Ġacknow": 6468,
      "Ġleadership": 6469,
      "Ġdepict": 6470,
      "Ġvictims": 6471,
      "Ġcommunities": 6472,
      "Ġindependence": 6473,
      "Ġreaction": 6474,
      "ĠDomitian": 6475,
      "Ġthirty": 6476,
      "ĠDestiny": 6477,
      "bird": 6478,
      "iot": 6479,
      "mith": 6480,
      "Ġbenzodiazep": 6481,
      "ĠHospital": 6482,
      "ĠFire": 6483,
      "Ġrural": 6484,
      "aste": 6485,
      "Ġoutbreak": 6486,
      "Ġattached": 6487,
      "Ġassass": 6488,
      "Ġnoise": 6489,
      "ĠSpe": 6490,
      "Ġpointed": 6491,
      "encies": 6492,
      "Ġgenes": 6493,
      "ĠAbout": 6494,
      "Ġglass": 6495,
      "Ġreduce": 6496,
      "ĠHowe": 6497,
      "ĠGarc": 6498,
      "ĠNicole": 6499,
      "enger": 6500,
      "Ġbid": 6501,
      "asa": 6502,
      "Ġmunicip": 6503,
      "ĠAge": 6504,
      "eless": 6505,
      "ĠMu": 6506,
      "Ġgall": 6507,
      "ĠFantasy": 6508,
      "ĠUTC": 6509,
      "Ġcloth": 6510,
      "Ġimpl": 6511,
      "ĠUnivers": 6512,
      "Ġflo": 6513,
      "Ġaccur": 6514,
      "ologists": 6515,
      "Ġrestored": 6516,
      "ĠCommander": 6517,
      "Ġevening": 6518,
      "Ġseeing": 6519,
      "Ġarmor": 6520,
      "Ġseparated": 6521,
      "Ġthreatened": 6522,
      "Ġlegislation": 6523,
      "Ġchapter": 6524,
      "ĠMosley": 6525,
      "ĠSunday": 6526,
      "Ġeasily": 6527,
      "Ġsomewhat": 6528,
      "Sh": 6529,
      "Ġtheatre": 6530,
      "esb": 6531,
      "amy": 6532,
      "amin": 6533,
      "ĠBir": 6534,
      "ĠHou": 6535,
      "odon": 6536,
      "Ġchorus": 6537,
      "ĠKey": 6538,
      "acks": 6539,
      "ranean": 6540,
      "Ġreconst": 6541,
      "Ġmusc": 6542,
      "ridges": 6543,
      "Ġapproved": 6544,
      "Ġbelieves": 6545,
      "Ġeffectively": 6546,
      "Ġinvolvement": 6547,
      "Ġplanning": 6548,
      "ĠTelevision": 6549,
      "Ġfunds": 6550,
      "Ġestablishment": 6551,
      "Ġconsiderable": 6552,
      "ĠOlympics": 6553,
      "Ġpicked": 6554,
      "Ġmessage": 6555,
      "ĠBaseball": 6556,
      "Ġsons": 6557,
      "Ġwins": 6558,
      "Ġcard": 6559,
      "ications": 6560,
      "ĠBas": 6561,
      "ĠDa": 6562,
      "ĠGre": 6563,
      "ĠKim": 6564,
      "Ġspac": 6565,
      "Ġpregn": 6566,
      "Ġcharges": 6567,
      "Ġreception": 6568,
      "Ġcarrying": 6569,
      "ivalent": 6570,
      "Ġfreed": 6571,
      "Ġinvolving": 6572,
      "ĠDavis": 6573,
      "aska": 6574,
      "Ġsuffering": 6575,
      "ĠMilitary": 6576,
      "ĠPlayer": 6577,
      "ĠBuilding": 6578,
      "Ġcathedral": 6579,
      "Ġbringing": 6580,
      "Ġstayed": 6581,
      "Ġdominated": 6582,
      "Ġtaught": 6583,
      "eds": 6584,
      "Ġban": 6585,
      "alions": 6586,
      "Ġpure": 6587,
      "Ġgal": 6588,
      "Ġgiant": 6589,
      "ĠLow": 6590,
      "Ġrum": 6591,
      "berforce": 6592,
      "ĠStadium": 6593,
      "Ġroutes": 6594,
      "Ġflu": 6595,
      "ropol": 6596,
      "Ġretained": 6597,
      "Ġlongest": 6598,
      "Ġstrateg": 6599,
      "Ġprotest": 6600,
      "Ġstarred": 6601,
      "Ġtechniques": 6602,
      "Ġtreaty": 6603,
      "Ġcalc": 6604,
      "Ġassistant": 6605,
      "Ġancest": 6606,
      "Ġemerged": 6607,
      "Ġhunting": 6608,
      "ĠRailway": 6609,
      "Ġdollar": 6610,
      "ĠCastle": 6611,
      "Ġinhabit": 6612,
      "Ġresistance": 6613,
      "ĠPremier": 6614,
      "ĠElizabeth": 6615,
      "ĠBenzema": 6616,
      "It": 6617,
      "ooth": 6618,
      "à¸": 6619,
      "itors": 6620,
      "Ġfil": 6621,
      "Ġpig": 6622,
      "Ġdub": 6623,
      "Ġhope": 6624,
      "ĠSem": 6625,
      "Ġnob": 6626,
      "ecraft": 6627,
      "ĠDC": 6628,
      "uma": 6629,
      "Ġvary": 6630,
      "Ġraces": 6631,
      "Ġsud": 6632,
      "Ġtrains": 6633,
      "ĠShiva": 6634,
      "Ġvictories": 6635,
      "Ġsuperior": 6636,
      "ĠPoland": 6637,
      "Ġtraveled": 6638,
      "Ġchalleng": 6639,
      "Ġsleep": 6640,
      "ĠGreeley": 6641,
      "pe": 6642,
      "inor": 6643,
      "Ġster": 6644,
      "Ġinner": 6645,
      "Ġdie": 6646,
      "ĠSnow": 6647,
      "Ġlin": 6648,
      "idge": 6649,
      "ĠHart": 6650,
      "ĠPower": 6651,
      "ĠDaily": 6652,
      "Ġalt": 6653,
      "ĠWars": 6654,
      "illo": 6655,
      "Ġsees": 6656,
      "aked": 6657,
      "ĠKansas": 6658,
      "ĠUt": 6659,
      "ronic": 6660,
      "Ġconcrete": 6661,
      "Ġowner": 6662,
      "Ġequipped": 6663,
      "Ġpredecess": 6664,
      "Ġzone": 6665,
      "ĠMiles": 6666,
      "ĠQueens": 6667,
      "Ġfunding": 6668,
      "Ġcompletion": 6669,
      "Ġdistributed": 6670,
      "ĠBusch": 6671,
      "Ġninth": 6672,
      "ĠDirector": 6673,
      "Ġpaintings": 6674,
      "ĠKapoor": 6675,
      "ĠSk": 6676,
      "ĠAthlet": 6677,
      "Ġec": 6678,
      "Ġnavig": 6679,
      "ĠDomin": 6680,
      "char": 6681,
      "ĠFre": 6682,
      "ĠThunder": 6683,
      "Ġago": 6684,
      "ĠMarine": 6685,
      "Ġacts": 6686,
      "Ġassemb": 6687,
      "iversary": 6688,
      "Ġdowntown": 6689,
      "Ġpassage": 6690,
      "ĠCaribb": 6691,
      "Ġopposite": 6692,
      "ĠMint": 6693,
      "Ġcreator": 6694,
      "Ġassociation": 6695,
      "Ġpanel": 6696,
      "Ġspecimens": 6697,
      "Ġattributed": 6698,
      "Ġpreferred": 6699,
      "ĠCaribbean": 6700,
      "hatt": 6701,
      "Ġsed": 6702,
      "Ġwearing": 6703,
      "Ġcook": 6704,
      "Ġgather": 6705,
      "eton": 6706,
      "ĠFowler": 6707,
      "cton": 6708,
      "Ġrich": 6709,
      "aph": 6710,
      "oked": 6711,
      "Ġoffense": 6712,
      "Ġdecor": 6713,
      "Ġmeets": 6714,
      "Ġclassification": 6715,
      "Ġrefuge": 6716,
      "Ġgrounds": 6717,
      "ĠButler": 6718,
      "Ġmerch": 6719,
      "Ġassistance": 6720,
      "Ġforests": 6721,
      "Ġliterary": 6722,
      "Ġpurchase": 6723,
      "chen": 6724,
      "rees": 6725,
      "atus": 6726,
      "orous": 6727,
      "isf": 6728,
      "Ġbats": 6729,
      "ĠCorporation": 6730,
      "using": 6731,
      "Ġstream": 6732,
      "ĠFey": 6733,
      "ĠJun": 6734,
      "Ġchain": 6735,
      "ector": 6736,
      "ignment": 6737,
      "ĠAlb": 6738,
      "ĠAlan": 6739,
      "Ġteaching": 6740,
      "Ġtruth": 6741,
      "Ġraise": 6742,
      "Ġregister": 6743,
      "Ġfoundation": 6744,
      "Ġfinishing": 6745,
      "Ġneeds": 6746,
      "Ġcoastal": 6747,
      "ĠMaryland": 6748,
      "Ġensure": 6749,
      "Ġconcerned": 6750,
      "Ġseemed": 6751,
      "Ġrecovered": 6752,
      "Ġemotional": 6753,
      "Ġvessels": 6754,
      "Ġbehavior": 6755,
      "Ġunusual": 6756,
      "ĠColorado": 6757,
      "bo": 6758,
      "Ġtick": 6759,
      "hered": 6760,
      "Ġtoll": 6761,
      "ader": 6762,
      "imore": 6763,
      "ĠIron": 6764,
      "apo": 6765,
      "send": 6766,
      "Ġabol": 6767,
      "Ġdesire": 6768,
      "achus": 6769,
      "Ġotherwise": 6770,
      "Ġinterior": 6771,
      "issance": 6772,
      "Ġpublisher": 6773,
      "ĠLeon": 6774,
      "Ġdepend": 6775,
      "Ġinstalled": 6776,
      "Ġcargo": 6777,
      "ĠConst": 6778,
      "Ġreplacement": 6779,
      "Ġcrash": 6780,
      "Ġcriminal": 6781,
      "Ġresponsibility": 6782,
      "Ġvirus": 6783,
      "Ġsurrounded": 6784,
      "Ġwatching": 6785,
      "Ġchemical": 6786,
      "ĠKennedy": 6787,
      "body": 6788,
      "Å¡": 6789,
      "Ġtie": 6790,
      "inating": 6791,
      "ĠTreat": 6792,
      "ĠCape": 6793,
      "Ġgard": 6794,
      "ĠHok": 6795,
      "ching": 6796,
      "ĠNick": 6797,
      "ĠNFL": 6798,
      "ĠNelson": 6799,
      "ĠLeno": 6800,
      "sex": 6801,
      "ĠStaff": 6802,
      "Ġcloud": 6803,
      "ĠThus": 6804,
      "Ġagree": 6805,
      "oba": 6806,
      "Ġpoll": 6807,
      "uese": 6808,
      "Ġstatement": 6809,
      "ommod": 6810,
      "Ġveget": 6811,
      "ĠBerlin": 6812,
      "ĠHoward": 6813,
      "Ġemerg": 6814,
      "Ġneighbor": 6815,
      "Ġmicro": 6816,
      "Ġisolated": 6817,
      "Ġsudden": 6818,
      "gon": 6819,
      "kins": 6820,
      "rich": 6821,
      "icts": 6822,
      "roit": 6823,
      "ĠSher": 6824,
      "eck": 6825,
      "ĠBron": 6826,
      "owa": 6827,
      "emed": 6828,
      "ĠFriend": 6829,
      "ĠGab": 6830,
      "ĠLabor": 6831,
      "Ġvent": 6832,
      "ewhere": 6833,
      "ĠSeattle": 6834,
      "Ġcolony": 6835,
      "ĠShak": 6836,
      "ĠScience": 6837,
      "ĠCarter": 6838,
      "Ġoperating": 6839,
      "ĠPlan": 6840,
      "Ġdebate": 6841,
      "ĠPhilipp": 6842,
      "Ġdetermine": 6843,
      "ĠSamuel": 6844,
      "Ġinterpret": 6845,
      "Ġintelligence": 6846,
      "ĠRolling": 6847,
      "fare": 6848,
      "hu": 6849,
      "race": 6850,
      "Ġrib": 6851,
      "ato": 6852,
      "Ġbond": 6853,
      "Ġthrew": 6854,
      "ĠSup": 6855,
      "ĠMeyer": 6856,
      "ĠBall": 6857,
      "imony": 6858,
      "otes": 6859,
      "Ġstreets": 6860,
      "ĠRet": 6861,
      "ĠLl": 6862,
      "abama": 6863,
      "Ġspoke": 6864,
      "ĠâĢľ": 6865,
      "Ġrelative": 6866,
      "velopment": 6867,
      "Ġemperor": 6868,
      "ĠIndones": 6869,
      "Ġsuccessor": 6870,
      "ĠAdams": 6871,
      "Ġdestruction": 6872,
      "ĠCountry": 6873,
      "Ġsurviving": 6874,
      "rapy": 6875,
      "Ġachieve": 6876,
      "ĠSanta": 6877,
      "Ġcondoms": 6878,
      "ĠPortuguese": 6879,
      "Ġdescription": 6880,
      "Ġstrengthen": 6881,
      "ES": 6882,
      "Ġpage": 6883,
      "ashed": 6884,
      "Ġrender": 6885,
      "ĠBack": 6886,
      "Ġintense": 6887,
      "Ġclimb": 6888,
      "Ġunderground": 6889,
      "Ġleads": 6890,
      "risis": 6891,
      "ĠJuan": 6892,
      "ĠBeach": 6893,
      "Ġprotagonist": 6894,
      "Ġdriver": 6895,
      "Ġdriving": 6896,
      "Ġlegs": 6897,
      "Ġstands": 6898,
      "Ġsounds": 6899,
      "Ġnovels": 6900,
      "Ġanimated": 6901,
      "Ġpromote": 6902,
      "Ġcycle": 6903,
      "ĠIndiana": 6904,
      "Ġsequel": 6905,
      "Ġquestions": 6906,
      "ĠMalays": 6907,
      "Ġexperiences": 6908,
      "ĠBetween": 6909,
      "nic": 6910,
      "Ġpull": 6911,
      "Ġdating": 6912,
      "ĠFame": 6913,
      "osure": 6914,
      "Ġproport": 6915,
      "lders": 6916,
      "Ġshut": 6917,
      "Ġadults": 6918,
      "arked": 6919,
      "angers": 6920,
      "Ġdepicted": 6921,
      "Ã©e": 6922,
      "Ġhistorians": 6923,
      "Ġtechnique": 6924,
      "Ġlooked": 6925,
      "Ġrecognition": 6926,
      "Ġhosted": 6927,
      "ĠBraat": 6928,
      "Ġdrawing": 6929,
      "ĠHaifa": 6930,
      "Ġsegment": 6931,
      "Ġromantic": 6932,
      "ĠDetroit": 6933,
      "ĠNorman": 6934,
      "From": 6935,
      "PA": 6936,
      "father": 6937,
      "rus": 6938,
      "vens": 6939,
      "Ġchest": 6940,
      "arant": 6941,
      "icate": 6942,
      "Ġmap": 6943,
      "ilation": 6944,
      "ela": 6945,
      "Ġgene": 6946,
      "ima": 6947,
      "Ġbear": 6948,
      "Ġconvers": 6949,
      "ĠNap": 6950,
      "ĠJr": 6951,
      "ĠOm": 6952,
      "Ġchurches": 6953,
      "ĠInc": 6954,
      "Ġspin": 6955,
      "ĠMarc": 6956,
      "ugby": 6957,
      "Ġassumed": 6958,
      "Ġsupporters": 6959,
      "Ġinstall": 6960,
      "Ġpassengers": 6961,
      "Ġattacking": 6962,
      "Ġclassic": 6963,
      "Ġclassical": 6964,
      "Ġmotor": 6965,
      "ĠLaure": 6966,
      "going": 6967,
      "Ġmethods": 6968,
      "Ġcontroversy": 6969,
      "Ġincorporated": 6970,
      "Ġduties": 6971,
      "Ġadjacent": 6972,
      "Ġdrug": 6973,
      "ĠHouston": 6974,
      "after": 6975,
      "ext": 6976,
      "Ġcrown": 6977,
      "Ġfoss": 6978,
      "ĠSora": 6979,
      "ĠMah": 6980,
      "Ġstadium": 6981,
      "Ġride": 6982,
      "Ġexisted": 6983,
      "ĠYan": 6984,
      "Ġwhereas": 6985,
      "Ġreturns": 6986,
      "ossible": 6987,
      "Ġgrant": 6988,
      "Ġdemand": 6989,
      "Ġchanging": 6990,
      "ĠEarl": 6991,
      "ĠSimilar": 6992,
      "Ġregularly": 6993,
      "ĠKevin": 6994,
      "Ġcruiser": 6995,
      "Ġcoins": 6996,
      "Ġsettlers": 6997,
      "cription": 6998,
      "Ġcolonial": 6999,
      "ĠEgyptian": 7000,
      "Ġdollars": 7001,
      "Ġwickets": 7002,
      "Ġeggs": 7003,
      "Ġspacecraft": 7004,
      "MA": 7005,
      "ds": 7006,
      "wich": 7007,
      "Ġtyphoon": 7008,
      "Ġsnow": 7009,
      "Ġwrong": 7010,
      "iti": 7011,
      "ĠAz": 7012,
      "ĠDE": 7013,
      "ĠFive": 7014,
      "Ġvic": 7015,
      "iform": 7016,
      "opes": 7017,
      "Ġreserve": 7018,
      "Ġupgrad": 7019,
      "Ġaccounts": 7020,
      "Ġsym": 7021,
      "Ġextension": 7022,
      "gery": 7023,
      "Ġmagic": 7024,
      "Ġelse": 7025,
      "Ġready": 7026,
      "Ġcopy": 7027,
      "Ġpainted": 7028,
      "Ġmemory": 7029,
      "Ġbattleship": 7030,
      "Ġhotel": 7031,
      "Ġarrested": 7032,
      "Ġacademic": 7033,
      "ĠBaltimore": 7034,
      "box": 7035,
      "dale": 7036,
      "Ġtone": 7037,
      "Ġsale": 7038,
      "ĠBru": 7039,
      "ĠNether": 7040,
      "ĠLock": 7041,
      "ĠJup": 7042,
      "Ġshots": 7043,
      "Ġaboard": 7044,
      "ĠYue": 7045,
      "Ġformally": 7046,
      "Ġminister": 7047,
      "Ġoffices": 7048,
      "Ġpraise": 7049,
      "ĠPortland": 7050,
      "Ġvotes": 7051,
      "Ġfalling": 7052,
      "Ġpurposes": 7053,
      "Ġhundreds": 7054,
      "Ġworst": 7055,
      "ĠHindu": 7056,
      "Ġconvinced": 7057,
      "Ġsculpt": 7058,
      "achusetts": 7059,
      "Despite": 7060,
      "bound": 7061,
      "har": 7062,
      "Ġtack": 7063,
      "Ġbom": 7064,
      "Ġhal": 7065,
      "ĠMÃ¡r": 7066,
      "ĠIce": 7067,
      "ĠHann": 7068,
      "ĠPass": 7069,
      "ĠRand": 7070,
      "ĠLyn": 7071,
      "agg": 7072,
      "ĠJur": 7073,
      "earch": 7074,
      "Ġteen": 7075,
      "Ġsecured": 7076,
      "Ġformal": 7077,
      "Ġdetailed": 7078,
      "ĠSmart": 7079,
      "Ġcirculation": 7080,
      "ĠRecording": 7081,
      "Ġtreated": 7082,
      "ĠWilson": 7083,
      "Ġexception": 7084,
      "Ġduty": 7085,
      "Ġprosper": 7086,
      "ĠThroughout": 7087,
      "ĠArea": 7088,
      "Ġtornado": 7089,
      "ĠMÃ¡rquez": 7090,
      "time": 7091,
      "ya": 7092,
      "Ä«": 7093,
      "entions": 7094,
      "ĠMoon": 7095,
      "igg": 7096,
      "ĠPress": 7097,
      "uls": 7098,
      "ĠNow": 7099,
      "Ġvide": 7100,
      "ĠâĢĿ": 7101,
      "Ġjazz": 7102,
      "ĠAlabama": 7103,
      "obe": 7104,
      "Ġdefended": 7105,
      "Ġpoems": 7106,
      "ĠAdvent": 7107,
      "ĠHergÃ©": 7108,
      "Ġjoint": 7109,
      "Ġdoesn": 7110,
      "Ġcosts": 7111,
      "ĠMississ": 7112,
      "Ġrenew": 7113,
      "Ġpresidential": 7114,
      "Ġproperties": 7115,
      "Ġimmediate": 7116,
      "ĠMassachusetts": 7117,
      "Ġpremiered": 7118,
      "ĠConfeder": 7119,
      "ĠShortly": 7120,
      "esbitt": 7121,
      "don": 7122,
      "put": 7123,
      "tz": 7124,
      "Ġbright": 7125,
      "icop": 7126,
      "Ġmode": 7127,
      "ĠSi": 7128,
      "state": 7129,
      "Ġgross": 7130,
      "iger": 7131,
      "ĠHay": 7132,
      "ĠJersey": 7133,
      "Ġveter": 7134,
      "ĠAlkan": 7135,
      "ensus": 7136,
      "Ġinterests": 7137,
      "Ġcolors": 7138,
      "ĠArthur": 7139,
      "ĠSpring": 7140,
      "ennis": 7141,
      "Ġmaint": 7142,
      "Ġimpressed": 7143,
      "Ã©r": 7144,
      "Ġprovince": 7145,
      "Ġanniversary": 7146,
      "Ġpossession": 7147,
      "ĠProg": 7148,
      "Ġtemporary": 7149,
      "Ġlowest": 7150,
      "Ġprogramme": 7151,
      "Ġsurviv": 7152,
      "ĠSupp": 7153,
      "Ġcrosses": 7154,
      "ĠMediter": 7155,
      "Ġholds": 7156,
      "Ġdispute": 7157,
      "ĠMatthews": 7158,
      "Ġencouraged": 7159,
      "Ġsessions": 7160,
      "Ġsiege": 7161,
      "Ġpool": 7162,
      "Ġmine": 7163,
      "Ġloy": 7164,
      "Ġnone": 7165,
      "ĠHug": 7166,
      "Ġstem": 7167,
      "Ġhear": 7168,
      "Ġalleg": 7169,
      "abil": 7170,
      "ĠIng": 7171,
      "ogether": 7172,
      "ultane": 7173,
      "Ġaccommod": 7174,
      "Ġmetab": 7175,
      "Ġcoord": 7176,
      "Ġdownload": 7177,
      "ructure": 7178,
      "Ġrestrict": 7179,
      "Ġdifference": 7180,
      "Ġdifferences": 7181,
      "Ġpersonality": 7182,
      "Ġorganizations": 7183,
      "Ġprofit": 7184,
      "ographical": 7185,
      "Ġinjuries": 7186,
      "Ġmaterials": 7187,
      "ĠWilberforce": 7188,
      "Ġindicate": 7189,
      "ĠKentucky": 7190,
      "Ġvessel": 7191,
      "Ġhabitat": 7192,
      "ĠWinter": 7193,
      "Ġdismissed": 7194,
      "ĠPhoenix": 7195,
      "Ġresources": 7196,
      "ĠMohave": 7197,
      "ĠMediterranean": 7198,
      "dney": 7199,
      "itated": 7200,
      "arning": 7201,
      "Ġpup": 7202,
      "Ġthin": 7203,
      "ilst": 7204,
      "ĠSox": 7205,
      "ĠCru": 7206,
      "urally": 7207,
      "ĠBrig": 7208,
      "Ġheat": 7209,
      "thm": 7210,
      "riors": 7211,
      "akapo": 7212,
      "ĠStation": 7213,
      "ogy": 7214,
      "Ġexpect": 7215,
      "Ġexpensive": 7216,
      "Ġcontinuing": 7217,
      "axy": 7218,
      "Ġeleven": 7219,
      "Ġrestric": 7220,
      "Ġterminus": 7221,
      "Ġreferences": 7222,
      "Ġcollaps": 7223,
      "ĠSimon": 7224,
      "ĠSimps": 7225,
      "ĠInternet": 7226,
      "Ġinspiration": 7227,
      "Ġlinked": 7228,
      "Ġnormally": 7229,
      "ĠGardner": 7230,
      "Ġspiritual": 7231,
      "ĠRosebery": 7232,
      "ĠStewart": 7233,
      "ĠSimpsons": 7234,
      "eper": 7235,
      "ji": 7236,
      "Ġsailed": 7237,
      "Ġhill": 7238,
      "lets": 7239,
      "ĠAR": 7240,
      "ĠBran": 7241,
      "ĠBald": 7242,
      "ĠHun": 7243,
      "ĠHumber": 7244,
      "ĠJay": 7245,
      "ĠEle": 7246,
      "ifer": 7247,
      "akota": 7248,
      "Ġplate": 7249,
      "Ġrecre": 7250,
      "Ġplayoff": 7251,
      "Ġoutf": 7252,
      "Ġcharged": 7253,
      "Ġquant": 7254,
      "Ġsymp": 7255,
      "Ġgenerated": 7256,
      "Ġopera": 7257,
      "Ġpolitics": 7258,
      "Ġelabor": 7259,
      "Ġrepresents": 7260,
      "Ġcompete": 7261,
      "ĠMoncton": 7262,
      "Ġunderstand": 7263,
      "Ġintersection": 7264,
      "Ġpicture": 7265,
      "Ġchairman": 7266,
      "Ġdiameter": 7267,
      "edar": 7268,
      "Ġbaby": 7269,
      "ĠTessa": 7270,
      "ĠMS": 7271,
      "ĠBird": 7272,
      "ĠBarn": 7273,
      "osaur": 7274,
      "ĠJess": 7275,
      "essing": 7276,
      "Ġplane": 7277,
      "Ġearn": 7278,
      "Ġcharter": 7279,
      "Ġmush": 7280,
      "Ġtransition": 7281,
      "Ġconclusion": 7282,
      "Ġinstance": 7283,
      "Ġcharacteristics": 7284,
      "Ġpersu": 7285,
      "Ġmedium": 7286,
      "Ġpersonnel": 7287,
      "Ġopponents": 7288,
      "Ġhistoric": 7289,
      "Ġinteresting": 7290,
      "borough": 7291,
      "ĠTownsend": 7292,
      "Ġvisitors": 7293,
      "ĠTransport": 7294,
      "Ġdeparture": 7295,
      "Ġtunnel": 7296,
      "Ġutil": 7297,
      "ĠJesus": 7298,
      "ĠJupiter": 7299,
      "po": 7300,
      "ta": 7301,
      "Ġsam": 7302,
      "Ġfal": 7303,
      "Ġfantasy": 7304,
      "Ġbor": 7305,
      "Ġbrain": 7306,
      "Ġdock": 7307,
      "Ġdivers": 7308,
      "acon": 7309,
      "owed": 7310,
      "Ġstood": 7311,
      "ĠPers": 7312,
      "ĠDark": 7313,
      "ĠRon": 7314,
      "ĠNaval": 7315,
      "ĠâĤ": 7316,
      "ĠStro": 7317,
      "Ġjack": 7318,
      "teenth": 7319,
      "ublin": 7320,
      "Ġsoil": 7321,
      "Ġtrail": 7322,
      "Ġpreserved": 7323,
      "rams": 7324,
      "Ġanyone": 7325,
      "ĠUSA": 7326,
      "ĠMcL": 7327,
      "ĠManhatt": 7328,
      "scape": 7329,
      "beer": 7330,
      "ĠSingles": 7331,
      "glades": 7332,
      "Ġmoments": 7333,
      "ĠLawrence": 7334,
      "ĠIllmatic": 7335,
      "Ġaccompany": 7336,
      "ĠHistory": 7337,
      "ĠClem": 7338,
      "Ġscholar": 7339,
      "Ġphilosoph": 7340,
      "Ġscheme": 7341,
      "Ġmathemat": 7342,
      "ĠGarcÃŃa": 7343,
      "friend": 7344,
      "ugh": 7345,
      "itals": 7346,
      "aments": 7347,
      "usic": 7348,
      "ĠNesbitt": 7349,
      "ĠEug": 7350,
      "Ġorbit": 7351,
      "ĠKra": 7352,
      "ĠUr": 7353,
      "Ġlearning": 7354,
      "Ġsongwrit": 7355,
      "Ġretreat": 7356,
      "Ġmeters": 7357,
      "Ġcarri": 7358,
      "ĠColts": 7359,
      "ĠIsa": 7360,
      "Ġpersp": 7361,
      "ervative": 7362,
      "Ġtries": 7363,
      "Ġvisible": 7364,
      "Ġdriven": 7365,
      "Ġequivalent": 7366,
      "Ġinfluential": 7367,
      "Ġcloser": 7368,
      "Ġsequences": 7369,
      "Ġfavorite": 7370,
      "ĠDoctor": 7371,
      "ĠSilver": 7372,
      "Ġadventure": 7373,
      "Ġalleged": 7374,
      "ĠSupreme": 7375,
      "ĠBraathens": 7376,
      "ĠManhattan": 7377,
      "OC": 7378,
      "bours": 7379,
      "rep": 7380,
      "orious": 7381,
      "Ġcategory": 7382,
      "Ġfine": 7383,
      "Ġpound": 7384,
      "Ġgrey": 7385,
      "ĠBed": 7386,
      "Ġasks": 7387,
      "Ġstead": 7388,
      "ĠRem": 7389,
      "ĠJournal": 7390,
      "ichmann": 7391,
      "uda": 7392,
      "Ġresign": 7393,
      "Ġtrust": 7394,
      "Ġmovements": 7395,
      "Ġclaiming": 7396,
      "Ġavo": 7397,
      "ĠWithin": 7398,
      "Ġengineer": 7399,
      "ĠHotel": 7400,
      "Ġruled": 7401,
      "Ġbiggest": 7402,
      "Ġbehavi": 7403,
      "ĠBuddh": 7404,
      "Ġplasma": 7405,
      "rants": 7406,
      "ses": 7407,
      "Ġsan": 7408,
      "Ġske": 7409,
      "Ġsoul": 7410,
      "icit": 7411,
      "rous": 7412,
      "Ġdipl": 7413,
      "ĠSports": 7414,
      "ĠIowa": 7415,
      "Ġstock": 7416,
      "ĠDublin": 7417,
      "ĠRoc": 7418,
      "Ġrub": 7419,
      "rupted": 7420,
      "Ġabund": 7421,
      "Ġresolution": 7422,
      "Ġteeth": 7423,
      "Ġevolution": 7424,
      "oys": 7425,
      "Ġconsp": 7426,
      "aws": 7427,
      "Ġremember": 7428,
      "Ġenth": 7429,
      "ĠClar": 7430,
      "Ġvolcan": 7431,
      "Ġfacing": 7432,
      "ĠSydney": 7433,
      "ĠMorgan": 7434,
      "Ġcheck": 7435,
      "Ġfeelings": 7436,
      "Ġfrequent": 7437,
      "ĠEverglades": 7438,
      "ĠVeronica": 7439,
      "Ġjournalist": 7440,
      "ĠSpecial": 7441,
      "ĠFreder": 7442,
      "rings": 7443,
      "Ã±": 7444,
      "Ġsovereign": 7445,
      "Ġfalls": 7446,
      "Ġash": 7447,
      "ĠRAF": 7448,
      "rior": 7449,
      "ocal": 7450,
      "ĠInt": 7451,
      "ĠKat": 7452,
      "Ġincome": 7453,
      "Ġscatter": 7454,
      "Ġdescribe": 7455,
      "Ġcharacterized": 7456,
      "Ġgenetic": 7457,
      "ĠSwitzer": 7458,
      "Ġdocuments": 7459,
      "Ġtemperatures": 7460,
      "Ġhappy": 7461,
      "Ġthrone": 7462,
      "Ġframe": 7463,
      "Ġarchitecture": 7464,
      "ĠHungarian": 7465,
      "Ġagricultural": 7466,
      "Ġwedding": 7467,
      "Ġacknowled": 7468,
      "ĠTreaty": 7469,
      "ĠHokies": 7470,
      "Ar": 7471,
      "eor": 7472,
      "ja": 7473,
      "mouth": 7474,
      "va": 7475,
      "zz": 7476,
      "Ġcry": 7477,
      "aron": 7478,
      "Ġhuge": 7479,
      "ĠType": 7480,
      "ĠSav": 7481,
      "usal": 7482,
      "ĠFif": 7483,
      "ĠNob": 7484,
      "ĠNetwork": 7485,
      "Ġriding": 7486,
      "ĠOak": 7487,
      "Ġshift": 7488,
      "oven": 7489,
      "Ġpartly": 7490,
      "Ġconsult": 7491,
      "ĠMaria": 7492,
      "athus": 7493,
      "Ġrefers": 7494,
      "Ġcamps": 7495,
      "Ġstrate": 7496,
      "Ġrequested": 7497,
      "Ġattempting": 7498,
      "Ġhanded": 7499,
      "Ġstandards": 7500,
      "Ġpatron": 7501,
      "Ġaudio": 7502,
      "Ġabsence": 7503,
      "Ġquarterback": 7504,
      "ĠWalpole": 7505,
      "ĠOslo": 7506,
      "Ġinstruments": 7507,
      "ĠDreamcast": 7508,
      "Ġwithdrawal": 7509,
      "Ġapparently": 7510,
      "ĠGiants": 7511,
      "Ġoccasions": 7512,
      "Ġunsuccessful": 7513,
      "ĠAnthony": 7514,
      "ĠSwitzerland": 7515,
      "aired": 7516,
      "ture": 7517,
      "Ġoption": 7518,
      "Ġocean": 7519,
      "Ġfiring": 7520,
      "Ġbes": 7521,
      "Ġpin": 7522,
      "Ġmad": 7523,
      "Ġdiet": 7524,
      "ĠCop": 7525,
      "ĠDyn": 7526,
      "ĠJos": 7527,
      "ĠOk": 7528,
      "akers": 7529,
      "ĠKen": 7530,
      "Ġkid": 7531,
      "inals": 7532,
      "Ġraid": 7533,
      "obi": 7534,
      "Ġobl": 7535,
      "ĠZhou": 7536,
      "ĠCarr": 7537,
      "Ġphr": 7538,
      "ĠGermans": 7539,
      "ĠMinistry": 7540,
      "ĠNorwe": 7541,
      "ĠJustice": 7542,
      "ĠMrs": 7543,
      "Ġexamples": 7544,
      "ĠBellaire": 7545,
      "Ġadaptation": 7546,
      "iyar": 7547,
      "Ġextreme": 7548,
      "Ġencountered": 7549,
      "Ġcontroversial": 7550,
      "Ġstrategy": 7551,
      "ba": 7552,
      "cott": 7553,
      "nan": 7554,
      "named": 7555,
      "tic": 7556,
      "err": 7557,
      "enous": 7558,
      "leton": 7559,
      "ĠAround": 7560,
      "Ġlose": 7561,
      "ĠBry": 7562,
      "ĠDog": 7563,
      "Ġalter": 7564,
      "ĠGal": 7565,
      "Ġresidence": 7566,
      "Ġresigned": 7567,
      "Ġoverw": 7568,
      "Ġpartially": 7569,
      "Ġteamm": 7570,
      "Ġreprodu": 7571,
      "Ġimplement": 7572,
      "Ġhelicop": 7573,
      "Ġlisten": 7574,
      "Ġiniti": 7575,
      "Ġcriticised": 7576,
      "Ġrelationships": 7577,
      "Ġcredit": 7578,
      "Ġglobal": 7579,
      "Ġretirement": 7580,
      "Ġdissipated": 7581,
      "Mont": 7582,
      "itter": 7583,
      "Ġble": 7584,
      "Ġpushed": 7585,
      "ĠML": 7586,
      "ĠBa": 7587,
      "uscript": 7588,
      "ĠRA": 7589,
      "ĠRaj": 7590,
      "ĠWatch": 7591,
      "ĠNiel": 7592,
      "Ġprol": 7593,
      "ighters": 7594,
      "ichol": 7595,
      "Ġexcess": 7596,
      "Ġchampion": 7597,
      "ovic": 7598,
      "ounced": 7599,
      "Ġunion": 7600,
      "Ġserial": 7601,
      "ĠAlong": 7602,
      "Ġtele": 7603,
      "Ġevil": 7604,
      "ĠReal": 7605,
      "Ġeffic": 7606,
      "Ġeru": 7607,
      "coming": 7608,
      "ĠMedia": 7609,
      "Ġrecognised": 7610,
      "Ġabsol": 7611,
      "Ġtribes": 7612,
      "Ġblocks": 7613,
      "ĠBelg": 7614,
      "Ġbeautiful": 7615,
      "Ġarrangement": 7616,
      "Ġtowers": 7617,
      "mium": 7618,
      "pson": 7619,
      "Ġwings": 7620,
      "ori": 7621,
      "Ġcabin": 7622,
      "Ġblow": 7623,
      "Ġbron": 7624,
      "ĠTower": 7625,
      "Ġlane": 7626,
      "Ġeasy": 7627,
      "Ġgone": 7628,
      "ĠEagle": 7629,
      "aku": 7630,
      "Ġrecip": 7631,
      "Ġrecru": 7632,
      "ĠThird": 7633,
      "Ġappropri": 7634,
      "Ġpartner": 7635,
      "Ġmanuscript": 7636,
      "Ġregiment": 7637,
      "Ġforming": 7638,
      "Ġartistic": 7639,
      "Ġgrade": 7640,
      "Ġtrials": 7641,
      "Ġcondem": 7642,
      "Ġmeetings": 7643,
      "Ġrepresenting": 7644,
      "Ġterritories": 7645,
      "ĠResearch": 7646,
      "Ġunderstanding": 7647,
      "Ġadapted": 7648,
      "Ġunlike": 7649,
      "ĠDiego": 7650,
      "ĠAlbums": 7651,
      "Ġsubmarine": 7652,
      "ĠFamily": 7653,
      "Ġrestricted": 7654,
      "SP": 7655,
      "Å«": 7656,
      "Ġic": 7657,
      "Ġtenth": 7658,
      "Ġphen": 7659,
      "ĠTs": 7660,
      "ĠTel": 7661,
      "ĠTun": 7662,
      "ĠAM": 7663,
      "ĠCur": 7664,
      "ĠCab": 7665,
      "Ġwasn": 7666,
      "ĠMes": 7667,
      "ĠMant": 7668,
      "urd": 7669,
      "ira": 7670,
      "ĠPirates": 7671,
      "rage": 7672,
      "ĠFree": 7673,
      "istan": 7674,
      "antastic": 7675,
      "Ġclimate": 7676,
      "ĠHearts": 7677,
      "Ġaged": 7678,
      "Ġacids": 7679,
      "Ġsubst": 7680,
      "Ġimpossible": 7681,
      "Ġdesignation": 7682,
      "Ġsigning": 7683,
      "Ġmodified": 7684,
      "Ġwilling": 7685,
      "Ġexplains": 7686,
      "Ġcrews": 7687,
      "ĠPalace": 7688,
      "ĠMetal": 7689,
      "Ġrif": 7690,
      "Ġscientists": 7691,
      "Ġthousand": 7692,
      "avery": 7693,
      "Ġrescue": 7694,
      "Ġexecuted": 7695,
      "iblical": 7696,
      "Ġatmosphere": 7697,
      "ĠGrammy": 7698,
      "ĠNorwegian": 7699,
      "Be": 7700,
      "VN": 7701,
      "Ġsalv": 7702,
      "anium": 7703,
      "anasi": 7704,
      "Ġinher": 7705,
      "Ġpuzz": 7706,
      "ĠAD": 7707,
      "Ġlake": 7708,
      "ĠCas": 7709,
      "ĠFront": 7710,
      "ĠGA": 7711,
      "ĠLib": 7712,
      "ĠLÃ¼": 7713,
      "Ġdeleg": 7714,
      "ateur": 7715,
      "apse": 7716,
      "Ġaftern": 7717,
      "Ġafterwards": 7718,
      "ulture": 7719,
      "Ġconsol": 7720,
      "plete": 7721,
      "Ġcovers": 7722,
      "Ġmyst": 7723,
      "arnia": 7724,
      "Ġarriving": 7725,
      "Ġdestroyers": 7726,
      "ĠMorrison": 7727,
      "Ġmeasures": 7728,
      "Ġphotograph": 7729,
      "Ġdisplayed": 7730,
      "Ġdistinctive": 7731,
      "Ġelectronic": 7732,
      "Ġobservations": 7733,
      "ĠPitts": 7734,
      "ĠOhio": 7735,
      "Ġstyles": 7736,
      "bell": 7737,
      "where": 7738,
      "yard": 7739,
      "ĠÅ": 7740,
      "Ġtiss": 7741,
      "inally": 7742,
      "atically": 7743,
      "Ġinaug": 7744,
      "Ġdies": 7745,
      "ĠTales": 7746,
      "ĠBou": 7747,
      "ĠBishop": 7748,
      "ĠEichmann": 7749,
      "Ġdeemed": 7750,
      "udes": 7751,
      "sea": 7752,
      "Ġlem": 7753,
      "Ġnotably": 7754,
      "Ġdisag": 7755,
      "rows": 7756,
      "Ġcarbon": 7757,
      "Ġoperate": 7758,
      "iveness": 7759,
      "Ġformerly": 7760,
      "Ġfootage": 7761,
      "Ġdefeating": 7762,
      "Ġflags": 7763,
      "atinum": 7764,
      "Ã¶lders": 7765,
      "ĠEva": 7766,
      "ĠBCE": 7767,
      "Ġinvestigation": 7768,
      "ĠTerrit": 7769,
      "Ġessential": 7770,
      "ĠMississipp": 7771,
      "host": 7772,
      "ËĪ": 7773,
      "Ġsunk": 7774,
      "Ġwrest": 7775,
      "eswick": 7776,
      "Ġindu": 7777,
      "asm": 7778,
      "ĠCre": 7779,
      "ache": 7780,
      "ĠMaster": 7781,
      "Ġbearing": 7782,
      "una": 7783,
      "ĠRel": 7784,
      "osph": 7785,
      "ĠLisa": 7786,
      "ĠKhan": 7787,
      "Ġcontext": 7788,
      "ĠVice": 7789,
      "ogad": 7790,
      "Ġrecur": 7791,
      "Ġfeather": 7792,
      "Ġthereafter": 7793,
      "Ġdiscip": 7794,
      "etsch": 7795,
      "Ġcompetitions": 7796,
      "Ġsuperv": 7797,
      "ĠOrgan": 7798,
      "ĠSwiss": 7799,
      "Ġstrip": 7800,
      "Ġcruisers": 7801,
      "ĠRussia": 7802,
      "ĠPrix": 7803,
      "ĠBrun": 7804,
      "ĠFrancis": 7805,
      "Ġweapon": 7806,
      "ĠDemocratic": 7807,
      "ĠAttorney": 7808,
      "ĠAriz": 7809,
      "Ġrebuilt": 7810,
      "ĠIndustry": 7811,
      "Ġneighborhood": 7812,
      "ĠMeyerbeer": 7813,
      "ĠNetherlands": 7814,
      "Ġdiplom": 7815,
      "eared": 7816,
      "rator": 7817,
      "erves": 7818,
      "Ġwet": 7819,
      "Ġwear": 7820,
      "ito": 7821,
      "Ġet": 7822,
      "ĠChen": 7823,
      "ĠMit": 7824,
      "lyn": 7825,
      "ĠEs": 7826,
      "Ġdeities": 7827,
      "artney": 7828,
      "ĠKelly": 7829,
      "wealth": 7830,
      "ĠMarg": 7831,
      "ternal": 7832,
      "Ġsurgery": 7833,
      "Ġcooper": 7834,
      "ĠSha": 7835,
      "Ġbelt": 7836,
      "Ġsimultane": 7837,
      "Ġlanded": 7838,
      "inkel": 7839,
      "Ġslavery": 7840,
      "Ġcovering": 7841,
      "Ġbasin": 7842,
      "ĠSwift": 7843,
      "ĠPerÃ³n": 7844,
      "Ġsteam": 7845,
      "Ġdiagn": 7846,
      "ĠBuff": 7847,
      "Ġsuggesting": 7848,
      "Ġencounter": 7849,
      "ĠHugh": 7850,
      "ĠMemorial": 7851,
      "Ġdocumentary": 7852,
      "Ġdelayed": 7853,
      "ĠRobertson": 7854,
      "Ġvideos": 7855,
      "ĠMississippi": 7856,
      "hite": 7857,
      "jo": 7858,
      "uable": 7859,
      "water": 7860,
      "Ġtests": 7861,
      "Ġwants": 7862,
      "Ġow": 7863,
      "orer": 7864,
      "Ġflew": 7865,
      "Ġpron": 7866,
      "icide": 7867,
      "ĠABC": 7868,
      "Ġgets": 7869,
      "otype": 7870,
      "ĠRat": 7871,
      "ĠWic": 7872,
      "Ġanth": 7873,
      "ĠGil": 7874,
      "ĠGib": 7875,
      "ĠNS": 7876,
      "estone": 7877,
      "Ġvul": 7878,
      "Ġsure": 7879,
      "Ġkakapo": 7880,
      "Ġincom": 7881,
      "outon": 7882,
      "ĠYosh": 7883,
      "inder": 7884,
      "Ġtrained": 7885,
      "Ġminimum": 7886,
      "ĠCanal": 7887,
      "Ġeveryone": 7888,
      "Ġamongst": 7889,
      "aulb": 7890,
      "Ġinfluences": 7891,
      "Ġannounce": 7892,
      "Ġdivisions": 7893,
      "Ġexcell": 7894,
      "Ġmeasured": 7895,
      "Ġarchaeological": 7896,
      "Ġxenon": 7897,
      "Ġdeployed": 7898,
      "Ġjunior": 7899,
      "Ġcircumstances": 7900,
      "Ġbenzodiazepines": 7901,
      "ĠArizona": 7902,
      "fted": 7903,
      "nce": 7904,
      "yo": 7905,
      "Ġille": 7906,
      "Ġtight": 7907,
      "Ġsisters": 7908,
      "itia": 7909,
      "ĠCook": 7910,
      "ĠBright": 7911,
      "imeter": 7912,
      "oto": 7913,
      "uty": 7914,
      "uther": 7915,
      "cho": 7916,
      "rapped": 7917,
      "ĠWeb": 7918,
      "Ġplum": 7919,
      "weet": 7920,
      "ĠUnlike": 7921,
      "Ġentertain": 7922,
      "Ġrepair": 7923,
      "Ġconcurrent": 7924,
      "Ġfinals": 7925,
      "Ġbattalions": 7926,
      "apped": 7927,
      "ĠHarry": 7928,
      "sequently": 7929,
      "Ġliked": 7930,
      "ĠMcCartney": 7931,
      "Ġremoval": 7932,
      "Ġthinking": 7933,
      "ĠPalest": 7934,
      "Ġcoinc": 7935,
      "Ġdominant": 7936,
      "ĠBonnet": 7937,
      "Ġranges": 7938,
      "Ġspecimen": 7939,
      "ĠJacob": 7940,
      "ĠGeorgia": 7941,
      "ĠNielsen": 7942,
      "aulbetsch": 7943,
      "PC": 7944,
      "Ġcars": 7945,
      "icians": 7946,
      "Ġho": 7947,
      "ĠSab": 7948,
      "ĠCirc": 7949,
      "ĠBh": 7950,
      "ĠHere": 7951,
      "ĠDean": 7952,
      "ĠFiles": 7953,
      "ĠNik": 7954,
      "Ġplain": 7955,
      "Ġshop": 7956,
      "enses": 7957,
      "Ġconsc": 7958,
      "Ġmonument": 7959,
      "ĠSpace": 7960,
      "azing": 7961,
      "Ġconstant": 7962,
      "ĠIsab": 7963,
      "Ġerr": 7964,
      "ĠStef": 7965,
      "forced": 7966,
      "Ġcircuit": 7967,
      "Ġprofessor": 7968,
      "Ġrepresentative": 7969,
      "Ġreveals": 7970,
      "Ġterritorial": 7971,
      "Ġapartment": 7972,
      "Ġviolent": 7973,
      "Ġwithdrew": 7974,
      "Ġreactions": 7975,
      "ĠPatrick": 7976,
      "Ġvehicle": 7977,
      "Ġceremon": 7978,
      "chell": 7979,
      "Ġfixed": 7980,
      "ĠUlt": 7981,
      "Ġritual": 7982,
      "Ġindigenous": 7983,
      "Ġinhabitants": 7984,
      "Ġafternoon": 7985,
      "ogadish": 7986,
      "gets": 7987,
      "nal": 7988,
      "uv": 7989,
      "atops": 7990,
      "Ġcode": 7991,
      "ĠTony": 7992,
      "ĠAud": 7993,
      "Ġlat": 7994,
      "olt": 7995,
      "Ġconsole": 7996,
      "ĠLanc": 7997,
      "ĠEp": 7998,
      "Ġcomments": 7999,
      "Ġvan": 8000,
      "ppers": 8001,
      "Ġchrom": 8002,
      "oyd": 8003,
      "othy": 8004,
      "Ġenters": 8005,
      "azines": 8006,
      "Ġmodels": 8007,
      "ĠGuy": 8008,
      "Ġwindow": 8009,
      "spec": 8010,
      "Ġsituated": 8011,
      "ĠStein": 8012,
      "Ġinformed": 8013,
      "Ġsector": 8014,
      "Ġholid": 8015,
      "Ġapplication": 8016,
      "ĠYugoslavia": 8017,
      "ĠArgentina": 8018,
      "ogadishu": 8019,
      "OT": 8020,
      "TW": 8021,
      "eda": 8022,
      "edkare": 8023,
      "Ġfighter": 8024,
      "ĠSon": 8025,
      "ĠCall": 8026,
      "ĠMaur": 8027,
      "ĠBrand": 8028,
      "ĠIra": 8029,
      "ĠThen": 8030,
      "ĠEdu": 8031,
      "Ġramp": 8032,
      "Ġorb": 8033,
      "pty": 8034,
      "Ġresumed": 8035,
      "Ġsheep": 8036,
      "Ġknots": 8037,
      "ĠSeven": 8038,
      "Ġregime": 8039,
      "ramid": 8040,
      "Ġsmooth": 8041,
      "Ġprevented": 8042,
      "ĠClay": 8043,
      "Ġpromised": 8044,
      "ĠForces": 8045,
      "Ġelections": 8046,
      "Ġmarks": 8047,
      "ĠProf": 8048,
      "Ġperiods": 8049,
      "Ġelder": 8050,
      "Ġarrive": 8051,
      "ĠCooper": 8052,
      "Ġargues": 8053,
      "Ġmulti": 8054,
      "Ġlanguages": 8055,
      "Ġdegrees": 8056,
      "Ġchoose": 8057,
      "Ġcollaboration": 8058,
      "Ġanswer": 8059,
      "Ġdistinguished": 8060,
      "ĠCrazy": 8061,
      "Ġoverseas": 8062,
      "equ": 8063,
      "hire": 8064,
      "oz": 8065,
      "zel": 8066,
      "inian": 8067,
      "Ġworship": 8068,
      "Ġcous": 8069,
      "ester": 8070,
      "Ġpir": 8071,
      "Ġlies": 8072,
      "ellect": 8073,
      "Ġhearing": 8074,
      "Ġaltar": 8075,
      "ĠGate": 8076,
      "aki": 8077,
      "ardo": 8078,
      "Ġkings": 8079,
      "oster": 8080,
      "ishment": 8081,
      "Ġabilities": 8082,
      "Ġpartn": 8083,
      "Ġfeels": 8084,
      "Ġremove": 8085,
      "Ġreleg": 8086,
      "Ġmonarch": 8087,
      "anking": 8088,
      "Ġseverely": 8089,
      "ĠShel": 8090,
      "Ġannually": 8091,
      "Ġchildhood": 8092,
      "Ġstorms": 8093,
      "encing": 8094,
      "Ġcoverage": 8095,
      "Ġsentence": 8096,
      "Ġreportedly": 8097,
      "ĠDavies": 8098,
      "Ġpitcher": 8099,
      "Ġcivilian": 8100,
      "Ġtribute": 8101,
      "Ġburns": 8102,
      "ĠHelms": 8103,
      "Ġduo": 8104,
      "Ġboundary": 8105,
      "Ġtouchdowns": 8106,
      "Ġprisoners": 8107,
      "Ġinstitution": 8108,
      "daen": 8109,
      "cules": 8110,
      "Ġuranium": 8111,
      "Ġdisplays": 8112,
      "Ġdelivery": 8113,
      "ĠCommonwealth": 8114,
      "ĠAlfred": 8115,
      "bes": 8116,
      "cribed": 8117,
      "Ġori": 8118,
      "Ġcod": 8119,
      "Ġdangerous": 8120,
      "entle": 8121,
      "ĠCategory": 8122,
      "Ġforcing": 8123,
      "chang": 8124,
      "ĠNeb": 8125,
      "Ġrates": 8126,
      "ĠKu": 8127,
      "ĠKit": 8128,
      "ĠKil": 8129,
      "Ġnotice": 8130,
      "Ġroots": 8131,
      "Ġcommit": 8132,
      "Ġprime": 8133,
      "Ġassisted": 8134,
      "Ġexpression": 8135,
      "Ġcopper": 8136,
      "Ġdesigner": 8137,
      "Ġowners": 8138,
      "Ġmusician": 8139,
      "Ġmagazines": 8140,
      "Ġfuneral": 8141,
      "Ġfunctions": 8142,
      "Ġsquad": 8143,
      "Ġaudiences": 8144,
      "Ġarmored": 8145,
      "rapers": 8146,
      "Ġvillages": 8147,
      "Ġdevast": 8148,
      "Ġengineering": 8149,
      "ĠFederal": 8150,
      "Ġridge": 8151,
      "Ġdrums": 8152,
      "Ġstruggle": 8153,
      "ĠNevertheless": 8154,
      "Ġastronom": 8155,
      "ĠPeninsula": 8156,
      "Ġsubstantial": 8157,
      "Ġrestaurant": 8158,
      "Ġdemolished": 8159,
      "Ġfreedom": 8160,
      "daenathus": 8161,
      "AC": 8162,
      "ban": 8163,
      "lie": 8164,
      "lings": 8165,
      "ni": 8166,
      "Ġtor": 8167,
      "Ġfaces": 8168,
      "Ġfishing": 8169,
      "Ġbones": 8170,
      "Ġpounds": 8171,
      "ĠMouton": 8172,
      "otton": 8173,
      "Ġstreak": 8174,
      "ĠPict": 8175,
      "ĠLab": 8176,
      "ĠInit": 8177,
      "Ġspan": 8178,
      "Ġspend": 8179,
      "Ġarts": 8180,
      "oking": 8181,
      "Ġclim": 8182,
      "Ġrooms": 8183,
      "ultan": 8184,
      "inding": 8185,
      "Ġdecides": 8186,
      "Ġcanc": 8187,
      "Ġsynd": 8188,
      "Ġimprison": 8189,
      "Ġcrest": 8190,
      "Ġwarning": 8191,
      "Ġairline": 8192,
      "Ġprompt": 8193,
      "lington": 8194,
      "Ġcontrols": 8195,
      "Ġengines": 8196,
      "Ġwindows": 8197,
      "Ġswim": 8198,
      "Ġranking": 8199,
      "Ġcreative": 8200,
      "Ġargument": 8201,
      "racts": 8202,
      "Ġpredomin": 8203,
      "ĠQuebec": 8204,
      "Ã¶n": 8205,
      "Ġsafe": 8206,
      "Ġprecip": 8207,
      "Ġschedule": 8208,
      "ĠArchae": 8209,
      "ĠGrove": 8210,
      "ĠGuardian": 8211,
      "ropolitan": 8212,
      "ĠYanke": 8213,
      "tzow": 8214,
      "Ġenthus": 8215,
      "ĠFrederick": 8216,
      "cru": 8217,
      "kes": 8218,
      "nik": 8219,
      "Ã§": 8220,
      "reck": 8221,
      "Ġmoral": 8222,
      "entional": 8223,
      "ĠSuch": 8224,
      "ĠSAF": 8225,
      "ĠMV": 8226,
      "ĠBure": 8227,
      "ĠRangers": 8228,
      "ĠFord": 8229,
      "Ġanaly": 8230,
      "avel": 8231,
      "ĠEric": 8232,
      "Ġvast": 8233,
      "Ġrivers": 8234,
      "Ġracing": 8235,
      "opl": 8236,
      "Ġexter": 8237,
      "ĠStri": 8238,
      "Ġpermitted": 8239,
      "Ġupd": 8240,
      "Ġteach": 8241,
      "Ġearning": 8242,
      "Ġflash": 8243,
      "Ġsubmitted": 8244,
      "Ġdepending": 8245,
      "Ġdepicts": 8246,
      "Ġwarn": 8247,
      "Ġuseful": 8248,
      "Ġnorthward": 8249,
      "Ġadvis": 8250,
      "onto": 8251,
      "Ġreaders": 8252,
      "Ġdivor": 8253,
      "ĠSimpson": 8254,
      "Ġhonour": 8255,
      "Ġengineers": 8256,
      "Ġhousing": 8257,
      "Ġdrove": 8258,
      "ĠHoly": 8259,
      "Ġhappened": 8260,
      "Ġloan": 8261,
      "Ġabandon": 8262,
      "ĠDelaware": 8263,
      "Ġdemonstrated": 8264,
      "Ġenvironmental": 8265,
      "Ġadvertising": 8266,
      "Ġdynam": 8267,
      "Ġnegotiations": 8268,
      "Ġdialogue": 8269,
      "ĠPrincess": 8270,
      "Ġcrops": 8271,
      "birds": 8272,
      "ĠMalaysia": 8273,
      "ĠOmaha": 8274,
      "Le": 8275,
      "onso": 8276,
      "Ġbon": 8277,
      "Ġbrig": 8278,
      "Ġtot": 8279,
      "Ġdiver": 8280,
      "ĠTechn": 8281,
      "Ġlock": 8282,
      "Ġnom": 8283,
      "ĠCurt": 8284,
      "urst": 8285,
      "Ġgrown": 8286,
      "ĠBush": 8287,
      "ĠRain": 8288,
      "Ġalien": 8289,
      "aints": 8290,
      "Ġshipping": 8291,
      "acked": 8292,
      "Ġintellect": 8293,
      "Ġagents": 8294,
      "ĠAnc": 8295,
      "Ġrelie": 8296,
      "atherine": 8297,
      "Ġfounder": 8298,
      "ologies": 8299,
      "Ġdepos": 8300,
      "Ġobst": 8301,
      "Ġextent": 8302,
      "ĠMaya": 8303,
      "Ġski": 8304,
      "Ġpropag": 8305,
      "ĠAtlanta": 8306,
      "Ġparticipate": 8307,
      "Ġemployees": 8308,
      "Ġinnov": 8309,
      "ĠTorres": 8310,
      "bourne": 8311,
      "Ġinstitutions": 8312,
      "ĠCardiff": 8313,
      "ĠEngineer": 8314,
      "Ġnucleus": 8315,
      "Ġprice": 8316,
      "ĠStanley": 8317,
      "ĠTamil": 8318,
      "ĠIndependent": 8319,
      "ĠNHL": 8320,
      "ĠFriends": 8321,
      "ĠStroheim": 8322,
      "ĠIsaac": 8323,
      "inkelstein": 8324,
      "ĠSAFE": 8325,
      "hall": 8326,
      "wald": 8327,
      "Ġels": 8328,
      "Ġtelling": 8329,
      "erk": 8330,
      "orage": 8331,
      "Ġcraft": 8332,
      "Ġciting": 8333,
      "Ġbridges": 8334,
      "Ġhat": 8335,
      "Ġlob": 8336,
      "acre": 8337,
      "ĠRey": 8338,
      "ĠWard": 8339,
      "Ġanime": 8340,
      "Ġvice": 8341,
      "Ġorn": 8342,
      "Ġshorter": 8343,
      "oken": 8344,
      "Ġusual": 8345,
      "weight": 8346,
      "Ġcommem": 8347,
      "Ġbuy": 8348,
      "tenance": 8349,
      "Ġminimal": 8350,
      "ĠConc": 8351,
      "Ġguarant": 8352,
      "Ġaffil": 8353,
      "ĠPeriyar": 8354,
      "ĠMcCall": 8355,
      "Ġfrequency": 8356,
      "ĠSenator": 8357,
      "Ġdisappoin": 8358,
      "celand": 8359,
      "Ġcomposer": 8360,
      "Ġsubsid": 8361,
      "Ġsurvivors": 8362,
      "Ġelsewhere": 8363,
      "bro": 8364,
      "iac": 8365,
      "wall": 8366,
      "Ġturb": 8367,
      "inz": 8368,
      "Ġcateg": 8369,
      "isy": 8370,
      "ilty": 8371,
      "sters": 8372,
      "ĠMain": 8373,
      "ĠMÃ¶lders": 8374,
      "ĠMaulbetsch": 8375,
      "Ġgro": 8376,
      "ĠBad": 8377,
      "ĠHind": 8378,
      "ĠHaven": 8379,
      "ĠPul": 8380,
      "emeter": 8381,
      "ĠDig": 8382,
      "ĠWy": 8383,
      "ĠGun": 8384,
      "ĠGraham": 8385,
      "ĠLate": 8386,
      "ĠJosh": 8387,
      "ista": 8388,
      "resent": 8389,
      "artik": 8390,
      "ĠKeswick": 8391,
      "Ġcompris": 8392,
      "ĠArk": 8393,
      "ificial": 8394,
      "ĠIndians": 8395,
      "Ġsimpl": 8396,
      "Ġadvice": 8397,
      "apping": 8398,
      "Ġapproval": 8399,
      "iddles": 8400,
      "Ġtraded": 8401,
      "Ġdeliber": 8402,
      "Ġfriendly": 8403,
      "Ġfactors": 8404,
      "Ġstationed": 8405,
      "Ġcollapse": 8406,
      "Ġtrend": 8407,
      "Ġpractices": 8408,
      "Ġbombard": 8409,
      "Ġdramatic": 8410,
      "ĠJews": 8411,
      "ĠPrior": 8412,
      "Ġwalking": 8413,
      "ĠGreenland": 8414,
      "lewhite": 8415,
      "Ġdogs": 8416,
      "Ġgarrison": 8417,
      "Ġeliminated": 8418,
      "ĠNCAA": 8419,
      "ĠParalympic": 8420,
      "Ġculm": 8421,
      "Ġmunicipal": 8422,
      "Ġemergency": 8423,
      "Ġupgraded": 8424,
      "Ġperspective": 8425,
      "bles": 8426,
      "corn": 8427,
      "vet": 8428,
      "vest": 8429,
      "yll": 8430,
      "Ãº": 8431,
      "Ġton": 8432,
      "Ġbot": 8433,
      "iche": 8434,
      "oust": 8435,
      "ĠTig": 8436,
      "ĠSS": 8437,
      "Ġnations": 8438,
      "ĠCelt": 8439,
      "ĠMall": 8440,
      "uts": 8441,
      "ĠPle": 8442,
      "ĠPow": 8443,
      "ĠNOK": 8444,
      "Ġprohib": 8445,
      "ĠOsc": 8446,
      "ĠOdaenathus": 8447,
      "Ġreserv": 8448,
      "Ġassembly": 8449,
      "Ġpolar": 8450,
      "ĠColl": 8451,
      "Ġautobi": 8452,
      "Ġexplo": 8453,
      "Ġtrading": 8454,
      "Ġanticip": 8455,
      "ĠDuMont": 8456,
      "Ġdifficulties": 8457,
      "ĠHolland": 8458,
      "Ġsubjects": 8459,
      "Ġestablishing": 8460,
      "Ġboys": 8461,
      "ĠDenmark": 8462,
      "ĠModern": 8463,
      "ĠRoger": 8464,
      "Ġremnants": 8465,
      "burn": 8466,
      "din": 8467,
      "Ġau": 8468,
      "Ġcrisis": 8469,
      "Ġfox": 8470,
      "eloc": 8471,
      "osm": 8472,
      "ĠGill": 8473,
      "ĠGary": 8474,
      "ĠNansen": 8475,
      "Ġspending": 8476,
      "Ġscar": 8477,
      "Ġtex": 8478,
      "away": 8479,
      "ĠOntar": 8480,
      "Ġassists": 8481,
      "ĠComb": 8482,
      "Ġdirectors": 8483,
      "prise": 8484,
      "ĠConstitution": 8485,
      "Ġsurvive": 8486,
      "ĠNeigh": 8487,
      "Ġanimation": 8488,
      "Ġarmament": 8489,
      "Ġillness": 8490,
      "Ġpoorly": 8491,
      "Ġuncertain": 8492,
      "ĠSocial": 8493,
      "Ġgirls": 8494,
      "Ġgrandfather": 8495,
      "ĠMountains": 8496,
      "ĠVaranasi": 8497,
      "Ġdoubt": 8498,
      "Ġelevation": 8499,
      "Ġrhythm": 8500,
      "ĠKorean": 8501,
      "Ġneutral": 8502,
      "Ġfungus": 8503,
      "ĠWWE": 8504,
      "ĠClemson": 8505,
      "Ġbehaviour": 8506,
      "ĠOntario": 8507,
      "AT": 8508,
      "face": 8509,
      "zant": 8510,
      "Ġbay": 8511,
      "Ġbare": 8512,
      "Ġmir": 8513,
      "ĠTok": 8514,
      "ĠSarnia": 8515,
      "ĠCz": 8516,
      "Ġstable": 8517,
      "Ġwhilst": 8518,
      "ĠDave": 8519,
      "ĠDanny": 8520,
      "Ġconj": 8521,
      "Ġalco": 8522,
      "ĠNad": 8523,
      "Ġray": 8524,
      "Ġexit": 8525,
      "ĠKang": 8526,
      "ĠVett": 8527,
      "Ġcompounds": 8528,
      "Ġusers": 8529,
      "Ġapprec": 8530,
      "Ġju": 8531,
      "ensions": 8532,
      "Ġdefences": 8533,
      "Ġcoat": 8534,
      "ĠAsian": 8535,
      "Ġminer": 8536,
      "Ġcompleting": 8537,
      "Ã©t": 8538,
      "Ġreflected": 8539,
      "Ġsky": 8540,
      "Ġbiographer": 8541,
      "Ġpairs": 8542,
      "Ġtesting": 8543,
      "Ġburned": 8544,
      "Ġadopt": 8545,
      "Ġsatisf": 8546,
      "Ġprepare": 8547,
      "onnaissance": 8548,
      "Ġranging": 8549,
      "Ġturrets": 8550,
      "Ġsucceed": 8551,
      "Ġseeking": 8552,
      "Ġpremiere": 8553,
      "ĠDjedkare": 8554,
      "ĠTribune": 8555,
      "ĠDragon": 8556,
      "Ġdensity": 8557,
      "ĠLÃ¼tzow": 8558,
      "ĠMitchell": 8559,
      "fts": 8560,
      "wan": 8561,
      "yson": 8562,
      "itic": 8563,
      "Ġinland": 8564,
      "alm": 8565,
      "ĠSes": 8566,
      "ĠSultan": 8567,
      "ĠAy": 8568,
      "ĠCart": 8569,
      "ĠMand": 8570,
      "ĠMogadishu": 8571,
      "olen": 8572,
      "olve": 8573,
      "ĠBenn": 8574,
      "ĠHills": 8575,
      "Ġstrict": 8576,
      "ĠDram": 8577,
      "ulating": 8578,
      "ĠNon": 8579,
      "iston": 8580,
      "Ġseats": 8581,
      "quake": 8582,
      "order": 8583,
      "overs": 8584,
      "Ġsubt": 8585,
      "Ġdefending": 8586,
      "Ġdiff": 8587,
      "Ġmayor": 8588,
      "appy": 8589,
      "Ġdemands": 8590,
      "Ġskull": 8591,
      "Ġsimilarly": 8592,
      "ĠByzant": 8593,
      "Ġcommunication": 8594,
      "Ġredsh": 8595,
      "Ġswitch": 8596,
      "Ġhitting": 8597,
      "Ġfacility": 8598,
      "Ġrounds": 8599,
      "Ġfifteen": 8600,
      "Ġclearly": 8601,
      "Ġindicating": 8602,
      "ĠJimmy": 8603,
      "Ġsuspended": 8604,
      "Ġconversion": 8605,
      "ĠPrize": 8606,
      "ĠToronto": 8607,
      "Ġjudge": 8608,
      "ĠLouisiana": 8609,
      "Ġinterpre": 8610,
      "Ġpatterns": 8611,
      "ĠFleury": 8612,
      "Ġdynasty": 8613,
      "Ġtanks": 8614,
      "Ġansw": 8615,
      "Ġbulk": 8616,
      "Ġbalance": 8617,
      "Ġmoderate": 8618,
      "ĠPhilippines": 8619,
      "ĠPittsburgh": 8620,
      "fire": 8621,
      "je": 8622,
      "piece": 8623,
      "icy": 8624,
      "Ġmand": 8625,
      "Ġhidden": 8626,
      "Ġrect": 8627,
      "ĠTon": 8628,
      "elle": 8629,
      "elines": 8630,
      "omot": 8631,
      "ece": 8632,
      "Ġgates": 8633,
      "ĠBab": 8634,
      "imented": 8635,
      "ivated": 8636,
      "ĠIan": 8637,
      "Ġbeats": 8638,
      "ĠPic": 8639,
      "child": 8640,
      "ĠFish": 8641,
      "Ġshares": 8642,
      "ĠStock": 8643,
      "ĠVII": 8644,
      "Ġrot": 8645,
      "Ġpermission": 8646,
      "Ġimperial": 8647,
      "ĠMarines": 8648,
      "Ġretail": 8649,
      "Ġreleases": 8650,
      "Ġamino": 8651,
      "Ġmainstream": 8652,
      "Ġpole": 8653,
      "Ġprompted": 8654,
      "Ġconflic": 8655,
      "Ġparas": 8656,
      "Ġparish": 8657,
      "Ġopponent": 8658,
      "ĠStevens": 8659,
      "ĠKeats": 8660,
      "Ġbombers": 8661,
      "Ġkeeping": 8662,
      "Ġintensified": 8663,
      "ĠBoys": 8664,
      "Ġfarmers": 8665,
      "ĠRoom": 8666,
      "Ġbirthday": 8667,
      "Ġcleared": 8668,
      "Ġaggressive": 8669,
      "Ġmolec": 8670,
      "ĠSwedish": 8671,
      "Ġmountains": 8672,
      "Ġclothing": 8673,
      "Ġphenomen": 8674,
      "emetery": 8675,
      "aud": 8676,
      "ÅĤ": 8677,
      "itus": 8678,
      "Ġfrig": 8679,
      "asters": 8680,
      "Ġhockey": 8681,
      "ĠTak": 8682,
      "ĠSoon": 8683,
      "Ġlists": 8684,
      "Ġnat": 8685,
      "ĠChel": 8686,
      "ĠMounted": 8687,
      "ĠBrist": 8688,
      "ĠBox": 8689,
      "ĠIceland": 8690,
      "ĠPear": 8691,
      "ĠRox": 8692,
      "ĠFat": 8693,
      "ĠFern": 8694,
      "Ġprove": 8695,
      "Ġwheel": 8696,
      "Ġdisaster": 8697,
      "Ġenzy": 8698,
      "Ġoutl": 8699,
      "active": 8700,
      "oyage": 8701,
      "Ġobv": 8702,
      "Ġconsidering": 8703,
      "espe": 8704,
      "Ġexplain": 8705,
      "Ġvisiting": 8706,
      "Ġexpert": 8707,
      "Ġdrain": 8708,
      "Ġbases": 8709,
      "Ġtempor": 8710,
      "ĠAbraham": 8711,
      "Ġfactor": 8712,
      "Ġlooks": 8713,
      "Ġsumm": 8714,
      "ĠChristianity": 8715,
      "Ġtraveling": 8716,
      "Ġclosing": 8717,
      "Ġoccupation": 8718,
      "ĠRobinson": 8719,
      "ĠLiberal": 8720,
      "Ġstruggled": 8721,
      "rophy": 8722,
      "Ġremarked": 8723,
      "ĠNazi": 8724,
      "Ġcadmium": 8725,
      "Ġprosperity": 8726,
      "species": 8727,
      "CC": 8728,
      "gra": 8729,
      "pan": 8730,
      "uits": 8731,
      "orph": 8732,
      "Ġfram": 8733,
      "Ġdolph": 8734,
      "ĠSN": 8735,
      "acle": 8736,
      "Ġforth": 8737,
      "ĠRal": 8738,
      "ĠNathan": 8739,
      "ĠNanking": 8740,
      "Ġcomfort": 8741,
      "Ġexha": 8742,
      "Ġspaces": 8743,
      "Ġuniform": 8744,
      "Ġovers": 8745,
      "ensively": 8746,
      "Ġallies": 8747,
      "ieties": 8748,
      "ĠAustria": 8749,
      "ĠUSS": 8750,
      "ĠChristopher": 8751,
      "Ġorganisms": 8752,
      "Ġjoining": 8753,
      "ĠMonster": 8754,
      "ĠPerry": 8755,
      "Ġyoungest": 8756,
      "ĠPolice": 8757,
      "Ġasking": 8758,
      "Ġrebell": 8759,
      "Ġresearchers": 8760,
      "Ġtruck": 8761,
      "Ġpercentage": 8762,
      "Ġuncle": 8763,
      "Ġcelebrated": 8764,
      "Ġpowered": 8765,
      "Ġlayer": 8766,
      "Ġbadly": 8767,
      "Ġwaiting": 8768,
      "Ġshells": 8769,
      "Ġsuitable": 8770,
      "ĠBurns": 8771,
      "Ġpulled": 8772,
      "Ġbenefit": 8773,
      "Ġvoiced": 8774,
      "Ġexclusive": 8775,
      "Ġaerial": 8776,
      "Ġconcerts": 8777,
      "ĠBeatles": 8778,
      "ĠCeres": 8779,
      "Ġpredecessor": 8780,
      "ĠClarke": 8781,
      "ĠBureau": 8782,
      "boy": 8783,
      "min": 8784,
      "ois": 8785,
      "ti": 8786,
      "inction": 8787,
      "Ġwore": 8788,
      "Ġbrick": 8789,
      "Ġbanned": 8790,
      "icul": 8791,
      "Ġmouse": 8792,
      "Ġhorn": 8793,
      "Ġhull": 8794,
      "ĠAra": 8795,
      "ami": 8796,
      "Ġforty": 8797,
      "otten": 8798,
      "ationally": 8799,
      "ĠDisc": 8800,
      "ĠRick": 8801,
      "ĠLh": 8802,
      "Ġrig": 8803,
      "oples": 8804,
      "ĠKal": 8805,
      "Ġdesert": 8806,
      "Ġoffs": 8807,
      "ĠAli": 8808,
      "ĠAnna": 8809,
      "Ġretain": 8810,
      "Ġacted": 8811,
      "Ġsubspecies": 8812,
      "Ġtransit": 8813,
      "Ġguilty": 8814,
      "Ġconfront": 8815,
      "ĠDevelopment": 8816,
      "Ġhelping": 8817,
      "ĠHarris": 8818,
      "ĠMuslim": 8819,
      "Ġblacks": 8820,
      "Ġbattlecru": 8821,
      "ĠMorris": 8822,
      "ĠSlam": 8823,
      "Ġtransportation": 8824,
      "ĠVictorian": 8825,
      "Ġfavorable": 8826,
      "Ġadapt": 8827,
      "ĠBurke": 8828,
      "Ġpursue": 8829,
      "Ġdeparted": 8830,
      "Ġpreparation": 8831,
      "Ġexecution": 8832,
      "ĠâĤ¹": 8833,
      "ĠBuffalo": 8834,
      "ĠYankees": 8835,
      "ĠMVP": 8836,
      "espeare": 8837,
      "ko": 8838,
      "life": 8839,
      "night": 8840,
      "áĥ": 8841,
      "inations": 8842,
      "Ġcub": 8843,
      "Ġreaches": 8844,
      "ĠTar": 8845,
      "ĠSid": 8846,
      "ĠSweet": 8847,
      "ĠAmy": 8848,
      "Ġlieutenant": 8849,
      "ĠMother": 8850,
      "urance": 8851,
      "Ġstress": 8852,
      "Ġbears": 8853,
      "ĠPier": 8854,
      "ĠRio": 8855,
      "Ġaltered": 8856,
      "agu": 8857,
      "ĠEvent": 8858,
      "Ġexecut": 8859,
      "iang": 8860,
      "Ġcomponents": 8861,
      "angel": 8862,
      "Ġdecisions": 8863,
      "Ġcann": 8864,
      "Ġfollowers": 8865,
      "Ġmaintenance": 8866,
      "Ġobtain": 8867,
      "Ġslave": 8868,
      "exp": 8869,
      "ĠGuide": 8870,
      "Ġconvention": 8871,
      "ospel": 8872,
      "Ġreducing": 8873,
      "Ġimprovements": 8874,
      "Ġrenov": 8875,
      "ĠAgain": 8876,
      "Ġfallen": 8877,
      "This": 8878,
      "Ġfamiliar": 8879,
      "Ġninet": 8880,
      "Ġmagnetic": 8881,
      "ĠKorea": 8882,
      "Ġethnic": 8883,
      "Ġskyscrapers": 8884,
      "Ġhydrogen": 8885,
      "Ġdubbed": 8886,
      "ĠBranca": 8887,
      "Ġpartnership": 8888,
      "ĠBristol": 8889,
      "HO": 8890,
      "rass": 8891,
      "Ġ*": 8892,
      "itively": 8893,
      "isp": 8894,
      "Ġped": 8895,
      "Ġtomb": 8896,
      "ĠTed": 8897,
      "ĠSel": 8898,
      "ĠSalv": 8899,
      "etime": 8900,
      "ĠBible": 8901,
      "ĠDw": 8902,
      "Ġalive": 8903,
      "raper": 8904,
      "ĠFut": 8905,
      "ĠLost": 8906,
      "ĠJason": 8907,
      "Ġprosp": 8908,
      "Ġvow": 8909,
      "Ġsup": 8910,
      "Ġshield": 8911,
      "iph": 8912,
      "ellite": 8913,
      "ĠChampion": 8914,
      "ĠMarl": 8915,
      "Ġcharity": 8916,
      "onsin": 8917,
      "Ġamateur": 8918,
      "Ġexposure": 8919,
      "Ġartificial": 8920,
      "ggy": 8921,
      "Ġadvoc": 8922,
      "Ġprotests": 8923,
      "Ġrequires": 8924,
      "ĠFlight": 8925,
      "Ġstarring": 8926,
      "Ġtwin": 8927,
      "Ġprofile": 8928,
      "Ġpredators": 8929,
      "Ġmerely": 8930,
      "ĠIrat": 8931,
      "ĠEmmy": 8932,
      "ĠChampionships": 8933,
      "Ġmemor": 8934,
      "ĠApplewhite": 8935,
      "ĠOutstanding": 8936,
      "ĠFIA": 8937,
      "Ġmolecules": 8938,
      "uppet": 8939,
      "Ġfatal": 8940,
      "Ġparliamentary": 8941,
      "Ġdefinition": 8942,
      "ĠYeats": 8943,
      "ĠProtest": 8944,
      "ĠPedra": 8945,
      "Ġstriking": 8946,
      "Ġcollapsed": 8947,
      "ĠIraq": 8948,
      "Ġcommemor": 8949,
      "ĠVettel": 8950,
      "cation": 8951,
      "pez": 8952,
      "Ġaw": 8953,
      "Ġpace": 8954,
      "Ġpages": 8955,
      "Ġtoler": 8956,
      "Ġmamm": 8957,
      "ĠSony": 8958,
      "ĠHaving": 8959,
      "Ġstring": 8960,
      "ĠPope": 8961,
      "ĠPoint": 8962,
      "ĠWisc": 8963,
      "ĠFinkelstein": 8964,
      "odium": 8965,
      "Ġseized": 8966,
      "akot": 8967,
      "Ġplus": 8968,
      "Ġencl": 8969,
      "eredith": 8970,
      "Ġconservation": 8971,
      "Ġcenters": 8972,
      "Ġretro": 8973,
      "Ġsigns": 8974,
      "Ġsignal": 8975,
      "ĠIslam": 8976,
      "ĠClaire": 8977,
      "ĠMcN": 8978,
      "Ġbelieving": 8979,
      "shore": 8980,
      "Ġinitiated": 8981,
      "Ġconvection": 8982,
      "Ġlimits": 8983,
      "Ġoriginated": 8984,
      "Ġdivine": 8985,
      "ĠMadrid": 8986,
      "Ġceased": 8987,
      "ĠÃĹ": 8988,
      "ĠDepression": 8989,
      "Ġadministrative": 8990,
      "Ġfrust": 8991,
      "ĠGarden": 8992,
      "ĠChapel": 8993,
      "Ġshifted": 8994,
      "Ġunderwent": 8995,
      "ĠAntonio": 8996,
      "ĠShakespeare": 8997,
      "Ġoverwhel": 8998,
      "ĠBrighton": 8999,
      "Ġentertainment": 9000,
      "ĠOscar": 9001,
      "ĠWisconsin": 9002,
      "eing": 9003,
      "hr": 9004,
      "Ġsung": 9005,
      "Ġcavalry": 9006,
      "itable": 9007,
      "Ġfill": 9008,
      "Ġfles": 9009,
      "Ġbran": 9010,
      "Ġpm": 9011,
      "ĠAston": 9012,
      "Ġnet": 9013,
      "Ġnurs": 9014,
      "ĠMack": 9015,
      "ĠMiddles": 9016,
      "lyss": 9017,
      "othe": 9018,
      "ĠHamp": 9019,
      "ĠDick": 9020,
      "ĠRivers": 9021,
      "ĠRNA": 9022,
      "ĠFarm": 9023,
      "ĠGang": 9024,
      "ĠLast": 9025,
      "illiant": 9026,
      "Ġrice": 9027,
      "asts": 9028,
      "ĠVinc": 9029,
      "Ġcomprom": 9030,
      "ieu": 9031,
      "Ġreconnaissance": 9032,
      "achment": 9033,
      "Ġamounts": 9034,
      "Ġartwork": 9035,
      "Ġrestoration": 9036,
      "ĠAustralians": 9037,
      "Ġvictim": 9038,
      "ĠAbd": 9039,
      "ĠWithout": 9040,
      "urricanes": 9041,
      "Ġcircle": 9042,
      "ĠRecord": 9043,
      "ĠRepresent": 9044,
      "Ġdispers": 9045,
      "ĠDrum": 9046,
      "ĠPeters": 9047,
      "Ġrecommend": 9048,
      "Ġattraction": 9049,
      "Ġopportunities": 9050,
      "Ġexplosion": 9051,
      "Ġprinted": 9052,
      "ĠUtah": 9053,
      "ĠSimilarly": 9054,
      "Ġfeathers": 9055,
      "LI": 9056,
      "Some": 9057,
      "book": 9058,
      "pent": 9059,
      "Ġtheater": 9060,
      "Ġpion": 9061,
      "Ġrend": 9062,
      "Ġreun": 9063,
      "Ġthor": 9064,
      "Ġlip": 9065,
      "ĠMun": 9066,
      "urday": 9067,
      "Ġgust": 9068,
      "iders": 9069,
      "ĠPam": 9070,
      "unction": 9071,
      "ĠRest": 9072,
      "ĠWell": 9073,
      "ĠFall": 9074,
      "Ġanch": 9075,
      "ĠGray": 9076,
      "ĠNar": 9077,
      "ĠLind": 9078,
      "umin": 9079,
      "atever": 9080,
      "ectic": 9081,
      "Ġkit": 9082,
      "uster": 9083,
      "assador": 9084,
      "Ġabuse": 9085,
      "Ġperceived": 9086,
      "Ġovert": 9087,
      "veland": 9088,
      "Ġmeat": 9089,
      "Ġvertical": 9090,
      "ĠJohnny": 9091,
      "Ġdiscussion": 9092,
      "Ġconsiders": 9093,
      "Ġcounties": 9094,
      "Ġweekly": 9095,
      "Ġmargin": 9096,
      "Ġtriple": 9097,
      "Ġrealized": 9098,
      "Ġcrimes": 9099,
      "ĠAbu": 9100,
      "ĠCentre": 9101,
      "ĠTrust": 9102,
      "Ġballad": 9103,
      "Ġfifty": 9104,
      "Ġrebels": 9105,
      "Ġmemorial": 9106,
      "Ġproductions": 9107,
      "Ġunlik": 9108,
      "ĠRailroad": 9109,
      "ĠAdminist": 9110,
      "ĠArmoured": 9111,
      "Ġaggreg": 9112,
      "ĠRhodes": 9113,
      "Ġthrowing": 9114,
      "Ġcontestant": 9115,
      "Ġsteps": 9116,
      "ĠHawaiian": 9117,
      "Ġcomparison": 9118,
      "Ġmobile": 9119,
      "ĠHuman": 9120,
      "ĠMarsden": 9121,
      "ĠInnis": 9122,
      "Ġreinforcements": 9123,
      "ĠQueensland": 9124,
      "Ġproportion": 9125,
      "Ġfalse": 9126,
      "ĠIrataba": 9127,
      "IA": 9128,
      "To": 9129,
      "gie": 9130,
      "pet": 9131,
      "rity": 9132,
      "ĠÄ": 9133,
      "Ġtub": 9134,
      "Ġtale": 9135,
      "Ġinduct": 9136,
      "ĠSkin": 9137,
      "ĠCBS": 9138,
      "ĠBal": 9139,
      "ĠHib": 9140,
[...]
