{
  "version": "1.0",
  "truncation": null,
  "padding": null,
  "added_tokens": [
    {
      "id": 0,
      "content": "<|endoftext|>",
      "single_word": false,
      "lstrip": false,
      "rstrip": false,
      "normalized": false,
      "special": true
    },
    {
      "id": 1,
      "content": "<|pad|>",
      "single_word": false,
      "lstrip": false,
      "rstrip": false,
      "normalized": false,
      "special": true
    },
    {
      "id": 2,
      "content": "<|system|>",
      "single_word": false,
      "lstrip": false,
      "rstrip": false,
      "normalized": false,
      "special": true
    },
    {
      "id": 3,
      "content": "<|user|>",
      "single_word": false,
      "lstrip": false,
      "rstrip": false,
      "normalized": false,
      "special": true
    },
    {
      "id": 4,
      "content": "<|assistant|>",
      "single_word": false,
      "lstrip": false,
      "rstrip": false,
      "normalized": false,
      "special": true
    },
    {
      "id": 5,
      "content": "<|thinking|>",
      "single_word": false,
      "lstrip": false,
      "rstrip": false,
      "normalized": false,
      "special": true
    },
    {
      "id": 6,
      "content": "<|answer|>",
      "single_word": false,
      "lstrip": false,
      "rstrip": false,
      "normalized": false,
      "special": true
    },
    {
      "id": 7,
      "content": "<|search|>",
      "single_word": false,
      "lstrip": false,
      "rstrip": false,
      "normalized": false,
      "special": true
    },
    {
      "id": 8,
      "content": "<|result|>",
      "single_word": false,
      "lstrip": false,
      "rstrip": false,
      "normalized": false,
      "special": true
    },
    {
      "id": 9,
      "content": "<|tool|>",
      "single_word": false,
      "lstrip": false,
      "rstrip": false,
      "normalized": false,
      "special": true
    }
  ],
  "normalizer": null,
  "pre_tokenizer": {
    "type": "Sequence",
    "pretokenizers": [
      {
        "type": "Digits",
        "individual_digits": true
      },
      {
        "type": "ByteLevel",
        "add_prefix_space": false,
        "trim_offsets": true,
        "use_regex": true
      }
    ]
  },
  "post_processor": null,
  "decoder": {
    "type": "ByteLevel",
    "add_prefix_space": true,
    "trim_offsets": true,
    "use_regex": true
  },
  "model": {
    "type": "BPE",
    "dropout": null,
    "unk_token": null,
    "continuing_subword_prefix": null,
    "end_of_word_suffix": null,
    "fuse_unk": false,
    "byte_fallback": false,
    "ignore_merges": false,
    "vocab": {
      "<|endoftext|>": 0,
      "<|pad|>": 1,
      "<|system|>": 2,
      "<|user|>": 3,
      "<|assistant|>": 4,
      "<|thinking|>": 5,
      "<|answer|>": 6,
      "<|search|>": 7,
      "<|result|>": 8,
      "<|tool|>": 9,
      "!": 10,
      "\"": 11,
      "#": 12,
      "$": 13,
      "%": 14,
      "&": 15,
      "'": 16,
      "(": 17,
      ")": 18,
      "*": 19,
      "+": 20,
      ",": 21,
      "-": 22,
      ".": 23,
      "/": 24,
      "0": 25,
      "1": 26,
      "2": 27,
      "3": 28,
      "4": 29,
      "5": 30,
      "6": 31,
      "7": 32,
      "8": 33,
      "9": 34,
      ":": 35,
      ";": 36,
      "<": 37,
      "=": 38,
      ">": 39,
      "?": 40,
      "@": 41,
      "A": 42,
      "B": 43,
      "C": 44,
      "D": 45,
      "E": 46,
      "F": 47,
      "G": 48,
      "H": 49,
      "I": 50,
      "J": 51,
      "K": 52,
      "L": 53,
      "M": 54,
      "N": 55,
      "O": 56,
      "P": 57,
      "Q": 58,
      "R": 59,
      "S": 60,
      "T": 61,
      "U": 62,
      "V": 63,
      "W": 64,
      "X": 65,
      "Y": 66,
      "Z": 67,
      "[": 68,
      "\\": 69,
      "]": 70,
      "^": 71,
      "_": 72,
      "`": 73,
      "a": 74,
      "b": 75,
      "c": 76,
      "d": 77,
      "e": 78,
      "f": 79,
      "g": 80,
      "h": 81,
      "i": 82,
      "j": 83,
      "k": 84,
      "l": 85,
      "m": 86,
      "n": 87,
      "o": 88,
      "p": 89,
      "q": 90,
      "r": 91,
      "s": 92,
      "t": 93,
      "u": 94,
      "v": 95,
      "w": 96,
      "x": 97,
      "y": 98,
      "z": 99,
      "{": 100,
      "|": 101,
      "}": 102,
      "~": 103,
      "¡": 104,
      "¢": 105,
      "£": 106,
      "¤": 107,
      "¥": 108,
      "¦": 109,
      "§": 110,
      "¨": 111,
      "©": 112,
      "ª": 113,
      "«": 114,
      "¬": 115,
      "®": 116,
      "¯": 117,
      "°": 118,
      "±": 119,
      "²": 120,
      "³": 121,
      "´": 122,
      "µ": 123,
      "¶": 124,
      "·": 125,
      "¸": 126,
      "¹": 127,
      "º": 128,
      "»": 129,
      "¼": 130,
      "½": 131,
      "¾": 132,
      "¿": 133,
      "À": 134,
      "Á": 135,
      "Â": 136,
      "Ã": 137,
      "Ä": 138,
      "Å": 139,
      "Æ": 140,
      "Ç": 141,
      "È": 142,
      "É": 143,
      "Ê": 144,
      "Ë": 145,
      "Ì": 146,
      "Í": 147,
      "Î": 148,
      "Ï": 149,
      "Ð": 150,
      "Ñ": 151,
      "Ò": 152,
      "Ó": 153,
      "Ô": 154,
      "Õ": 155,
      "Ö": 156,
      "×": 157,
      "Ø": 158,
      "Ù": 159,
      "Ú": 160,
      "Û": 161,
      "Ü": 162,
      "Ý": 163,
      "Þ": 164,
      "ß": 165,
      "à": 166,
      "á": 167,
      "â": 168,
      "ã": 169,
      "ä": 170,
      "å": 171,
      "æ": 172,
      "ç": 173,
      "è": 174,
      "é": 175,
      "ê": 176,
      "ë": 177,
      "ì": 178,
      "í": 179,
      "î": 180,
      "ï": 181,
      "ð": 182,
      "ñ": 183,
      "ò": 184,
      "ó": 185,
      "ô": 186,
      "õ": 187,
      "ö": 188,
      "÷": 189,
      "ø": 190,
      "ù": 191,
      "ú": 192,
      "û": 193,
      "ü": 194,
      "ý": 195,
      "þ": 196,
      "ÿ": 197,
      "Ā": 198,
      "ā": 199,
      "Ă": 200,
      "ă": 201,
      "Ą": 202,
      "ą": 203,
      "Ć": 204,
      "ć": 205,
      "Ĉ": 206,
      "ĉ": 207,
      "Ċ": 208,
      "ċ": 209,
      "Č": 210,
      "č": 211,
      "Ď": 212,
      "ď": 213,
      "Đ": 214,
      "đ": 215,
      "Ē": 216,
      "ē": 217,
      "Ĕ": 218,
      "ĕ": 219,
      "Ė": 220,
      "ė": 221,
      "Ę": 222,
      "ę": 223,
      "Ě": 224,
      "ě": 225,
      "Ĝ": 226,
      "ĝ": 227,
      "Ğ": 228,
      "ğ": 229,
      "Ġ": 230,
      "ġ": 231,
      "Ģ": 232,
      "ģ": 233,
      "Ĥ": 234,
      "ĥ": 235,
      "Ħ": 236,
      "ħ": 237,
      "Ĩ": 238,
      "ĩ": 239,
      "Ī": 240,
      "ī": 241,
      "Ĭ": 242,
      "ĭ": 243,
      "Į": 244,
      "į": 245,
      "İ": 246,
      "ı": 247,
      "Ĳ": 248,
      "ĳ": 249,
      "Ĵ": 250,
      "ĵ": 251,
      "Ķ": 252,
      "ķ": 253,
      "ĸ": 254,
      "Ĺ": 255,
      "ĺ": 256,
      "Ļ": 257,
      "ļ": 258,
      "Ľ": 259,
      "ľ": 260,
      "Ŀ": 261,
      "ŀ": 262,
      "Ł": 263,
      "ł": 264,
      "Ń": 265,
      "in": 266,
      "Ġt": 267,
      "Ġ\"": 268,
      "er": 269,
      "on": 270,
      "Ġa": 271,
      "re": 272,
      "he": 273,
      "ĠĠ": 274,
      "ar": 275,
      "at": 276,
      "st": 277,
      "en": 278,
      "or": 279,
      "Ġc": 280,
      "Ġthe": 281,
      "\":": 282,
      "Ġs": 283,
      "it": 284,
      "al": 285,
      "ou": 286,
      "es": 287,
      "\",": 288,
      "Ġp": 289,
      "ed": 290,
      "Ġf": 291,
      "ion": 292,
      "Ġ(": 293,
      "nd": 294,
      "ing": 295,
      "Ġw": 296,
      "Ġb": 297,
      "le": 298,
      "is": 299,
      "Ġm": 300,
      "ent": 301,
      "Ġo": 302,
      "Ġin": 303,
      "an": 304,
      "Ġd": 305,
      "et": 306,
      "ct": 307,
      "Ġ{": 308,
      "ro": 309,
      "id": 310,
      "ut": 311,
      "pe": 312,
      "ce": 313,
      "Ġto": 314,
      "Ġ=": 315,
      "se": 316,
      "Ġre": 317,
      "Ġof": 318,
      "ic": 319,
      "Ġand": 320,
      "ĠĠĠĠ": 321,
      "el": 322,
      "Ġl": 323,
      "Ġn": 324,
      "ex": 325,
      "ype": 326,
      "Ġth": 327,
      "am": 328,
      "if": 329,
      "Ġh": 330,
      "om": 331,
      "type": 332,
      "Ġu": 333,
      "as": 334,
      "il": 335,
      "ad": 336,
      "Ġ*": 337,
      "im": 338,
      "},": 339,
      "Ġ{\"": 340,
      "ur": 341,
      ");": 342,
      "int": 343,
      "ab": 344,
      "ch": 345,
      "\"},": 346,
      "--": 347,
      "ol": 348,
      "our": 349,
      "put": 350,
      "ation": 351,
      "ig": 352,
      "ck": 353,
      "Ġst": 354,
      "lo": 355,
      "res": 356,
      "th": 357,
      "ve": 358,
      "ate": 359,
      "ul": 360,
      "ĠI": 361,
      "ĠT": 362,
      "Ġis": 363,
      "ly": 364,
      "Ġfor": 365,
      "ist": 366,
      "get": 367,
      "od": 368,
      "ĠĠĠ": 369,
      "un": 370,
      "qu": 371,
      "um": 372,
      "Var": 373,
      "Ġ-": 374,
      "ver": 375,
      "IN": 376,
      "ot": 377,
      "Ġg": 378,
      "Ġcon": 379,
      "ra": 380,
      "Ġe": 381,
      "ĠS": 382,
      "ith": 383,
      "ĠA": 384,
      "ag": 385,
      "out": 386,
      "ment": 387,
      "ĠC": 388,
      "\\\"": 389,
      "arget": 390,
      "sion": 391,
      "Ġbe": 392,
      "ource": 393,
      "exp": 394,
      "target": 395,
      "Ġ[": 396,
      "source": 397,
      "ri": 398,
      "RE": 399,
      "pt": 400,
      "âĢ": 401,
      "ow": 402,
      "con": 403,
      "))": 404,
      "nt": 405,
      "ay": 406,
      "Ġwith": 407,
      "ON": 408,
      "Ġon": 409,
      "Ġ}": 410,
      "ef": 411,
      "ction": 412,
      "em": 413,
      "Ġv": 414,
      "Ġ+": 415,
      "Ġy": 416,
      "Ġwh": 417,
      "ers": 418,
      "PH": 419,
      "ONE": 420,
      "Ġit": 421,
      "PHONE": 422,
      "ir": 423,
      "Ġor": 424,
      "input": 425,
      "Ġpro": 426,
      "ess": 427,
      "Ġint": 428,
      "Ġthat": 429,
      "op": 430,
      "Ġif": 431,
      "ĠP": 432,
      "ack": 433,
      "Ġ'": 434,
      "Ġas": 435,
      "iz": 436,
      "ression": 437,
      "==": 438,
      "aram": 439,
      "Ġan": 440,
      "pp": 441,
      "ec": 442,
      "ff": 443,
      "expression": 444,
      "us": 445,
      "and": 446,
      "Ġcom": 447,
      "lab": 448,
      "est": 449,
      "ity": 450,
      "Ġr": 451,
      "ile": 452,
      "Ġal": 453,
      "ĠR": 454,
      "ht": 455,
      "DI": 456,
      "label": 457,
      "urn": 458,
      "ĠM": 459,
      "all": 460,
      "Ġ/": 461,
      "reg": 462,
      "**": 463,
      "CT": 464,
      "end": 465,
      "ke": 466,
      "RECT": 467,
      "DIRECT": 468,
      "INDIRECT": 469,
      "],": 470,
      "----": 471,
      "Ġpr": 472,
      "ain": 473,
      "(\"": 474,
      "ti": 475,
      "ĠF": 476,
      "Ġch": 477,
      "âĶ": 478,
      "add": 479,
      "ive": 480,
      "ame": 481,
      "ort": 482,
      "age": 483,
      "ere": 484,
      "ext": 485,
      "Ġlo": 486,
      "pl": 487,
      "const": 488,
      "rom": 489,
      "ld": 490,
      "AL": 491,
      "turn": 492,
      "ident": 493,
      "ore": 494,
      "ĠĠĠĠĠĠĠ": 495,
      "ĠE": 496,
      "ĠThe": 497,
      "ĠB": 498,
      "),": 499,
      "ifi": 500,
      "Ġsu": 501,
      "ect": 502,
      "iv": 503,
      "ue": 504,
      "Ġse": 505,
      "var": 506,
      "Ġ`": 507,
      "Ġare": 508,
      "ight": 509,
      "ew": 510,
      "param": 511,
      "Ġat": 512,
      "ant": 513,
      "ĠD": 514,
      "Ġreturn": 515,
      "',": 516,
      "ies": 517,
      "Ġ[\"": 518,
      "addr": 519,
      "ĠN": 520,
      "cal": 521,
      ";\\": 522,
      "Ġus": 523,
      "ĠL": 524,
      "que": 525,
      "ine": 526,
      "Ġi": 527,
      "AD": 528,
      "Ġby": 529,
      "Ġsh": 530,
      "os": 531,
      "Ġnot": 532,
      "ter": 533,
      "ass": 534,
      "use": 535,
      "ill": 536,
      "\"],": 537,
      "ure": 538,
      "ĠW": 539,
      "``": 540,
      "identifi": 541,
      "ple": 542,
      "Ġprint": 543,
      "Ġhe": 544,
      "Ġthis": 545,
      "identifier": 546,
      "Ġ**": 547,
      "Ġex": 548,
      "ique": 549,
      "output": 550,
      "ep": 551,
      "ard": 552,
      "ĠH": 553,
      "_-": 554,
      "INT": 555,
      "art": 556,
      "Ġle": 557,
      "str": 558,
      "Ġ*)": 559,
      "ber": 560,
      "_-<": 561,
      "Ġfrom": 562,
      "ary": 563,
      "ould": 564,
      "ata": 565,
      "âĶĢ": 566,
      "Ġstr": 567,
      "ase": 568,
      "act": 569,
      "are": 570,
      "ac": 571,
      "unique": 572,
      "Ġcont": 573,
      "Ġyou": 574,
      "ode": 575,
      "ord": 576,
      "ound": 577,
      "ult": 578,
      "Ġ&": 579,
      "tied": 580,
      "addrtied": 581,
      "ap": 582,
      "ust": 583,
      "ST": 584,
      "Ġim": 585,
      "ire": 586,
      "ial": 587,
      "ign": 588,
      "Ġcan": 589,
      "Ġprintf": 590,
      "Ġres": 591,
      "ime": 592,
      "ind": 593,
      "cri": 594,
      "ork": 595,
      "com": 596,
      "ath": 597,
      "ave": 598,
      "ĠU": 599,
      "St": 600,
      "Ġdo": 601,
      "Ġ//": 602,
      "able": 603,
      "Ġen": 604,
      "Ġ<": 605,
      "ud": 606,
      "to": 607,
      "Ġ|": 608,
      "ak": 609,
      "Ġme": 610,
      "ast": 611,
      "ge": 612,
      "ĠO": 613,
      "UL": 614,
      "Ġ==": 615,
      "'s": 616,
      "low": 617,
      "Ġwe": 618,
      "ĠG": 619,
      "Ġar": 620,
      "cc": 621,
      "âĶĢâĶĢ": 622,
      "ĊĠĠĠ": 623,
      "cript": 624,
      "ical": 625,
      "oint": 626,
      "Ġso": 627,
      ").": 628,
      "ong": 629,
      "Ġad": 630,
      "Ġ\\\"": 631,
      "per": 632,
      "ich": 633,
      "li": 634,
      "ize": 635,
      "->": 636,
      "pon": 637,
      "PT": 638,
      ");\\": 639,
      "..": 640,
      "ated": 641,
      "Ġpl": 642,
      "Ġtr": 643,
      "ost": 644,
      "ace": 645,
      "Ġne": 646,
      "Ġnum": 647,
      "ount": 648,
      "##": 649,
      "ined": 650,
      "ĠTh": 651,
      "ister": 652,
      "ach": 653,
      "__": 654,
      "ator": 655,
      "ail": 656,
      "ser": 657,
      "====": 658,
      "orm": 659,
      "PTR": 660,
      "ence": 661,
      "Ġj": 662,
      "ations": 663,
      "ĠâĢ": 664,
      "register": 665,
      "ble": 666,
      "\");": 667,
      ":<": 668,
      "ite": 669,
      "yth": 670,
      "QU": 671,
      "state": 672,
      "so": 673,
      "ance": 674,
      "ADD": 675,
      "Ġper": 676,
      "ents": 677,
      ">'": 678,
      "ther": 679,
      "ans": 680,
      "EQU": 681,
      "hen": 682,
      "def": 683,
      "EQUAL": 684,
      ":\\": 685,
      ":**": 686,
      "ĠĠĠĠĠĠĠĠ": 687,
      "vi": 688,
      "Ġwas": 689,
      "Ġbut": 690,
      ">'),": 691,
      "ition": 692,
      "Ġhave": 693,
      "Ġmod": 694,
      "Ġwhich": 695,
      "uVar": 696,
      "ub": 697,
      "ok": 698,
      "ide": 699,
      "port": 700,
      "one": 701,
      "()": 702,
      "efined": 703,
      "unction": 704,
      "ink": 705,
      "ror": 706,
      "Ġab": 707,
      "du": 708,
      "cl": 709,
      "Ġde": 710,
      "--------": 711,
      "ous": 712,
      "AN": 713,
      "lar": 714,
      "Ġ\\": 715,
      "oug": 716,
      "und": 717,
      "iVar": 718,
      "ALL": 719,
      "og": 720,
      "Ġexp": 721,
      "row": 722,
      "Ġ*)(": 723,
      "ULT": 724,
      "Ġsc": 725,
      "CALL": 726,
      "hes": 727,
      "Ġk": 728,
      "Ġun": 729,
      "statement": 730,
      "ll": 731,
      "ual": 732,
      "Ġval": 733,
      "ry": 734,
      "eral": 735,
      "ory": 736,
      "âĢĻ": 737,
      "ject": 738,
      "ome": 739,
      "\")": 740,
      "escript": 741,
      "av": 742,
      "```": 743,
      "Ġcl": 744,
      "Ġapp": 745,
      "ph": 746,
      "ell": 747,
      "gr": 748,
      "ython": 749,
      "point": 750,
      "Stack": 751,
      "Ġyour": 752,
      "eclar": 753,
      "Ġbo": 754,
      "Ġ%": 755,
      "Ġall": 756,
      "Ġli": 757,
      "Ġdata": 758,
      "Ġchar": 759,
      "Ġup": 760,
      "name": 761,
      "val": 762,
      "Ġqu": 763,
      "te": 764,
      ">\",": 765,
      "SU": 766,
      "Ġ!": 767,
      "LO": 768,
      "ree": 769,
      "Ġidentifier": 770,
      "fer": 771,
      "urre": 772,
      "ip": 773,
      "form": 774,
      "Ġman": 775,
      "Ġ$": 776,
      "ens": 777,
      ")\"": 778,
      "ates": 779,
      "ĠJ": 780,
      "pro": 781,
      "Ġwork": 782,
      "[-": 783,
      "Ġpre": 784,
      "Ġdis": 785,
      "SUB": 786,
      "ont": 787,
      "old": 788,
      "Ġuse": 789,
      "tr": 790,
      "Ġparam": 791,
      "ough": 792,
      "Ġhas": 793,
      "ĠIn": 794,
      "Ġlocal": 795,
      "ized": 796,
      ".\\": 797,
      "Ġ{\\": 798,
      "Ġ>": 799,
      "Ġma": 800,
      "descript": 801,
      "Ġwill": 802,
      "ang": 803,
      "Ġfile": 804,
      "vel": 805,
      "pec": 806,
      "Ġ!=": 807,
      "The": 808,
      "undefined": 809,
      "enc": 810,
      "arg": 811,
      "heck": 812,
      "local": 813,
      "MULT": 814,
      "oid": 815,
      "arch": 816,
      "Ġone": 817,
      "Ġnumber": 818,
      "CO": 819,
      "own": 820,
      "Ġlist": 821,
      "Ġel": 822,
      "Ġ;": 823,
      "ft": 824,
      "Ġneed": 825,
      "ract": 826,
      "Ġcol": 827,
      "Ġinter": 828,
      "ys": 829,
      "reat": 830,
      "In": 831,
      "urrent": 832,
      "ress": 833,
      "Ġtime": 834,
      "Ġcall": 835,
      "Ġadd": 836,
      "we": 837,
      "Ġser": 838,
      "Ġinto": 839,
      "Ġthey": 840,
      "Ġund": 841,
      "bin": 842,
      "Ġnew": 843,
      "ss": 844,
      "ely": 845,
      "Ġro": 846,
      "py": 847,
      "LOAD": 848,
      "declar": 849,
      "Ġsy": 850,
      "Ġfunction": 851,
      "ps": 852,
      "ĠRe": 853,
      "uct": 854,
      "ific": 855,
      "Ġcomm": 856,
      "ild": 857,
      "cess": 858,
      "ility": 859,
      "ĠĠĠĠĠ": 860,
      "ia": 861,
      "Ġ.": 862,
      "Ġmore": 863,
      "Ġback": 864,
      "read": 865,
      "PY": 866,
      "inal": 867,
      "file": 868,
      "Ġver": 869,
      "tool": 870,
      "Ġtheir": 871,
      "pointer": 872,
      "COPY": 873,
      ">',": 874,
      "Ġshould": 875,
      "MULTI": 876,
      "Ġsp": 877,
      "MULTIEQUAL": 878,
      "Ġke": 879,
      "irst": 880,
      "Ġwhen": 881,
      "PTRSUB": 882,
      "Ġ\"(": 883,
      "Ġ}\\": 884,
      "atch": 885,
      "ays": 886,
      "ions": 887,
      "Ġstate": 888,
      "eb": 889,
      "++": 890,
      "CA": 891,
      ")\\": 892,
      "lit": 893,
      "Ġbu": 894,
      "Ġuser": 895,
      "cont": 896,
      "Ġbre": 897,
      "ĊĠĠĠĠĠĠĠ": 898,
      "Ġcomp": 899,
      "Ġfe": 900,
      "Ġtype": 901,
      "ick": 902,
      "ings": 903,
      "ments": 904,
      "Ġev": 905,
      "erm": 906,
      "iel": 907,
      "Ġno": 908,
      "Ġwhile": 909,
      "LE": 910,
      "lock": 911,
      "ci": 912,
      "num": 913,
      "literal": 914,
      "Ġind": 915,
      "ful": 916,
      "Ġdef": 917,
      "ĠiVar": 918,
      "Ġem": 919,
      "ose": 920,
      "SI": 921,
      "void": 922,
      "Ġform": 923,
      "Ġcase": 924,
      "Ġover": 925,
      "ĠThis": 926,
      "stem": 927,
      "::": 928,
      "ice": 929,
      "Ġout": 930,
      "arent": 931,
      "imit": 932,
      "Ġinst": 933,
      "Ġabout": 934,
      "Ġatt": 935,
      "ĠuVar": 936,
      "Ġelse": 937,
      "ĠSt": 938,
      "ures": 939,
      "string": 940,
      "ark": 941,
      "ne": 942,
      "les": 943,
      "UN": 944,
      "ating": 945,
      "{\"": 946,
      "Ġâ": 947,
      "Ġvar": 948,
      "Ġgr": 949,
      "CH": 950,
      "ish": 951,
      "':": 952,
      "Ġam": 953,
      "</": 954,
      ")))": 955,
      "Ġgo": 956,
      "Ġresult": 957,
      "bo": 958,
      "Ġcre": 959,
      "].": 960,
      "========": 961,
      "ield": 962,
      "ĠV": 963,
      "Ġset": 964,
      "char": 965,
      "binary": 966,
      "oc": 967,
      "bject": 968,
      "ument": 969,
      "word": 970,
      "Ġspec": 971,
      "Ġcons": 972,
      "quire": 973,
      "Ġra": 974,
      "ccess": 975,
      "CAST": 976,
      "ove": 977,
      "pr": 978,
      "ise": 979,
      "ull": 980,
      "error": 981,
      "Ġpart": 982,
      "ER": 983,
      "Ġany": 984,
      "Ġ*(": 985,
      "iles": 986,
      "igh": 987,
      "âĢĶ": 988,
      "AX": 989,
      "ask": 990,
      "ĠĠĠĠĠĠĠĠĠĠĠ": 991,
      "ages": 992,
      "Ġbreak": 993,
      "ib": 994,
      "Ġ\"*": 995,
      "js": 996,
      "ors": 997,
      "Ġ#": 998,
      "ars": 999,
      "ĠY": 1000,
      "\\\\": 1001,
      "eth": 1002,
      "Ġbet": 1003,
      "lect": 1004,
      "ault": 1005,
      "Ġhis": 1006,
      "work": 1007,
      "Ġlike": 1008,
      "):": 1009,
      "lic": 1010,
      "]\",": 1011,
      "ns": 1012,
      "Ġthem": 1013,
      "Ġeach": 1014,
      "Ġthere": 1015,
      "nc": 1016,
      "Ġsim": 1017,
      "Ġinput": 1018,
      "list": 1019,
      "ics": 1020,
      "AT": 1021,
      "sp": 1022,
      "âĶĢâĶĢâĶĢâĶĢ": 1023,
      "Ġits": 1024,
      "Ġdi": 1025,
      "ts": 1026,
      "ca": 1027,
      "Ġ('": 1028,
      "Ġtw": 1029,
      "Ġonly": 1030,
      "Ġwhat": 1031,
      "Ġwould": 1032,
      "Ġcurrent": 1033,
      "Ġthan": 1034,
      "RAN": 1035,
      "Ġother": 1036,
      "pect": 1037,
      "ctions": 1038,
      "Ġdes": 1039,
      "Th": 1040,
      "line": 1041,
      "ix": 1042,
      "ash": 1043,
      "Ġclass": 1044,
      "rol": 1045,
      "app": 1046,
      "call": 1047,
      "Ġtra": 1048,
      "Ġfirst": 1049,
      "ample": 1050,
      "rit": 1051,
      "Ġthese": 1052,
      "hed": 1053,
      "Ġconst": 1054,
      "description": 1055,
      "BRAN": 1056,
      "Ġdet": 1057,
      "Ġhow": 1058,
      "eng": 1059,
      "BRANCH": 1060,
      "Ġag": 1061,
      "Ġdif": 1062,
      "Ġmay": 1063,
      "PI": 1064,
      "its": 1065,
      "ider": 1066,
      "Ġgen": 1067,
      "of": 1068,
      "data": 1069,
      "Ġtest": 1070,
      "Ġget": 1071,
      "RN": 1072,
      "anc": 1073,
      "ular": 1074,
      "ater": 1075,
      "ning": 1076,
      "Ġte": 1077,
      "fter": 1078,
      "vent": 1079,
      "Ġhand": 1080,
      "sh": 1081,
      "Ġlog": 1082,
      "urity": 1083,
      "Ġrun": 1084,
      "loc": 1085,
      "over": 1086,
      "Ġwere": 1087,
      "Ġrem": 1088,
      "];": 1089,
      "Ġrec": 1090,
      "Ġalso": 1091,
      "Ġ((": 1092,
      "rough": 1093,
      "Ġcode": 1094,
      "Ġac": 1095,
      "ities": 1096,
      "Ġsub": 1097,
      "ĠK": 1098,
      "('": 1099,
      "irect": 1100,
      "ative": 1101,
      "Ġusing": 1102,
      "atter": 1103,
      "Ġsize": 1104,
      "set": 1105,
      "'t": 1106,
      "Ġext": 1107,
      "rite": 1108,
      "cket": 1109,
      "=\\\"": 1110,
      "ert": 1111,
      "\"}": 1112,
      "Ġmy": 1113,
      "Ġthen": 1114,
      "Ġright": 1115,
      "yp": 1116,
      "ug": 1117,
      "ĠIf": 1118,
      "cre": 1119,
      "mp": 1120,
      "by": 1121,
      "ution": 1122,
      "Ġsome": 1123,
      "Ġed": 1124,
      "parent": 1125,
      "time": 1126,
      "Ġca": 1127,
      "PTRADD": 1128,
      "Ġvalue": 1129,
      "Ġread": 1130,
      "tt": 1131,
      "alse": 1132,
      "Ġent": 1133,
      "Ġcheck": 1134,
      "der": 1135,
      ".,": 1136,
      "Ġpos": 1137,
      "Ġmodel": 1138,
      "Ġbeen": 1139,
      "Ġprocess": 1140,
      "âĢĿ": 1141,
      "ues": 1142,
      "declarator": 1143,
      "ĠIt": 1144,
      "sel": 1145,
      "Ġdoes": 1146,
      "path": 1147,
      "ref": 1148,
      "Ġ&&": 1149,
      "clud": 1150,
      "Ġconf": 1151,
      ";\"": 1152,
      "Ġunder": 1153,
      "EN": 1154,
      ">\"},": 1155,
      "python": 1156,
      "ange": 1157,
      "cept": 1158,
      "Ġcle": 1159,
      "Ġtrans": 1160,
      "de": 1161,
      "Ġkn": 1162,
      "up": 1163,
      "###": 1164,
      "Ġlong": 1165,
      "essage": 1166,
      "nter": 1167,
      "Ġtwo": 1168,
      "Ġ;)": 1169,
      "Ġsystem": 1170,
      "par": 1171,
      "Ġaut": 1172,
      "fd": 1173,
      "ines": 1174,
      "Ġcor": 1175,
      "Ġend": 1176,
      "++)": 1177,
      "Ġthrough": 1178,
      "ons": 1179,
      "Ġwhere": 1180,
      "Ġcomple": 1181,
      "ability": 1182,
      ")(": 1183,
      "Ġ->": 1184,
      "ignment": 1185,
      "Ġprov": 1186,
      "ible": 1187,
      "ulti": 1188,
      "Ġcount": 1189,
      "Ġdec": 1190,
      "ased": 1191,
      "AS": 1192,
      "ween": 1193,
      "atus": 1194,
      "CBRANCH": 1195,
      "//": 1196,
      "Ġact": 1197,
      "Ġhad": 1198,
      "ĠâĢĶ": 1199,
      "url": 1200,
      "ponse": 1201,
      "IT": 1202,
      "ĠPro": 1203,
      "hesized": 1204,
      "ULL": 1205,
      "pos": 1206,
      "raph": 1207,
      "')": 1208,
      "ORE": 1209,
      "parenthesized": 1210,
      "ner": 1211,
      "Ġmain": 1212,
      "Ġcould": 1213,
      "Ġdist": 1214,
      "][": 1215,
      "Ġerror": 1216,
      "Ġfr": 1217,
      "OR": 1218,
      "ax": 1219,
      "Ġsm": 1220,
      "ayer": 1221,
      "aw": 1222,
      "Ġreg": 1223,
      "Ġarg": 1224,
      "Ġimport": 1225,
      "dd": 1226,
      "ecurity": 1227,
      "blem": 1228,
      "quired": 1229,
      "ices": 1230,
      "ĠCh": 1231,
      "ffect": 1232,
      "Ġleft": 1233,
      "be": 1234,
      "----------------": 1235,
      "Ġbetween": 1236,
      "Ġtext": 1237,
      "size": 1238,
      "ade": 1239,
      "Ġ,": 1240,
      "âĢ¢": 1241,
      "ĠâĶ": 1242,
      "Ġstring": 1243,
      "Ġdiffer": 1244,
      "ature": 1245,
      "ie": 1246,
      "ĠPython": 1247,
      "ved": 1248,
      "Ġline": 1249,
      "ually": 1250,
      "STORE": 1251,
      "Ġsupp": 1252,
      "ally": 1253,
      "assignment": 1254,
      "cVar": 1255,
      "Ġsuch": 1256,
      "ems": 1257,
      "cho": 1258,
      "Ġmin": 1259,
      "ng": 1260,
      "Ġstart": 1261,
      "comm": 1262,
      "\\\",": 1263,
      "Ġstruct": 1264,
      "count": 1265,
      "Ġwho": 1266,
      "ood": 1267,
      "cast": 1268,
      "Ġkey": 1269,
      "Ġco": 1270,
      "Ġsol": 1271,
      "*(": 1272,
      "OT": 1273,
      "ĠâĢľ": 1274,
      "ever": 1275,
      "ify": 1276,
      "ake": 1277,
      "pen": 1278,
      "Ġever": 1279,
      "rib": 1280,
      "lose": 1281,
      "Ġupd": 1282,
      "();": 1283,
      "ollow": 1284,
      "olog": 1285,
      "ĠSo": 1286,
      "fore": 1287,
      "eter": 1288,
      "bu": 1289,
      "puVar": 1290,
      "Ġvari": 1291,
      "---": 1292,
      "ĠLet": 1293,
      "Ġmem": 1294,
      "Ġhigh": 1295,
      "Ġprodu": 1296,
      "Ġname": 1297,
      "af": 1298,
      "Ġfound": 1299,
      "Ġ>>": 1300,
      "Ġdirect": 1301,
      "ffer": 1302,
      "ob": 1303,
      "test": 1304,
      "Ġjust": 1305,
      ",\"": 1306,
      ">\\": 1307,
      "ute": 1308,
      "back": 1309,
      "uring": 1310,
      "ead": 1311,
      "ower": 1312,
      "Ġbefore": 1313,
      "Ġafter": 1314,
      "Ġproblem": 1315,
      "imes": 1316,
      "ĨĴ": 1317,
      "eg": 1318,
      "Ġshe": 1319,
      "ait": 1320,
      "nal": 1321,
      "Ġ:": 1322,
      "cond": 1323,
      "ting": 1324,
      "ĠRE": 1325,
      "(\"%": 1326,
      "Ġpar": 1327,
      "ient": 1328,
      "Ġmight": 1329,
      "Ġpath": 1330,
      "ically": 1331,
      "Ġour": 1332,
      "ption": 1333,
      "ĊĠĠĠĠ": 1334,
      "col": 1335,
      "Ġ_": 1336,
      "Ġfind": 1337,
      "Ġboth": 1338,
      "Ġx": 1339,
      "Ġdep": 1340,
      "ĠCom": 1341,
      "ward": 1342,
      "Ġpass": 1343,
      "vice": 1344,
      "...": 1345,
      "Ġye": 1346,
      "load": 1347,
      "ĠâĨĴ": 1348,
      "ength": 1349,
      "text": 1350,
      "place": 1351,
      "Ġrel": 1352,
      "the": 1353,
      "rror": 1354,
      "ection": 1355,
      "Ġph": 1356,
      "number": 1357,
      "Ġ__": 1358,
      "Ġserver": 1359,
      "Ġass": 1360,
      "for": 1361,
      "ule": 1362,
      "iven": 1363,
      "lient": 1364,
      "Ġacc": 1365,
      "Ġmust": 1366,
      "uint": 1367,
      "Ġher": 1368,
      "self": 1369,
      "Ġcompon": 1370,
      "stract": 1371,
      "chn": 1372,
      "Ġfollow": 1373,
      "io": 1374,
      "rc": 1375,
      "content": 1376,
      "view": 1377,
      "ĠFUN": 1378,
      "comp": 1379,
      "Ġoff": 1380,
      "wer": 1381,
      "Ġoutput": 1382,
      "ĠID": 1383,
      "ted": 1384,
      "Ġtool": 1385,
      "Ġob": 1386,
      "Ġlink": 1387,
      "ization": 1388,
      "RET": 1389,
      "ĠNULL": 1390,
      "Ġpres": 1391,
      "log": 1392,
      "len": 1393,
      "ĠFor": 1394,
      "ling": 1395,
      "ĠEx": 1396,
      "ook": 1397,
      "ession": 1398,
      "ethod": 1399,
      "ves": 1400,
      "ery": 1401,
      "ten": 1402,
      "code": 1403,
      "Ġreal": 1404,
      "Ġsame": 1405,
      "Ġpoint": 1406,
      "Ġwant": 1407,
      "Ġhead": 1408,
      "Ġfl": 1409,
      "ray": 1410,
      "cul": 1411,
      "Ġmulti": 1412,
      "Ġfiles": 1413,
      "Ġstep": 1414,
      "Ġinclud": 1415,
      "ms": 1416,
      "ffff": 1417,
      "this": 1418,
      "SE": 1419,
      "Ġvis": 1420,
      "ENT": 1421,
      "Ġlet": 1422,
      "Ġfail": 1423,
      "))))": 1424,
      "Ġused": 1425,
      "Ġshow": 1426,
      "ather": 1427,
      "URN": 1428,
      "Ġhel": 1429,
      "min": 1430,
      "ains": 1431,
      "Ġsign": 1432,
      "Ġpers": 1433,
      "Ġappro": 1434,
      "Ġmat": 1435,
      "ton": 1436,
      "descriptor": 1437,
      "://": 1438,
      "Ġele": 1439,
      "ross": 1440,
      "Ġanal": 1441,
      "Ġpe": 1442,
      "Ġwell": 1443,
      "Ġ*/": 1444,
      "quest": 1445,
      "ples": 1446,
      "itial": 1447,
      "Ġcreate": 1448,
      "RETURN": 1449,
      "Error": 1450,
      "px": 1451,
      "arly": 1452,
      "play": 1453,
      "ĠBut": 1454,
      "ian": 1455,
      "ZE": 1456,
      "Ġmany": 1457,
      "ĠAPI": 1458,
      "MO": 1459,
      "Ġcontext": 1460,
      "als": 1461,
      "]\"},": 1462,
      "Ġword": 1463,
      "ces": 1464,
      "imitive": 1465,
      "ĊĠĠĠĠĊĠĠĠ": 1466,
      "Ġmon": 1467,
      "vers": 1468,
      "Ġ\");": 1469,
      "Ġref": 1470,
      "ily": 1471,
      "Ġpri": 1472,
      "mod": 1473,
      "ason": 1474,
      "br": 1475,
      "Ġ)": 1476,
      "Ġmost": 1477,
      "ives": 1478,
      "ential": 1479,
      "abstract": 1480,
      "ict": 1481,
      "aff": 1482,
      "ven": 1483,
      "ĠAl": 1484,
      "ane": 1485,
      ".\"": 1486,
      "])": 1487,
      "Ġoper": 1488,
      "Ġvery": 1489,
      "plement": 1490,
      "Ġsur": 1491,
      "Ġscan": 1492,
      "Ġmake": 1493,
      "SS": 1494,
      "Ġstud": 1495,
      "rect": 1496,
      "Ġwithout": 1497,
      "ency": 1498,
      "ches": 1499,
      "new": 1500,
      "ules": 1501,
      "Ġcommand": 1502,
      "._": 1503,
      "led": 1504,
      "div": 1505,
      "Ġthink": 1506,
      "Ġins": 1507,
      "Ġnow": 1508,
      "mer": 1509,
      "Ġconsider": 1510,
      "ets": 1511,
      "Ġap": 1512,
      "ĠHow": 1513,
      "Ġbr": 1514,
      "elf": 1515,
      "AB": 1516,
      "red": 1517,
      "Ġsee": 1518,
      "ving": 1519,
      "ced": 1520,
      "ural": 1521,
      "ĠQ": 1522,
      "ks": 1523,
      "tal": 1524,
      "declaration": 1525,
      "value": 1526,
      "Ġfield": 1527,
      "Ġdesign": 1528,
      "ĠUI": 1529,
      "velop": 1530,
      "Ġgener": 1531,
      "\\\":": 1532,
      "her": 1533,
      "Ġattack": 1534,
      "Ġexample": 1535,
      "board": 1536,
      "required": 1537,
      "`,": 1538,
      "air": 1539,
      "nder": 1540,
      "bVar": 1541,
      "fo": 1542,
      "iron": 1543,
      "(\\\"": 1544,
      "ateg": 1545,
      "function": 1546,
      "Ġtyp": 1547,
      "OL": 1548,
      "Ġtem": 1549,
      "Ġmethod": 1550,
      "alloc": 1551,
      "su": 1552,
      "hem": 1553,
      "Ġflow": 1554,
      "{\\": 1555,
      "aps": 1556,
      "(&": 1557,
      "));": 1558,
      "ym": 1559,
      "Ġagain": 1560,
      "default": 1561,
      "piVar": 1562,
      "Ġsearch": 1563,
      "ANT": 1564,
      "Âł": 1565,
      "Ġknow": 1566,
      "els": 1567,
      "alcul": 1568,
      "sub": 1569,
      "ational": 1570,
      "Ġmo": 1571,
      "ness": 1572,
      "MOV": 1573,
      "Ġcontrol": 1574,
      "BP": 1575,
      "Ġtask": 1576,
      "ases": 1577,
      "tle": 1578,
      "bers": 1579,
      "itle": 1580,
      "Ġsk": 1581,
      "not": 1582,
      "space": 1583,
      "Ġsecurity": 1584,
      "ins": 1585,
      "lob": 1586,
      "Ġopen": 1587,
      "iss": 1588,
      "Ġblock": 1589,
      "flow": 1590,
      "hat": 1591,
      "print": 1592,
      "index": 1593,
      "rs": 1594,
      "gg": 1595,
      "Ġfalse": 1596,
      "Ġfil": 1597,
      "ĠThat": 1598,
      "Ġequ": 1599,
      "Ġtotal": 1600,
      "ĠYou": 1601,
      "\\\"\\": 1602,
      "Ġdifferent": 1603,
      "Ġid": 1604,
      "import": 1605,
      "================": 1606,
      "Ġdown": 1607,
      "ody": 1608,
      "Ġterm": 1609,
      "ĠReact": 1610,
      "Ġ=>": 1611,
      "Ġbuild": 1612,
      "Ġlook": 1613,
      "Ġcontent": 1614,
      "head": 1615,
      "uch": 1616,
      "Ġway": 1617,
      "STANT": 1618,
      "eters": 1619,
      "ml": 1620,
      "Ġsum": 1621,
      "itor": 1622,
      "struct": 1623,
      "Ġsupport": 1624,
      "Ġtechn": 1625,
      "ared": 1626,
      "ense": 1627,
      "ha": 1628,
      "Ġvia": 1629,
      "Ġexist": 1630,
      "ern": 1631,
      "iew": 1632,
      "ING": 1633,
      "Ġtry": 1634,
      "Ġobject": 1635,
      "Ġeffect": 1636,
      "viron": 1637,
      "Ġgu": 1638,
      "cause": 1639,
      "]:\\": 1640,
      "Ġconc": 1641,
      "stand": 1642,
      "sc": 1643,
      "orld": 1644,
      "ĠpuVar": 1645,
      "Ġeven": 1646,
      "Ġbecause": 1647,
      "Ġsmall": 1648,
      "arn": 1649,
      "ĠUn": 1650,
      "med": 1651,
      "Re": 1652,
      "Ġbl": 1653,
      "ken": 1654,
      "utput": 1655,
      "aid": 1656,
      "Ġdoc": 1657,
      "uments": 1658,
      "âĶĢâĶĢâĶĢâĶĢâĶĢâĶĢâĶĢâĶĢ": 1659,
      "ysis": 1660,
      "Ġscanf": 1661,
      "Ġpatter": 1662,
      "Ġsepar": 1663,
      "formation": 1664,
      "ĠWe": 1665,
      "Ġnext": 1666,
      "ru": 1667,
      "think": 1668,
      "Ġpub": 1669,
      "pre": 1670,
      "Ġsom": 1671,
      "Enter": 1672,
      "ĠAr": 1673,
      "no": 1674,
      "Ġevery": 1675,
      "Ġcharact": 1676,
      "fully": 1677,
      "uth": 1678,
      "Ġhere": 1679,
      "ASSI": 1680,
      "Ġ||": 1681,
      "Pro": 1682,
      "Ġvalid": 1683,
      "Ġfree": 1684,
      "ĊĠ": 1685,
      "ĠCon": 1686,
      "ASSISTANT": 1687,
      "long": 1688,
      "Ġmessage": 1689,
      "xc": 1690,
      "ouble": 1691,
      "Ġcontin": 1692,
      "yn": 1693,
      "ĠTr": 1694,
      "This": 1695,
      "Ġundefined": 1696,
      "Ġexper": 1697,
      "ince": 1698,
      "Ġtrue": 1699,
      "wn": 1700,
      "from": 1701,
      "fig": 1702,
      "CE": 1703,
      "Ġpol": 1704,
      "}\\": 1705,
      "ĠĠĠĠĠĠĠĠĠ": 1706,
      "ware": 1707,
      "Ġsecond": 1708,
      "Ġfact": 1709,
      "search": 1710,
      "ames": 1711,
      "ĠIDENT": 1712,
      "Ġself": 1713,
      "gan": 1714,
      "Ġexit": 1715,
      ",\\": 1716,
      "Ġptr": 1717,
      "Ġcaus": 1718,
      "Ġhelp": 1719,
      "Ġhim": 1720,
      "ground": 1721,
      "Ġcho": 1722,
      "AR": 1723,
      "Ġbeing": 1724,
      "Ġaccess": 1725,
      "agement": 1726,
      "Ġlar": 1727,
      "ining": 1728,
      "pty": 1729,
      "oup": 1730,
      "ification": 1731,
      "stru": 1732,
      "ople": 1733,
      "Ġ--": 1734,
      "ants": 1735,
      "Ġrep": 1736,
      "ively": 1737,
      "((": 1738,
      "aking": 1739,
      "Ġthose": 1740,
      "ĠUse": 1741,
      "Ġdevelop": 1742,
      "tmp": 1743,
      "Ġwithin": 1744,
      "Ġsuccess": 1745,
      "egr": 1746,
      "itive": 1747,
      "ream": 1748,
      "ences": 1749,
      "TO": 1750,
      "Ġthreat": 1751,
      "Ġredu": 1752,
      "\"\"": 1753,
      "command": 1754,
      "Ġdel": 1755,
      "Ġsizeof": 1756,
      "ee": 1757,
      "ties": 1758,
      "Ġbel": 1759,
      "Ġgre": 1760,
      "Ex": 1761,
      "Ġpage": 1762,
      "ync": 1763,
      "Ġcorrect": 1764,
      "Ġcond": 1765,
      "ĠRES": 1766,
      "Ġdisc": 1767,
      "Ġstatus": 1768,
      "Ġcent": 1769,
      "asic": 1770,
      "Ġdat": 1771,
      "Ġimplement": 1772,
      "erg": 1773,
      "Ġincre": 1774,
      "come": 1775,
      "ides": 1776,
      "Ġorder": 1777,
      "key": 1778,
      "ffic": 1779,
      "Ġrespon": 1780,
      "ĠHe": 1781,
      "Ġfull": 1782,
      "block": 1783,
      "ication": 1784,
      "Ġopt": 1785,
      "valid": 1786,
      "sock": 1787,
      "Ġmet": 1788,
      "alth": 1789,
      "Ġallow": 1790,
      "ibility": 1791,
      "'ll": 1792,
      "Ġdefault": 1793,
      "Ġlarge": 1794,
      "rowser": 1795,
      "Ġart": 1796,
      "';": 1797,
      "itions": 1798,
      "wh": 1799,
      "parameter": 1800,
      "Ġmuch": 1801,
      "FUN": 1802,
      "ission": 1803,
      "oto": 1804,
      "field": 1805,
      "gram": 1806,
      "etwork": 1807,
      "itect": 1808,
      "ric": 1809,
      "ird": 1810,
      "vironment": 1811,
      "ty": 1812,
      "Ġmark": 1813,
      "Ġduring": 1814,
      "Ġinf": 1815,
      "Ġmatch": 1816,
      "Ġ()": 1817,
      "NOT": 1818,
      "Ġquest": 1819,
      "compound": 1820,
      "Let": 1821,
      "ought": 1822,
      "Ġresults": 1823,
      "vol": 1824,
      "arm": 1825,
      "less": 1826,
      "ĠRESULT": 1827,
      "Ġchang": 1828,
      "ĊĊ": 1829,
      "Ġgreat": 1830,
      "Ġz": 1831,
      "ann": 1832,
      "ĠTo": 1833,
      "tra": 1834,
      "(\"\\": 1835,
      "object": 1836,
      "ock": 1837,
      "Ġperform": 1838,
      "ious": 1839,
      "chitect": 1840,
      "Ġmax": 1841,
      "ering": 1842,
      "Ġcontain": 1843,
      "ľâĶĢâĶĢ": 1844,
      "Ġinstead": 1845,
      "std": 1846,
      "Ġgood": 1847,
      "ism": 1848,
      "Ġcomponents": 1849,
      "Ġformat": 1850,
      "Ġposs": 1851,
      "nect": 1852,
      "ience": 1853,
      "istant": 1854,
      "âĶĤ": 1855,
      "ries": 1856,
      "Ġwrite": 1857,
      "`.": 1858,
      "return": 1859,
      "Ġorig": 1860,
      "Ġlast": 1861,
      "ories": 1862,
      "Ġwater": 1863,
      "argument": 1864,
      "pcVar": 1865,
      "Ġscal": 1866,
      "={\"": 1867,
      "Ġvalues": 1868,
      "ately": 1869,
      "ĠCont": 1870,
      "Ġocc": 1871,
      "Ġiss": 1872,
      "istic": 1873,
      "ilities": 1874,
      "ology": 1875,
      "imal": 1876,
      "atures": 1877,
      "Ġinstall": 1878,
      "write": 1879,
      "Ġlit": 1880,
      "NOTEQUAL": 1881,
      "item": 1882,
      "Ġes": 1883,
      "Ġenc": 1884,
      "ET": 1885,
      "Ġ**)(": 1886,
      "Ġsw": 1887,
      "Ġscript": 1888,
      "src": 1889,
      "face": 1890,
      "tes": 1891,
      "ards": 1892,
      "Ġinformation": 1893,
      "Ġ))": 1894,
      "ILE": 1895,
      "response": 1896,
      "Ġplan": 1897,
      "Ġhtt": 1898,
      "Ġpeople": 1899,
      "Ġbackend": 1900,
      "Ġclose": 1901,
      "Ġgrow": 1902,
      "Output": 1903,
      "uc": 1904,
      "ren": 1905,
      "Ġview": 1906,
      "Ġdra": 1907,
      "ARN": 1908,
      "Ġstand": 1909,
      "akes": 1910,
      "apt": 1911,
      "user": 1912,
      "Ġans": 1913,
      "perties": 1914,
      "SIZE": 1915,
      "ron": 1916,
      "ĊĠĠĠĠĠĠĠĠĠĠĠ": 1917,
      "Ġindex": 1918,
      "Ġmade": 1919,
      "Ġthree": 1920,
      "ife": 1921,
      "ler": 1922,
      "ified": 1923,
      "TH": 1924,
      "unaff": 1925,
      "();\\": 1926,
      "Ġmove": 1927,
      "server": 1928,
      "atic": 1929,
      "ingle": 1930,
      "Ġplace": 1931,
      "ARNING": 1932,
      "ze": 1933,
      "ystem": 1934,
      "Ġlab": 1935,
      "Ġ\"*\"": 1936,
      "Ġcolor": 1937,
      "fe": 1938,
      "Ġrow": 1939,
      "ww": 1940,
      "off": 1941,
      "Ġav": 1942,
      "Ġens": 1943,
      "other": 1944,
      "Ġcomplex": 1945,
      "Id": 1946,
      "Ġyears": 1947,
      "bb": 1948,
      "rand": 1949,
      "]);": 1950,
      "Ġrand": 1951,
      "Cont": 1952,
      "amples": 1953,
      "ae": 1954,
      "Ġ'\\": 1955,
      "ways": 1956,
      "node": 1957,
      "Ġlead": 1958,
      "Ġappe": 1959,
      "day": 1960,
      "Ġ(*": 1961,
      "Ġnull": 1962,
      "ĠĠĠĠĠĠĠĠĠĠĠĠĠĠĠ": 1963,
      "Ġsn": 1964,
      "So": 1965,
      "Ġload": 1966,
      "Ġris": 1967,
      "ier": 1968,
      "Ġstill": 1969,
      "ĠWARNING": 1970,
      "ited": 1971,
      "Ġfollowing": 1972,
      "way": 1973,
      "Ġ\"<": 1974,
      "odes": 1975,
      "idd": 1976,
      "Ġdeclar": 1977,
      "byte": 1978,
      "ĠHowever": 1979,
      "ĠAs": 1980,
      "urs": 1981,
      "Ġimpro": 1982,
      "../": 1983,
      "Ġpost": 1984,
      "Ġcar": 1985,
      "Ġday": 1986,
      "ĠRust": 1987,
      "Ġexec": 1988,
      "ists": 1989,
      "Ġcalled": 1990,
      "fil": 1991,
      "ĠNone": 1992,
      "ently": 1993,
      "Ġconfig": 1994,
      "istory": 1995,
      "sert": 1996,
      "Ġ\"*(": 1997,
      "ĠRet": 1998,
      "ontend": 1999,
      "Ġapplic": 2000,
      "level": 2001,
      "ĊĠĠ": 2002,
      "Ġclear": 2003,
      "XT": 2004,
      "ĠâĢĵ": 2005,
      "tem": 2006,
      "ĠHere": 2007,
      "arning": 2008,
      "ges": 2009,
      "Con": 2010,
      "ished": 2011,
      "Ġtarget": 2012,
      "Ġfeed": 2013,
      "ote": 2014,
      "ium": 2015,
      "Ġlogic": 2016,
      "ision": 2017,
      "Ġresponse": 2018,
      "ived": 2019,
      "Ġunderstand": 2020,
      "lib": 2021,
      "ĠX": 2022,
      "land": 2023,
      "order": 2024,
      "List": 2025,
      "cial": 2026,
      "Ġkeep": 2027,
      "rypt": 2028,
      "cd": 2029,
      "Ġcap": 2030,
      "Ġlimit": 2031,
      "ĠPr": 2032,
      "loy": 2033,
      "Ġbest": 2034,
      "ety": 2035,
      "ush": 2036,
      "aces": 2037,
      "struction": 2038,
      "Ġnon": 2039,
      "Ġmemory": 2040,
      "Ġsaid": 2041,
      "Ġchild": 2042,
      "action": 2043,
      "xff": 2044,
      "Ġauth": 2045,
      "gress": 2046,
      "ĠIm": 2047,
      "resh": 2048,
      "base": 2049,
      "Ġve": 2050,
      "script": 2051,
      "Ġbuffer": 2052,
      "TOOL": 2053,
      "Ġ/*": 2054,
      "Ġadv": 2055,
      "Ġprin": 2056,
      "cent": 2057,
      "otal": 2058,
      "Ġmed": 2059,
      "Ġpartic": 2060,
      "Ġmaint": 2061,
      "Ġintegr": 2062,
      "Ġgiven": 2063,
      "Ġeng": 2064,
      "DAT": 2065,
      "start": 2066,
      "date": 2067,
      "json": 2068,
      "control": 2069,
      "efore": 2070,
      "mit": 2071,
      "Ġdeclarator": 2072,
      "home": 2073,
      "Ġinitial": 2074,
      "FF": 2075,
      "Ġown": 2076,
      "Ġ[{\"": 2077,
      "hip": 2078,
      "Ġimage": 2079,
      "Ġrender": 2080,
      "Ġet": 2081,
      "idence": 2082,
      "PE": 2083,
      "plic": 2084,
      "Ġcost": 2085,
      "unk": 2086,
      "Ġflo": 2087,
      "Ġpack": 2088,
      "ats": 2089,
      "ables": 2090,
      "ags": 2091,
      "Ġexpect": 2092,
      "ination": 2093,
      "Ġold": 2094,
      "ener": 2095,
      "ume": 2096,
      "ension": 2097,
      "Ġprimitive": 2098,
      "amp": 2099,
      "aries": 2100,
      "Ġsession": 2101,
      "ĠSe": 2102,
      "ending": 2103,
      "bed": 2104,
      "ĠAdd": 2105,
      "current": 2106,
      "Ġversion": 2107,
      "Ġacross": 2108,
      "CK": 2109,
      "Ġrequest": 2110,
      "Ġcomput": 2111,
      "Ġanswer": 2112,
      "Ġboard": 2113,
      "Ġclient": 2114,
      "inter": 2115,
      "md": 2116,
      "right": 2117,
      "db": 2118,
      "Ġ}\"": 2119,
      "Ġcare": 2120,
      "AM": 2121,
      "Ġclean": 2122,
      "Ġless": 2123,
      "Ġhum": 2124,
      "Ġcommun": 2125,
      "light": 2126,
      "Ġmanagement": 2127,
      "Ġret": 2128,
      "ided": 2129,
      "ank": 2130,
      "ux": 2131,
      "imum": 2132,
      "PU": 2133,
      "section": 2134,
      "rop": 2135,
      "Ġweb": 2136,
      "Ġplay": 2137,
      ".\",": 2138,
      "Ġanalysis": 2139,
      "Ġconver": 2140,
      "ots": 2141,
      "ilar": 2142,
      "avig": 2143,
      "Ġment": 2144,
      "AI": 2145,
      "ES": 2146,
      "ances": 2147,
      "Ch": 2148,
      "Ġspecific": 2149,
      "HT": 2150,
      "Ġpresent": 2151,
      "ograph": 2152,
      "Ġsingle": 2153,
      "Ġlines": 2154,
      "rem": 2155,
      "Ġtri": 2156,
      "ertain": 2157,
      "Ġbackground": 2158,
      "aint": 2159,
      "Ġimp": 2160,
      "]\\": 2161,
      "Ġcharacter": 2162,
      "ested": 2163,
      "Ġport": 2164,
      "Ġdetail": 2165,
      "\\\">": 2166,
      "Ġworld": 2167,
      "ready": 2168,
      "lish": 2169,
      "To": 2170,
      "ond": 2171,
      "ours": 2172,
      "Ġedit": 2173,
      "Ġdid": 2174,
      "Ġlevel": 2175,
      "ĠâĶĤ": 2176,
      "serv": 2177,
      "Ġexpl": 2178,
      "ĠSh": 2179,
      "havi": 2180,
      "aving": 2181,
      "indow": 2182,
      "unc": 2183,
      "Ġreason": 2184,
      "length": 2185,
      "Ġlight": 2186,
      "Ġfinal": 2187,
      "ĠReturn": 2188,
      "Ġspe": 2189,
      "ĠRes": 2190,
      "Ġapproach": 2191,
      "Ġchange": 2192,
      "Ġtimes": 2193,
      "down": 2194,
      "ID": 2195,
      "ache": 2196,
      "Ġpract": 2197,
      "Ġfew": 2198,
      "duct": 2199,
      "ouse": 2200,
      "df": 2201,
      "ĠOn": 2202,
      "message": 2203,
      "\"]": 2204,
      "basic": 2205,
      "You": 2206,
      "Ġprom": 2207,
      "ĠThey": 2208,
      "opt": 2209,
      "ole": 2210,
      "Ġdone": 2211,
      "Ġdem": 2212,
      "abase": 2213,
      "html": 2214,
      "class": 2215,
      "ends": 2216,
      "ĠMAX": 2217,
      "Ġarchitect": 2218,
      "Ġest": 2219,
      "ĠAn": 2220,
      "ality": 2221,
      "idth": 2222,
      "Ġrepres": 2223,
      "Ġmean": 2224,
      "lete": 2225,
      "Ġrespons": 2226,
      "Ġmode": 2227,
      "ulation": 2228,
      "Ġbase": 2229,
      "lex": 2230,
      "ustom": 2231,
      "any": 2232,
      "orth": 2233,
      "pass": 2234,
      "acy": 2235,
      "ale": 2236,
      "Ġprogram": 2237,
      "Ġoriginal": 2238,
      "Ġavail": 2239,
      "++;": 2240,
      "cle": 2241,
      "lease": 2242,
      "aced": 2243,
      "Ġenvironment": 2244,
      "Ġdouble": 2245,
      "usion": 2246,
      "bol": 2247,
      "Ġexplo": 2248,
      "Ġbro": 2249,
      "Ġdays": 2250,
      "Ġ\"/": 2251,
      "Ġsimple": 2252,
      "por": 2253,
      "Ġ\"\"\"": 2254,
      "Ġside": 2255,
      "Ġdict": 2256,
      "ogn": 2257,
      "ocus": 2258,
      "Ġtop": 2259,
      "Ġdon": 2260,
      "Ġupon": 2261,
      "Se": 2262,
      "rix": 2263,
      "Ġinc": 2264,
      "EBP": 2265,
      "itch": 2266,
      "Ġtoo": 2267,
      "Ġwrit": 2268,
      "htt": 2269,
      "Ġmodule": 2270,
      "${": 2271,
      "workspace": 2272,
      "ĠCheck": 2273,
      "files": 2274,
      "sequ": 2275,
      "status": 2276,
      "orage": 2277,
      "Ġ\"(\"": 2278,
      "Ġsock": 2279,
      "Ġmodels": 2280,
      "Ġcell": 2281,
      "Ġsocket": 2282,
      "ĠNo": 2283,
      "config": 2284,
      "etch": 2285,
      "Ġdisplay": 2286,
      "IG": 2287,
      "MAX": 2288,
      "Ġdirectory": 2289,
      "do": 2290,
      "cf": 2291,
      "Ġreport": 2292,
      "ipp": 2293,
      "Ġlength": 2294,
      "!\\": 2295,
      "Ass": 2296,
      "Ġcr": 2297,
      "Ġ===": 2298,
      "los": 2299,
      "Ġargument": 2300,
      "ĠWh": 2301,
      "man": 2302,
      "Ġreturns": 2303,
      "=\"": 2304,
      "Ġitems": 2305,
      "dict": 2306,
      "check": 2307,
      "Ġsimilar": 2308,
      "Ġfre": 2309,
      "Ġchanges": 2310,
      "ources": 2311,
      "Ġnumbers": 2312,
      "Ġhard": 2313,
      "yle": 2314,
      "ires": 2315,
      "ey": 2316,
      "Ġbetter": 2317,
      "eger": 2318,
      "How": 2319,
      "ecess": 2320,
      "Ġupdate": 2321,
      "Ġcy": 2322,
      "angu": 2323,
      "\"))": 2324,
      "Ġusers": 2325,
      "Ġitem": 2326,
      "Ġ+=": 2327,
      "Ġempty": 2328,
      "ĠDe": 2329,
      "ember": 2330,
      "ĠApp": 2331,
      "ĠWhen": 2332,
      "AND": 2333,
      "Ġaddress": 2334,
      "erc": 2335,
      "lection": 2336,
      "Ġprinci": 2337,
      "Com": 2338,
      "Ġmaintain": 2339,
      "Ġalready": 2340,
      "Ġbody": 2341,
      "Ġoften": 2342,
      "Ġanother": 2343,
      "ething": 2344,
      "Ġmeans": 2345,
      "title": 2346,
      "buffer": 2347,
      "ĠAnd": 2348,
      "Ġresearch": 2349,
      "oud": 2350,
      "ribut": 2351,
      "Ġwhe": 2352,
      "alculate": 2353,
      "Ġstructure": 2354,
      "Ġdocument": 2355,
      "plit": 2356,
      "Ġproject": 2357,
      "Ġproduct": 2358,
      "âķ": 2359,
      "lobal": 2360,
      "Ġfin": 2361,
      "Ġyear": 2362,
      "User": 2363,
      "active": 2364,
      "rel": 2365,
      "ivid": 2366,
      "Ġdoesn": 2367,
      "Ġ?": 2368,
      "Ġorgan": 2369,
      "Ġrequire": 2370,
      "Ġnode": 2371,
      "Ġyet": 2372,
      "Ġtake": 2373,
      "Ġconsist": 2374,
      "older": 2375,
      "Ġdetection": 2376,
      "pri": 2377,
      "}}": 2378,
      "ral": 2379,
      "ĠPl": 2380,
      "Ġnetwork": 2381,
      "Ġstd": 2382,
      "**:": 2383,
      "Ġquant": 2384,
      "Ġpot": 2385,
      "api": 2386,
      "chan": 2387,
      "pack": 2388,
      "Ġdr": 2389,
      "open": 2390,
      "Ġmultiple": 2391,
      "iness": 2392,
      "Ġshort": 2393,
      "tx": 2394,
      "medi": 2395,
      "Ġ\"(\")": 2396,
      "Ġrefer": 2397,
      "Ġnever": 2398,
      "aa": 2399,
      "ormal": 2400,
      "Ġcommon": 2401,
      "But": 2402,
      "Ġ>>>": 2403,
      "ĠâĶľâĶĢâĶĢ": 2404,
      "socket": 2405,
      "Ġmonth": 2406,
      "reate": 2407,
      "Ġworks": 2408,
      "itional": 2409,
      "Ġgroup": 2410,
      "uration": 2411,
      "aging": 2412,
      "Res": 2413,
      "ring": 2414,
      "Ġaction": 2415,
      "bd": 2416,
      "actions": 2417,
      "Ġchoice": 2418,
      "Ġnat": 2419,
      "Text": 2420,
      "ctionary": 2421,
      "Ġrece": 2422,
      "Ġconne": 2423,
      "run": 2424,
      "with": 2425,
      "LESS": 2426,
      "Ġquestion": 2427,
      "Ġunt": 2428,
      "Assistant": 2429,
      "Ġabove": 2430,
      "Ġremain": 2431,
      "ude": 2432,
      "ename": 2433,
      "wait": 2434,
      "Ġsuper": 2435,
      "Ġtools": 2436,
      "inary": 2437,
      "vious": 2438,
      "replace": 2439,
      "Now": 2440,
      "Ġgoto": 2441,
      "Ġ{'": 2442,
      "host": 2443,
      "roll": 2444,
      "Ġexact": 2445,
      "lane": 2446,
      "ML": 2447,
      "Ġarray": 2448,
      "Ġsever": 2449,
      "Ġpriv": 2450,
      "side": 2451,
      "gether": 2452,
      "For": 2453,
      "Ġland": 2454,
      "iver": 2455,
      "ĠQu": 2456,
      "Ġbased": 2457,
      "Ġrather": 2458,
      "Ġgeneral": 2459,
      "alk": 2460,
      "parameters": 2461,
      "Ġaround": 2462,
      "Ġsay": 2463,
      "lev": 2464,
      "Ġprevent": 2465,
      "='": 2466,
      "Ġcomponent": 2467,
      "Al": 2468,
      "son": 2469,
      "properties": 2470,
      "Ġhttps": 2471,
      "abilities": 2472,
      "\\\")\\": 2473,
      "round": 2474,
      "Ġtests": 2475,
      "mary": 2476,
      "Ġpo": 2477,
      "Ġpower": 2478,
      "ĠpcVar": 2479,
      "âĸ": 2480,
      "Ġ\",": 2481,
      "Ġsomething": 2482,
      "Ġworking": 2483,
      "Ġhal": 2484,
      "Ġ)))": 2485,
      "my": 2486,
      "hent": 2487,
      "ably": 2488,
      "Ġcases": 2489,
      "Ġ...": 2490,
      "Ġdeep": 2491,
      "Ġevent": 2492,
      "thers": 2493,
      "trans": 2494,
      "Ġrest": 2495,
      "Ġperror": 2496,
      "Ġbook": 2497,
      "Step": 2498,
      "Ġ*\"": 2499,
      "ero": 2500,
      "let": 2501,
      "Ġroot": 2502,
      "process": 2503,
      "ĠĠĠĠĠĠĠĠĠĠĠĠĠĠĠĠ": 2504,
      "igned": 2505,
      "Ġ*)((": 2506,
      "Ġfo": 2507,
      "izing": 2508,
      "Ġloop": 2509,
      "ik": 2510,
      "Ġinside": 2511,
      "ĠRead": 2512,
      "Ġturn": 2513,
      "Ġbehavi": 2514,
      "Ġsays": 2515,
      "Ġpur": 2516,
      "Ġ*))": 2517,
      "super": 2518,
      "mission": 2519,
      "RO": 2520,
      "Ġeas": 2521,
      "ceed": 2522,
      "Ġfam": 2523,
      "cing": 2524,
      "meric": 2525,
      "ĠNew": 2526,
      "lot": 2527,
      "Ġelements": 2528,
      "Ġsolution": 2529,
      "Ġentire": 2530,
      "co": 2531,
      "Ġdom": 2532,
      "met": 2533,
      "Ġred": 2534,
      "ivity": 2535,
      "next": 2536,
      "jo": 2537,
      "Ġmeas": 2538,
      "Ġrout": 2539,
      "RL": 2540,
      "Ġupdates": 2541,
      "client": 2542,
      "Ġleg": 2543,
      "ek": 2544,
      "primitive": 2545,
      "Ġâľ": 2546,
      "close": 2547,
      "ging": 2548,
      "oth": 2549,
      "but": 2550,
      "\".": 2551,
      "We": 2552,
      "thread": 2553,
      "ĠCl": 2554,
      "net": 2555,
      "ither": 2556,
      "Ġprob": 2557,
      "info": 2558,
      "ĠlVar": 2559,
      "ĠWeb": 2560,
      "Ġsince": 2561,
      "Ġlittle": 2562,
      "Ġprovide": 2563,
      "ators": 2564,
      "Ġhandle": 2565,
      "ĠInd": 2566,
      "dir": 2567,
      "ied": 2568,
      "urther": 2569,
      "ored": 2570,
      "rout": 2571,
      "Ġpay": 2572,
      "Ġrepl": 2573,
      "aut": 2574,
      "Ġparts": 2575,
      "map": 2576,
      "Ġdue": 2577,
      "Ġtre": 2578,
      "ma": 2579,
      "Ġdiv": 2580,
      "ret": 2581,
      "ĠMod": 2582,
      "Ġlibr": 2583,
      "Ġpattern": 2584,
      "ĠPh": 2585,
      "Ġpop": 2586,
      "based": 2587,
      "Ġkind": 2588,
      "Ġrepresent": 2589,
      "Ġlayer": 2590,
      "mon": 2591,
      "opy": 2592,
      "âķĲ": 2593,
      "Ġ\"{\\": 2594,
      "sin": 2595,
      "File": 2596,
      "ĠâĢ¢": 2597,
      "Ġtim": 2598,
      "uture": 2599,
      "']": 2600,
      "ĠbVar": 2601,
      "Ġmodular": 2602,
      "ĠSub": 2603,
      "ests": 2604,
      "Ġcrit": 2605,
      "Ġavoid": 2606,
      "ĠStr": 2607,
      "true": 2608,
      "Ġiter": 2609,
      "ipe": 2610,
      "Ġcalls": 2611,
      "Ġfunctions": 2612,
      "Ġwords": 2613,
      "Ġsec": 2614,
      "ended": 2615,
      "TP": 2616,
      "ĠSer": 2617,
      "Ġ(!": 2618,
      "sec": 2619,
      "ything": 2620,
      "Ġfilter": 2621,
      "}\"": 2622,
      "irection": 2623,
      "ĠThese": 2624,
      "Ġfri": 2625,
      "Ġhome": 2626,
      "term": 2627,
      "ĠSecurity": 2628,
      "Ġrecord": 2629,
      "Ġroom": 2630,
      "Ġlife": 2631,
      "ĠLAB": 2632,
      "ital": 2633,
      "Ġinclude": 2634,
      "ites": 2635,
      "vices": 2636,
      "Ġcolum": 2637,
      "âĢĳ": 2638,
      "Ġfocus": 2639,
      "Ġavailable": 2640,
      "Ġknown": 2641,
      "Ġstrong": 2642,
      "Ġgame": 2643,
      "Ġlat": 2644,
      "Ġproper": 2645,
      "gor": 2646,
      "vest": 2647,
      "part": 2648,
      "Ġlay": 2649,
      "sym": 2650,
      "tern": 2651,
      "Ġindic": 2652,
      "âķĲâķĲ": 2653,
      "Ġalways": 2654,
      "Ġfrontend": 2655,
      "Ġetc": 2656,
      "ptr": 2657,
      "If": 2658,
      "Ġgl": 2659,
      "ĠpiVar": 2660,
      "Ġbus": 2661,
      "Ġcreated": 2662,
      "ĠZ": 2663,
      "Ġsort": 2664,
      "ĠRed": 2665,
      "['": 2666,
      "irm": 2667,
      "ape": 2668,
      "ECE": 2669,
      "Ġperson": 2670,
      "Ġhealth": 2671,
      "'re": 2672,
      "ynam": 2673,
      "Ġbrowser": 2674,
      "Ġuntil": 2675,
      "Ġsaf": 2676,
      "SON": 2677,
      "position": 2678,
      "ĠBy": 2679,
      "--------------------------------": 2680,
      "Ġspecies": 2681,
      "Ġfore": 2682,
      "max": 2683,
      "Ġsugg": 2684,
      "istics": 2685,
      "Ġvoid": 2686,
      "anced": 2687,
      "cb": 2688,
      "gold": 2689,
      "Input": 2690,
      "ilt": 2691,
      "PIECE": 2692,
      "Ġskill": 2693,
      "Ġreplace": 2694,
      "gre": 2695,
      "encies": 2696,
      "Ġprocesses": 2697,
      "Ġframe": 2698,
      "Ġpatterns": 2699,
      "gorith": 2700,
      "Ġdiff": 2701,
      "Ġident": 2702,
      "Ġwait": 2703,
      "Ġlow": 2704,
      "upp": 2705,
      "Ġdeterm": 2706,
      "/*": 2707,
      "Ġhuman": 2708,
      "Ġben": 2709,
      "printf": 2710,
      "Ġdictionary": 2711,
      "Ġcover": 2712,
      "anguage": 2713,
      "Ġtypes": 2714,
      "Ġpossible": 2715,
      "SH": 2716,
      "ĠEd": 2717,
      "aring": 2718,
      "ĠAmeric": 2719,
      "Ġbound": 2720,
      "iving": 2721,
      "orn": 2722,
      "fficient": 2723,
      "(--": 2724,
      "ĠOr": 2725,
      "Ġplayer": 2726,
      "site": 2727,
      "Ġspecial": 2728,
      "ĠTrue": 2729,
      "icle": 2730,
      "Ġnecess": 2731,
      "ĠLe": 2732,
      "ĠIs": 2733,
      "ised": 2734,
      "IGHT": 2735,
      "sockfd": 2736,
      "Ġtoken": 2737,
      "Ġamount": 2738,
      "ulner": 2739,
      "Ġgive": 2740,
      "Ġstri": 2741,
      "Ġimportant": 2742,
      "ividual": 2743,
      "Ġ</": 2744,
      "Ġfeatures": 2745,
      "Ġstrc": 2746,
      "cape": 2747,
      "Ġrate": 2748,
      "ured": 2749,
      "hand": 2750,
      "FILE": 2751,
      "Ġanaly": 2752,
      "LI": 2753,
      "Ġstates": 2754,
      "Ġ(;": 2755,
      "ger": 2756,
      "Ġfar": 2757,
      "span": 2758,
      "Ġcur": 2759,
      "aterial": 2760,
      "]:": 2761,
      "ĠReturns": 2762,
      "Ġcreat": 2763,
      "Ġexcept": 2764,
      "gin": 2765,
      "Ġpersist": 2766,
      "alle": 2767,
      "Ġchall": 2768,
      "Ġinvol": 2769,
      "Ġquick": 2770,
      "Ġimprove": 2771,
      "Ġasync": 2772,
      "Ġterminal": 2773,
      "Ġissue": 2774,
      "Ġdatabase": 2775,
      "ged": 2776,
      "valu": 2777,
      "Ġ},": 2778,
      "ythos": 2779,
      "Ġagainst": 2780,
      "imate": 2781,
      "$$": 2782,
      "arr": 2783,
      "Ġgra": 2784,
      "icro": 2785,
      "Tr": 2786,
      "Ġothers": 2787,
      "ourse": 2788,
      "Ġpublic": 2789,
      ");\"": 2790,
      "Ġsent": 2791,
      "YPE": 2792,
      "Ġdig": 2793,
      "Ġrandom": 2794,
      "chool": 2795,
      "adi": 2796,
      "quires": 2797,
      "Ġthings": 2798,
      "Ġcausal": 2799,
      "outh": 2800,
      "wards": 2801,
      "wise": 2802,
      "org": 2803,
      "Ġmen": 2804,
      "ĠCol": 2805,
      "iod": 2806,
      "iqu": 2807,
      "Ġfour": 2808,
      "Ġlen": 2809,
      "Ġvol": 2810,
      "like": 2811,
      "Ġdepend": 2812,
      "Ġposition": 2813,
      "Ġsave": 2814,
      "Ar": 2815,
      "\\\",\\": 2816,
      "ED": 2817,
      "eed": 2818,
      "ustr": 2819,
      "Ġ(*(": 2820,
      "erefore": 2821,
      "nown": 2822,
      "rame": 2823,
      "Ġimplementation": 2824,
      "Ġ\";\"": 2825,
      "Ġrespect": 2826,
      "Ġwhether": 2827,
      "Ġparent": 2828,
      "Ġ*/\\": 2829,
      "ĠFalse": 2830,
      "aves": 2831,
      "ĠCreate": 2832,
      "Ġlarg": 2833,
      "hel": 2834,
      "Ġtogether": 2835,
      "args": 2836,
      "pc": 2837,
      "ieve": 2838,
      "step": 2839,
      "ĠHT": 2840,
      "Ġfast": 2841,
      "Ġspace": 2842,
      "ĠInt": 2843,
      "LEN": 2844,
      "ivers": 2845,
      "Ġselect": 2846,
      "tsx": 2847,
      "Ġautom": 2848,
      "Ġear": 2849,
      "Ġindividual": 2850,
      "ensive": 2851,
      "Ġaccount": 2852,
      "ĠAct": 2853,
      "Ġcustom": 2854,
      "As": 2855,
      "rodu": 2856,
      "stack": 2857,
      "lement": 2858,
      "fl": 2859,
      "empt": 2860,
      "me": 2861,
      "Ġsend": 2862,
      "pid": 2863,
      "Ġlistitem": 2864,
      "Ġrange": 2865,
      "subscript": 2866,
      "Ġearly": 2867,
      "ained": 2868,
      "aken": 2869,
      "verse": 2870,
      "inition": 2871,
      "\\\"\\\"": 2872,
      "AIL": 2873,
      "pecial": 2874,
      "Ġfuture": 2875,
      "tok": 2876,
      "Ġelement": 2877,
      "ĠThere": 2878,
      "Ġfont": 2879,
      "ĠBash": 2880,
      "oh": 2881,
      "choice": 2882,
      "Ġhistory": 2883,
      "Ġhapp": 2884,
      "ba": 2885,
      "ĠEng": 2886,
      "QL": 2887,
      "Ġfailed": 2888,
      "Ġloc": 2889,
      "Ġelect": 2890,
      "Ġlaw": 2891,
      "ott": 2892,
      "Socket": 2893,
      "Ġpoints": 2894,
      "Ġstrlen": 2895,
      "Ġlik": 2896,
      "Ġneeded": 2897,
      "Ġfix": 2898,
      "comes": 2899,
      "ĠInter": 2900,
      "Ġide": 2901,
      "Ġsure": 2902,
      "Ġseveral": 2903,
      "Ġheur": 2904,
      "Ġdescript": 2905,
      "ctor": 2906,
      "Ġcontinue": 2907,
      "Ġcertain": 2908,
      "Ġlater": 2909,
      "....": 2910,
      "Ġthread": 2911,
      "ises": 2912,
      "asc": 2913,
      "dev": 2914,
      "Ġput": 2915,
      "rec": 2916,
      "epend": 2917,
      "Ġarchitecture": 2918,
      "Ġhandling": 2919,
      "];\\": 2920,
      "Ġevents": 2921,
      "task": 2922,
      "ift": 2923,
      "Ġpotential": 2924,
      "gs": 2925,
      "Ġtasks": 2926,
      "iment": 2927,
      "ĠEAX": 2928,
      "bar": 2929,
      "ils": 2930,
      "Ġ|\\": 2931,
      "items": 2932,
      "()`": 2933,
      "sol": 2934,
      "Ġsuccessfully": 2935,
      "'m": 2936,
      "Ġalong": 2937,
      "Ġ\";\"))": 2938,
      "Ġstrateg": 2939,
      "'ve": 2940,
      "queue": 2941,
      "auth": 2942,
      "ĠCan": 2943,
      "Ġlower": 2944,
      "dis": 2945,
      "Ġcomplete": 2946,
      "Ġwon": 2947,
      "Ġ###": 2948,
      "URE": 2949,
      "Ġfloat": 2950,
      "Ġhours": 2951,
      "ah": 2952,
      "Ġswitch": 2953,
      "Ġuint": 2954,
      "Ġunique": 2955,
      "ĠLIT": 2956,
      "ĠAnal": 2957,
      "az": 2958,
      "Ġerrors": 2959,
      "Ġconnect": 2960,
      "inct": 2961,
      "Ġoption": 2962,
      "Ġâľĵ": 2963,
      "Ġamong": 2964,
      "mat": 2965,
      "ening": 2966,
      "ched": 2967,
      ":**\\": 2968,
      "Ġincluding": 2969,
      "points": 2970,
      "init": 2971,
      "alt": 2972,
      "Ġsym": 2973,
      "inst": 2974,
      "ority": 2975,
      "Im": 2976,
      "gen": 2977,
      "Ġcir": 2978,
      "It": 2979,
      "imary": 2980,
      "Ġant": 2981,
      "Ġask": 2982,
      "Ġcondition": 2983,
      "oring": 2984,
      "doc": 2985,
      ".âĢĿ": 2986,
      "Ġtree": 2987,
      "now": 2988,
      "Ġglobal": 2989,
      "Ġimmedi": 2990,
      "Ġneeds": 2991,
      "Ġrelev": 2992,
      "ergy": 2993,
      "Here": 2994,
      "ĠTe": 2995,
      "Ġservice": 2996,
      "icult": 2997,
      "Ġsurface": 2998,
      "Ġaccept": 2999,
      "Ġvulner": 3000,
      "ĠPrint": 3001,
      "Ġmess": 3002,
      "Ġwhite": 3003,
      "Ġarr": 3004,
      "most": 3005,
      "Ġtell": 3006,
      "Ġensure": 3007,
      "Ġfig": 3008,
      "Ġmechan": 3009,
      "strc": 3010,
      "Ġleast": 3011,
      "Ġpassword": 3012,
      "ĠDis": 3013,
      "Ġinstance": 3014,
      "Ġvarious": 3015,
      "Ġcontrols": 3016,
      "ention": 3017,
      "Ġnote": 3018,
      "uous": 3019,
      "icy": 3020,
      "ĠMr": 3021,
      "ause": 3022,
      "Ġlearning": 3023,
      "ĠVal": 3024,
      "Ġsocial": 3025,
      "]}": 3026,
      "Ġsystems": 3027,
      "Ġfeedback": 3028,
      "ĠWhat": 3029,
      "Ġhy": 3030,
      "Ġ\")\"": 3031,
      "Ġoptim": 3032,
      "pub": 3033,
      "Ġexisting": 3034,
      "ological": 3035,
      "Ġpat": 3036,
      "olution": 3037,
      "ĠUs": 3038,
      "nce": 3039,
      "Ġshows": 3040,
      "ribute": 3041,
      "Ġquery": 3042,
      "Ġengine": 3043,
      "po": 3044,
      "'.": 3045,
      "result": 3046,
      "Ġplant": 3047,
      "err": 3048,
      "âĢľ": 3049,
      "ribution": 3050,
      "Ġ))))": 3051,
      "Ġsource": 3052,
      "gment": 3053,
      "ording": 3054,
      "Ġpap": 3055,
      "ids": 3056,
      "Ġemp": 3057,
      "ĠNOT": 3058,
      "Data": 3059,
      "Ġrules": 3060,
      "ME": 3061,
      "Ġprevious": 3062,
      "Ġgenerate": 3063,
      "bf": 3064,
      "Ġperformance": 3065,
      "ye": 3066,
      "Ġcame": 3067,
      "ector": 3068,
      "pose": 3069,
      "Ġkeys": 3070,
      "Ġshell": 3071,
      "ĠÂ": 3072,
      "Ġvisual": 3073,
      "Ġnear": 3074,
      "Ġthought": 3075,
      "\"}],": 3076,
      "verage": 3077,
      "Ġhaving": 3078,
      "Ġfood": 3079,
      "book": 3080,
      "ĠSet": 3081,
      "nswer": 3082,
      "button": 3083,
      "Mod": 3084,
      "ope": 3085,
      "nodes": 3086,
      "ERR": 3087,
      "Ġenough": 3088,
      "Ġbecome": 3089,
      "case": 3090,
      "labor": 3091,
      "Ġvalidation": 3092,
      "ĠURL": 3093,
      "ered": 3094,
      "Ġcome": 3095,
      "allocator": 3096,
      "Ġlearn": 3097,
      "Ġnavig": 3098,
      "atory": 3099,
      "Ġbal": 3100,
      "apsh": 3101,
      "perature": 3102,
      "ĠCons": 3103,
      "Ġonce": 3104,
      "$.": 3105,
      "Ġmer": 3106,
      "ĠAI": 3107,
      "patch": 3108,
      "Ġexamples": 3109,
      "arguments": 3110,
      "ired": 3111,
      "Ġweight": 3112,
      "Ġrisk": 3113,
      "Ġopp": 3114,
      "Ġfine": 3115,
      "bit": 3116,
      "]\"": 3117,
      "Ġfrequ": 3118,
      "Ġalign": 3119,
      "utes": 3120,
      "Ġprogress": 3121,
      "Ġtrack": 3122,
      "ION": 3123,
      "ls": 3124,
      "ĠTYPE": 3125,
      "iveness": 3126,
      "Ġfac": 3127,
      "xffff": 3128,
      "bash": 3129,
      "ini": 3130,
      "ooks": 3131,
      "ters": 3132,
      "Ġexperience": 3133,
      "Un": 3134,
      "TE": 3135,
      "mut": 3136,
      "ior": 3137,
      "âĶĢâĶĢâĶĢâĶĢâĶĢâĶĢâĶĢâĶĢâĶĢâĶĢâĶĢâĶĢâĶĢâĶĢâĶĢâĶĢ": 3138,
      ")]": 3139,
      "Ġmethods": 3140,
      "Ġphys": 3141,
      "Ġrelevant": 3142,
      "Ġbehavior": 3143,
      "Instruction": 3144,
      "Ġop": 3145,
      "bt": 3146,
      "haps": 3147,
      "Ġthough": 3148,
      "Ġrequired": 3149,
      "What": 3150,
      "Ġecho": 3151,
      "Ġhalf": 3152,
      "iddle": 3153,
      "token": 3154,
      "Ġnormal": 3155,
      "ply": 3156,
      "txt": 3157,
      "lu": 3158,
      "Ġsignific": 3159,
      "utions": 3160,
      "bc": 3161,
      "Ġround": 3162,
      "Ġmaking": 3163,
      "go": 3164,
      "Ġfurther": 3165,
      "Ġdevelopment": 3166,
      "Name": 3167,
      "append": 3168,
      "ortun": 3169,
      "Ġseems": 3170,
      "ĠRec": 3171,
      "Ġconcer": 3172,
      ",_": 3173,
      "fp": 3174,
      "lished": 3175,
      "Ġimpact": 3176,
      "Ġtimeout": 3177,
      "Ġcapt": 3178,
      "^^": 3179,
      "DE": 3180,
      "CI": 3181,
      "Ġ'.": 3182,
      "Ġdirectly": 3183,
      "ĠDo": 3184,
      "Ġmaterial": 3185,
      "soci": 3186,
      "antly": 3187,
      "Ġsat": 3188,
      "Ġrelations": 3189,
      "Ġach": 3190,
      "omen": 3191,
      "ration": 3192,
      "Ġgraph": 3193,
      "offset": 3194,
      "Ġsockaddr": 3195,
      "Ġdescri": 3196,
      "ĠAd": 3197,
      "ĊĠĠĠĠĠĠĠĠ": 3198,
      "Ġdest": 3199,
      "ĠIN": 3200,
      "MP": 3201,
      "Ġstudy": 3202,
      "Ġsteps": 3203,
      "plate": 3204,
      "aus": 3205,
      "rown": 3206,
      "Ġinv": 3207,
      "Ġalgorith": 3208,
      "/\\": 3209,
      "Ġcannot": 3210,
      "Ġframework": 3211,
      "Ġchildren": 3212,
      "Cl": 3213,
      "Ġheight": 3214,
      "State": 3215,
      "Ġenergy": 3216,
      "Ġstream": 3217,
      "Ġapplication": 3218,
      "Ġess": 3219,
      "Ġfall": 3220,
      "Ġprovided": 3221,
      "Ġstre": 3222,
      "Ġneg": 3223,
      "SET": 3224,
      "ĠMan": 3225,
      "ĠJSON": 3226,
      "ensor": 3227,
      "Ġtraining": 3228,
      "Ġnatural": 3229,
      "XIT": 3230,
      "pace": 3231,
      "ĠAt": 3232,
      "Ġground": 3233,
      "Ġperiod": 3234,
      "www": 3235,
      "Ġeither": 3236,
      "oms": 3237,
      "Ġapply": 3238,
      "Ġwhy": 3239,
      "Ġflex": 3240,
      "Ġbytes": 3241,
      "image": 3242,
      "ĠFr": 3243,
      ",(": 3244,
      "lice": 3245,
      "edges": 3246,
      "Ġsrc": 3247,
      "sum": 3248,
      "buf": 3249,
      "ump": 3250,
      "Ġseen": 3251,
      "ĠThen": 3252,
      "HE": 3253,
      "Ġjo": 3254,
      "ĠMe": 3255,
      "ĠNot": 3256,
      "Ġtreat": 3257,
      "Ġcause": 3258,
      "Ġinvest": 3259,
      "ĠRem": 3260,
      "model": 3261,
      "vert": 3262,
      "Ġuses": 3263,
      "oups": 3264,
      "Ġrunning": 3265,
      "ores": 3266,
      "Ġ_>": 3267,
      "Ġappear": 3268,
      ".)": 3269,
      "Ġstra": 3270,
      "Count": 3271,
      "ulate": 3272,
      "Wh": 3273,
      "known": 3274,
      "Ġ<=": 3275,
      "isms": 3276,
      "ands": 3277,
      "Ġbusiness": 3278,
      "Ġfeature": 3279,
      "https": 3280,
      "Ġcompre": 3281,
      "Ġsl": 3282,
      "ached": 3283,
      "Ġcat": 3284,
      "rap": 3285,
      "ZEXT": 3286,
      "umber": 3287,
      "box": 3288,
      "({": 3289,
      "Ġmiss": 3290,
      "LAB": 3291,
      "Ġmag": 3292,
      "ellig": 3293,
      "Ġnames": 3294,
      "fect": 3295,
      "Ġitself": 3296,
      "mark": 3297,
      "clusion": 3298,
      "Ġchain": 3299,
      "Ġstudents": 3300,
      "Ġgoing": 3301,
      "Ġinterest": 3302,
      "lines": 3303,
      "Ġfetch": 3304,
      "ĠData": 3305,
      "hentication": 3306,
      "****": 3307,
      "Ġcross": 3308,
      "Ġattacker": 3309,
      "Ġmatrix": 3310,
      "Ġplants": 3311,
      "Ġlanguage": 3312,
      "Ġoperations": 3313,
      "NULL": 3314,
      "Ġdri": 3315,
      "Ġconnection": 3316,
      "\";": 3317,
      "ellow": 3318,
      "leep": 3319,
      "sv": 3320,
      "itation": 3321,
      "Ġgrep": 3322,
      "pping": 3323,
      "ios": 3324,
      "lation": 3325,
      "Ġisol": 3326,
      "Ġparticular": 3327,
      "ĠAtt": 3328,
      "agraph": 3329,
      "================================": 3330,
      "}},": 3331,
      "Ġair": 3332,
      "lip": 3333,
      "Invalid": 3334,
      "Ġadded": 3335,
      "Node": 3336,
      "Ġtitle": 3337,
      "bl": 3338,
      "ĠAll": 3339,
      "Ġstorage": 3340,
      "Ġblack": 3341,
      "Ġarguments": 3342,
      "Ġdate": 3343,
      "tools": 3344,
      "RBP": 3345,
      "stri": 3346,
      "Ġaccur": 3347,
      "Ġ*)&": 3348,
      "ðŁ": 3349,
      "Ġstat": 3350,
      "ison": 3351,
      "Ġdistance": 3352,
      "âĢĵ": 3353,
      "Ġresources": 3354,
      "adata": 3355,
      "Ġcalcul": 3356,
      "Ġarea": 3357,
      "Ġlibrary": 3358,
      "Ġissues": 3359,
      "Ġut": 3360,
      "Ġq": 3361,
      "Ġgrid": 3362,
      "pbVar": 3363,
      "Ġanim": 3364,
      "Ġcomment": 3365,
      "ERROR": 3366,
      "Ġtable": 3367,
      "Ġprof": 3368,
      "UM": 3369,
      "ategory": 3370,
      "iance": 3371,
      "tings": 3372,
      "Ġtransform": 3373,
      "etimes": 3374,
      "ĠOR": 3375,
      "Ġbroad": 3376,
      "Ġtok": 3377,
      "Ġmakes": 3378,
      "By": 3379,
      "Ġmatches": 3380,
      "dc": 3381,
      "ea": 3382,
      "iques": 3383,
      "fc": 3384,
      "pecially": 3385,
      "vention": 3386,
      "Ġextra": 3387,
      "Ġentry": 3388,
      "asing": 3389,
      "Ġfra": 3390,
      "SP": 3391,
      ")}": 3392,
      "Ġbelow": 3393,
      "Ġbuilt": 3394,
      "Ġdiscover": 3395,
      "reloc": 3396,
      "unit": 3397,
      "Ġfeet": 3398,
      "Ġinterpre": 3399,
      "Ġattempt": 3400,
      "Ġschem": 3401,
      "Ġupdated": 3402,
      "Ġsequ": 3403,
      "Ġgover": 3404,
      "ography": 3405,
      "Ġmus": 3406,
      "UR": 3407,
      "Ġstandard": 3408,
      "da": 3409,
      "Ġtechnical": 3410,
      "Ġhowever": 3411,
      "click": 3412,
      "Ġfeel": 3413,
      "Ġcomprehen": 3414,
      "../../": 3415,
      "Ġproduction": 3416,
      "etail": 3417,
      "Ġlive": 3418,
      "Ġcourse": 3419,
      "Ġ`/": 3420,
      "Ġ\")": 3421,
      "Ġexpected": 3422,
      "GTH": 3423,
      "Do": 3424,
      "Ġschool": 3425,
      "Ġwhole": 3426,
      "Ġaud": 3427,
      "App": 3428,
      "Ġconditions": 3429,
      "Ġcal": 3430,
      "izes": 3431,
      "Ġyoung": 3432,
      "integer": 3433,
      "Ġborder": 3434,
      "Ġrole": 3435,
      "ury": 3436,
      "rong": 3437,
      "));\\": 3438,
      "obj": 3439,
      "Ġcult": 3440,
      "FAIL": 3441,
      "Ġseed": 3442,
      "gets": 3443,
      "ender": 3444,
      "Ġspeed": 3445,
      "LENGTH": 3446,
      "ĠRo": 3447,
      "\"]},": 3448,
      "Ġthird": 3449,
      "().": 3450,
      "ĠSystem": 3451,
      "itoring": 3452,
      ",âĢĿ": 3453,
      "ĠNow": 3454,
      "Ġcore": 3455,
      "uid": 3456,
      "Ġtail": 3457,
      "Ġmodules": 3458,
      "ĠCalculate": 3459,
      "Ġoffer": 3460,
      "Ġaway": 3461,
      "sole": 3462,
      "Ġexactly": 3463,
      "Ġparagraph": 3464,
      "Ġnecessary": 3465,
      "ĠFile": 3466,
      "_).": 3467,
      "Ġtu": 3468,
      "iting": 3469,
      "stream": 3470,
      "Ġlikely": 3471,
      "Ġestab": 3472,
      "Ġpy": 3473,
      "Ġinj": 3474,
      "Ġconcept": 3475,
      "Ġcontains": 3476,
      "dest": 3477,
      "Pl": 3478,
      "([": 3479,
      "ta": 3480,
      "SUBPIECE": 3481,
      "pol": 3482,
      "address": 3483,
      "apshot": 3484,
      "Ġwhose": 3485,
      "pper": 3486,
      "Ġ>=": 3487,
      "browser": 3488,
      "comple": 3489,
      "Ġnested": 3490,
      "Ġeduc": 3491,
      "ĠCR": 3492,
      "Ġsit": 3493,
      "UD": 3494,
      "clude": 3495,
      ")`": 3496,
      "Ġbutton": 3497,
      "Ġhold": 3498,
      "sequence": 3499,
      "limit": 3500,
      "Ġpair": 3501,
      "bs": 3502,
      "words": 3503,
      "Act": 3504,
      "Ġreasoning": 3505,
      "Ġhost": 3506,
      "aching": 3507,
      "Ġblo": 3508,
      "ding": 3509,
      "####": 3510,
      "Ġemail": 3511,
      "Ġseem": 3512,
      "spec": 3513,
      "Ġcharacters": 3514,
      "routine": 3515,
      "ql": 3516,
      "Ġconcerns": 3517,
      "Ġloss": 3518,
      "ĠPre": 3519,
      "Ġreview": 3520,
      "Ġdescription": 3521,
      "Ġprinciples": 3522,
      "uit": 3523,
      "array": 3524,
      "env": 3525,
      "PO": 3526,
      "Ġfprintf": 3527,
      "FS": 3528,
      "Ġ['": 3529,
      "Ġscen": 3530,
      "Ġproto": 3531,
      "Ġstrcpy": 3532,
      "berg": 3533,
      "packages": 3534,
      "une": 3535,
      "Ġ@": 3536,
      "Ġmass": 3537,
      "Ġshared": 3538,
      "Ġreplaced": 3539,
      "ponents": 3540,
      "ledge": 3541,
      "Ġpress": 3542,
      "argv": 3543,
      "atform": 3544,
      "Ġworkspace": 3545,
      "Ġsection": 3546,
      "ĠWebSocket": 3547,
      "lict": 3548,
      "ĠInitial": 3549,
      "signed": 3550,
      "ĠGr": 3551,
      "mem": 3552,
      "ai": 3553,
      "Ġpast": 3554,
      "Ġprompt": 3555,
      "ĠOne": 3556,
      "Ġunderstanding": 3557,
      "oney": 3558,
      "ĠEv": 3559,
      "Ġsoft": 3560,
      "Ġunit": 3561,
      "ĠLo": 3562,
      "ilit": 3563,
      "find": 3564,
      "null": 3565,
      "ĠConsider": 3566,
      "Ġrecogn": 3567,
      "strcmp": 3568,
      "idden": 3569,
      "top": 3570,
      "web": 3571,
      "omic": 3572,
      "ĠWith": 3573,
      "Ġ(`": 3574,
      "ĠSc": 3575,
      "body": 3576,
      "Ġstore": 3577,
      "INET": 3578,
      "main": 3579,
      "Ġintrodu": 3580,
      "Ġrelationship": 3581,
      "acity": 3582,
      "Ġproblems": 3583,
      "Ġtaken": 3584,
      "alls": 3585,
      "Ġcard": 3586,
      "FAILURE": 3587,
      "Ġ~": 3588,
      "flo": 3589,
      "ĠAfter": 3590,
      "ones": 3591,
      "Ġcollabor": 3592,
      "\"}]}": 3593,
      "Ġwindow": 3594,
      "root": 3595,
      "cell": 3596,
      "ĠEn": 3597,
      "entry": 3598,
      "oph": 3599,
      "Ġur": 3600,
      "SLESS": 3601,
      "times": 3602,
      "Ġawait": 3603,
      "Ġable": 3604,
      "Ġimages": 3605,
      "dec": 3606,
      "ĠState": 3607,
      "Ġgovern": 3608,
      "ĠProject": 3609,
      "Ġessential": 3610,
      "licit": 3611,
      "Ġextension": 3612,
      "reshold": 3613,
      "Ġcreating": 3614,
      "Ġmicro": 3615,
      "Ġ*__": 3616,
      "Ġvariable": 3617,
      "Ġstatement": 3618,
      "Ġpackage": 3619,
      "ading": 3620,
      "Ġseparate": 3621,
      "Ġclearly": 3622,
      "elligence": 3623,
      "impl": 3624,
      "Ġones": 3625,
      "Ġtrying": 3626,
      "Ġdraw": 3627,
      "olve": 3628,
      "derr": 3629,
      "ĠsVar": 3630,
      "Ġespecially": 3631,
      "Col": 3632,
      "security": 3633,
      "width": 3634,
      "Ġri": 3635,
      "sive": 3636,
      "iding": 3637,
      "âĸĪ": 3638,
      "Ġparameters": 3639,
      "thing": 3640,
      "Ġsmo": 3641,
      "Ġ,_": 3642,
      "Ġbi": 3643,
      "Time": 3644,
      "ĠUser": 3645,
      "?\"": 3646,
      "Ġpages": 3647,
      "Ġauthor": 3648,
      "Ġexam": 3649,
      "Ġdistinct": 3650,
      "uss": 3651,
      "ram": 3652,
      "Ġseparation": 3653,
      "Ġexecut": 3654,
      "Ġfclose": 3655,
      "Ġprocessing": 3656,
      "Ġchalleng": 3657,
      "ĠUX": 3658,
      "EM": 3659,
      "DS": 3660,
      "Ġprop": 3661,
      "ops": 3662,
      "raw": 3663,
      "orch": 3664,
      "Ġmarg": 3665,
      "Ġfill": 3666,
      "Ġmot": 3667,
      "vis": 3668,
      "istance": 3669,
      "Ġincident": 3670,
      "ĠâĶĶ": 3671,
      "ager": 3672,
      "Ġadapt": 3673,
      "Ġage": 3674,
      "Ġdelete": 3675,
      "ĠGet": 3676,
      "ĠBe": 3677,
      "ming": 3678,
      "loads": 3679,
      "istor": 3680,
      "ĠSu": 3681,
      "Ġextract": 3682,
      "};": 3683,
      "ulong": 3684,
      "Us": 3685,
      "Ġrequires": 3686,
      "ales": 3687,
      "Ġcloud": 3688,
      "Ġrows": 3689,
      "tons": 3690,
      "Ġcritical": 3691,
      "though": 3692,
      "tect": 3693,
      "version": 3694,
      "Ġassert": 3695,
      "Ġrob": 3696,
      "Ġcompos": 3697,
      "ashboard": 3698,
      "(*(": 3699,
      "Ġforms": 3700,
      "au": 3701,
      "aches": 3702,
      "Ġang": 3703,
      "respon": 3704,
      "thunk": 3705,
      "rac": 3706,
      "Ġtemp": 3707,
      "Ġsplit": 3708,
      "Ġdynam": 3709,
      "uten": 3710,
      "Ġtrig": 3711,
      "Ġreflect": 3712,
      "export": 3713,
      "Ġcou": 3714,
      "ĠDef": 3715,
      "Ġtrust": 3716,
      "att": 3717,
      "irt": 3718,
      "Ġcut": 3719,
      "Ġtemperature": 3720,
      "dr": 3721,
      "Ġremo": 3722,
      "Ġteam": 3723,
      "ifications": 3724,
      "Mini": 3725,
      "selves": 3726,
      "conf": 3727,
      "Ġrisks": 3728,
      "Ġpredict": 3729,
      "Ġobt": 3730,
      "Ġexplicit": 3731,
      "ĠSubroutine": 3732,
      "lied": 3733,
      "onstr": 3734,
      "Ġwidth": 3735,
      "Ġsample": 3736,
      "ĠAss": 3737,
      "venv": 3738,
      ")\",": 3739,
      "Ġzero": 3740,
      "ĠEach": 3741,
      "TER": 3742,
      "Ġbar": 3743,
      "ĠAL": 3744,
      "All": 3745,
      "Add": 3746,
      "Ġcolumn": 3747,
      "Ġ${": 3748,
      "Ġprovides": 3749,
      "dep": 3750,
      "writ": 3751,
      "Ġmap": 3752,
      "query": 3753,
      "Ġbra": 3754,
      "Ġmessages": 3755,
      "ĠDes": 3756,
      "Ġequal": 3757,
      "Ġbegin": 3758,
      "acts": 3759,
      "ighb": 3760,
      "tical": 3761,
      "Ġprice": 3762,
      "Ġpositive": 3763,
      "card": 3764,
      "amed": 3765,
      "IS": 3766,
      "Ġbenef": 3767,
      "create": 3768,
      "Ġscore": 3769,
      "ĠSim": 3770,
      "option": 3771,
      "Ġsens": 3772,
      "Ġsqu": 3773,
      "Ġ[]": 3774,
      "ĠPost": 3775,
      "color": 3776,
      "OFF": 3777,
      "Ġaffect": 3778,
      "weight": 3779,
      "ival": 3780,
      "').": 3781,
      "Ġedge": 3782,
      "Ġgrowth": 3783,
      "Ġdetails": 3784,
      "iter": 3785,
      "isk": 3786,
      "left": 3787,
      "Ġperhaps": 3788,
      "Ġactions": 3789,
      "chron": 3790,
      "No": 3791,
      "ĠPer": 3792,
      "connect": 3793,
      "ooking": 3794,
      "ĠControl": 3795,
      "ango": 3796,
      "Ġrecent": 3797,
      "ythosMini": 3798,
      "Ġbecomes": 3799,
      "ohn": 3800,
      "Ġshare": 3801,
      "filename": 3802,
      "di": 3803,
      "Ġdetect": 3804,
      "Val": 3805,
      "Ġenter": 3806,
      "Ġseconds": 3807,
      "Ġcountry": 3808,
      "ĠAut": 3809,
      "Ġ]": 3810,
      "Ġgreen": 3811,
      "Ġmis": 3812,
      "Ser": 3813,
      "Ġbeh": 3814,
      "Ġthus": 3815,
      "ĠReg": 3816,
      "Ġcomprom": 3817,
      "olean": 3818,
      "Ġbit": 3819,
      "Ġallows": 3820,
      "first": 3821,
      "lint": 3822,
      "Ġassoci": 3823,
      "ĠOK": 3824,
      "Ġpipe": 3825,
      "ĠDAT": 3826,
      "Ġtags": 3827,
      "True": 3828,
      "Ġverify": 3829,
      "uck": 3830,
      "ĠSome": 3831,
      "etime": 3832,
      "Ġaff": 3833,
      "iversity": 3834,
      "Ġtrad": 3835,
      "Ġexpos": 3836,
      "Ġservices": 3837,
      "join": 3838,
      "total": 3839,
      "PUSH": 3840,
      "Ġmind": 3841,
      "Ġusually": 3842,
      "elcome": 3843,
      "Ġmalloc": 3844,
      "inner": 3845,
      "AG": 3846,
      "Ġpassed": 3847,
      "fix": 3848,
      "tim": 3849,
      "Ġadj": 3850,
      "ierarch": 3851,
      "Ġsubject": 3852,
      "Ġwent": 3853,
      "stderr": 3854,
      "Ġweek": 3855,
      "Ġregard": 3856,
      "Ġmonths": 3857,
      "Type": 3858,
      "Ġill": 3859,
      "...\\": 3860,
      "uro": 3861,
      "sem": 3862,
      "Ġchecks": 3863,
      "Ġparse": 3864,
      "Ġassum": 3865,
      "xy": 3866,
      "Ġconvert": 3867,
      "Vector": 3868,
      "Ġbool": 3869,
      "Ġax": 3870,
      "Ġstrategies": 3871,
      "BU": 3872,
      "ians": 3873,
      "player": 3874,
      "Ġ*)*": 3875,
      "Ġgrad": 3876,
      "None": 3877,
      "free": 3878,
      ")))))": 3879,
      "Ġraise": 3880,
      "format": 3881,
      "Ġge": 3882,
      "Ġremove": 3883,
      "Ġjour": 3884,
      "Ġactually": 3885,
      "ounds": 3886,
      "cache": 3887,
      "aged": 3888,
      "ĠList": 3889,
      "annel": 3890,
      "iff": 3891,
      "Ġdemonstr": 3892,
      "Ġdeb": 3893,
      "orrect": 3894,
      "ĊĠĠĠĠĠ": 3895,
      "ĠUp": 3896,
      "Ġsupports": 3897,
      "Ġcyber": 3898,
      "ĠAnalysis": 3899,
      "losed": 3900,
      "RIGHT": 3901,
      "Ġcompl": 3902,
      "Ġmaj": 3903,
      "),\\": 3904,
      "Ġla": 3905,
      "ament": 3906,
      "Ġrepe": 3907,
      "IC": 3908,
      "pi": 3909,
      "aim": 3910,
      "post": 3911,
      "dom": 3912,
      "Ġscre": 3913,
      "Ġterms": 3914,
      "Ġactiv": 3915,
      "Ġminutes": 3916,
      "header": 3917,
      "tod": 3918,
      "Ġthing": 3919,
      "()\\": 3920,
      "ressed": 3921,
      "=\")": 3922,
      "Ġbird": 3923,
      "AP": 3924,
      "Ġsil": 3925,
      "cons": 3926,
      "Ġpermission": 3927,
      "oss": 3928,
      "Ġcorrectly": 3929,
      "ĠMon": 3930,
      "Ġstyle": 3931,
      "\\\">\\": 3932,
      "lVar": 3933,
      "===": 3934,
      "Ġcopy": 3935,
      "Ġfish": 3936,
      "Ġprinciple": 3937,
      "password": 3938,
      "Ġmach": 3939,
      "Ġobser": 3940,
      "isf": 3941,
      "fb": 3942,
      "Ġenh": 3943,
      "Ġbinary": 3944,
      "uff": 3945,
      "ĠAmerican": 3946,
      "oice": 3947,
      "Ġindu": 3948,
      "Key": 3949,
      "Ġhigher": 3950,
      "At": 3951,
      "Ġmiddle": 3952,
      "eting": 3953,
      "Ġonline": 3954,
      "Ġmovement": 3955,
      "Ġreading": 3956,
      "Ġmeasure": 3957,
      "Ġcells": 3958,
      "ĠâĢĺ": 3959,
      "US": 3960,
      "ĠAcc": 3961,
      "Ġhor": 3962,
      "ĠSO": 3963,
      "Ġconfiguration": 3964,
      "Def": 3965,
      "âĸĪâĸĪ": 3966,
      "Ġsynt": 3967,
      "ĠInst": 3968,
      "asoning": 3969,
      "Ġing": 3970,
      "ev": 3971,
      "Ġlate": 3972,
      "acing": 3973,
      "bre": 3974,
      "Ġinsert": 3975,
      "oding": 3976,
      "Ġfactors": 3977,
      "Ġjob": 3978,
      "Ġpersistence": 3979,
      "OFFSET": 3980,
      "Ed": 3981,
      "na": 3982,
      "Ġsem": 3983,
      "Ġtokens": 3984,
      "Ġintegration": 3985,
      "Ġscale": 3986,
      "ĠSp": 3987,
      "Ġkill": 3988,
      "Ġmut": 3989,
      "Ġcollect": 3990,
      "malloc": 3991,
      "rics": 3992,
      "ords": 3993,
      "only": 3994,
      "Ġaverage": 3995,
      "Ġfailures": 3996,
      "Ġparameter": 3997,
      "dat": 3998,
      "Ġpaper": 3999,
      "Ġobjects": 4000,
      "ster": 4001,
      "'d": 4002,
      "())": 4003,
      "()\"": 4004,
      "ĠShe": 4005,
      "abit": 4006,
      "ief": 4007,
      "Ġthinking": 4008,
      "Ġlists": 4009,
      "session": 4010,
      "Ġemploy": 4011,
      "aster": 4012,
      "Ġbad": 4013,
      "atively": 4014,
      "Context": 4015,
      "Ġaccording": 4016,
      "Ġencount": 4017,
      "ĠMy": 4018,
      "Ġcalling": 4019,
      "Ġachieve": 4020,
      "ips": 4021,
      "bytes": 4022,
      "Ġquestions": 4023,
      "Ġnumer": 4024,
      "utenberg": 4025,
      "Â¬": 4026,
      "attern": 4027,
      "Ġfamily": 4028,
      "Ġrecover": 4029,
      "BX": 4030,
      "Ġdomain": 4031,
      "Ġvulnerabilities": 4032,
      "Ġsync": 4033,
      "parse": 4034,
      "Ġinflu": 4035,
      "ĠEffect": 4036,
      "When": 4037,
      "Ġnp": 4038,
      "definition": 4039,
      "Ġdirection": 4040,
      "Ġ'/": 4041,
      "Ġjson": 4042,
      "Ġeffects": 4043,
      "Ġreduce": 4044,
      "ugg": 4045,
      "EDI": 4046,
      "Ġtrees": 4047,
      "Ġcirc": 4048,
      "iece": 4049,
      "Ġquite": 4050,
      "Ġactive": 4051,
      "Ġlarger": 4052,
      "Task": 4053,
      "Ġlock": 4054,
      "Ġsometimes": 4055,
      "Ġhierarch": 4056,
      "arily": 4057,
      "Ġconsistent": 4058,
      "Ġdifference": 4059,
      "ĠFILE": 4060,
      "typ": 4061,
      "Ġforce": 4062,
      "Ġalgorithm": 4063,
      "Ġmatter": 4064,
      "Ġdark": 4065,
      "ele": 4066,
      "Ġvariables": 4067,
      "Ġsty": 4068,
      "Ġlabel": 4069,
      "On": 4070,
      "Ġfopen": 4071,
      "'\\": 4072,
      "Ġder": 4073,
      "Ġcommands": 4074,
      "Ġfields": 4075,
      "Ġimmediately": 4076,
      "II": 4077,
      "Ġdim": 4078,
      "><": 4079,
      "Ġinfo": 4080,
      "Ġtakes": 4081,
      "rows": 4082,
      "ĠTime": 4083,
      "Ġevalu": 4084,
      "Ġgroups": 4085,
      "):\\": 4086,
      "avor": 4087,
      "room": 4088,
      "ĠâĢ¦": 4089,
      "rypted": 4090,
      "Ġbox": 4091,
      "ught": 4092,
      ")&": 4093,
      "Ġmaybe": 4094,
      "where": 4095,
      "asion": 4096,
      "ĠÃ": 4097,
      "');\\": 4098,
      "Ġsubst": 4099,
      "symbol": 4100,
      "WT": 4101,
      "âĶľâĶĢâĶĢ": 4102,
      "Ġoperation": 4103,
      "Ġ}))": 4104,
      "ideo": 4105,
      "Ġclick": 4106,
      "Ġ});\\": 4107,
      "Ġ./": 4108,
      "`)": 4109,
      "igation": 4110,
      "ĠMay": 4111,
      "Ġalmost": 4112,
      "Ġmatching": 4113,
      "Ġhouse": 4114,
      "MythosMini": 4115,
      "coming": 4116,
      "DX": 4117,
      "Ġshape": 4118,
      "Ġsolid": 4119,
      "Ġcommit": 4120,
      ",&": 4121,
      "EL": 4122,
      "ĠComp": 4123,
      "ĠAttack": 4124,
      "Ġactual": 4125,
      "Ġpadd": 4126,
      "essment": 4127,
      "Ġdependencies": 4128,
      "Ġheav": 4129,
      "Ġadvanced": 4130,
      "http": 4131,
      "Ġaltern": 4132,
      "){": 4133,
      "fr": 4134,
      "force": 4135,
      "Ġstrings": 4136,
      "Ġcomb": 4137,
      "che": 4138,
      "pped": 4139,
      "ĊĠĠĠĠĠĠĠĠĠĠĠĠĠĠĠ": 4140,
      "ula": 4141,
      "oper": 4142,
      "uncated": 4143,
      "link": 4144,
      "SEXT": 4145,
      "Ġann": 4146,
      "Ġseries": 4147,
      "Ġsun": 4148,
      "used": 4149,
      "ceived": 4150,
      "Ġshown": 4151,
      "Ġrequirements": 4152,
      "Ġheading": 4153,
      "Ġoptions": 4154,
      "ened": 4155,
      "Ġmom": 4156,
      "filter": 4157,
      "Ġmar": 4158,
      "Ġincrease": 4159,
      "Ġregion": 4160,
      "Ġfactor": 4161,
      "Ġclar": 4162,
      "OM": 4163,
      "Path": 4164,
      "Ġslow": 4165,
      "Ġrule": 4166,
      "ĠPar": 4167,
      "Ġdevice": 4168,
      "endor": 4169,
      "Ġmention": 4170,
      "erson": 4171,
      "Ġ$$": 4172,
      "ĠâĶĶâĶĢâĶĢ": 4173,
      "Ġsense": 4174,
      "iful": 4175,
      "Ġrich": 4176,
      "bx": 4177,
      "ously": 4178,
      "(__": 4179,
      "Ġtechniques": 4180,
      "Ind": 4181,
      "Ġexpression": 4182,
      "cer": 4183,
      "Ġdeliver": 4184,
      "He": 4185,
      "Ġprivile": 4186,
      "ference": 4187,
      "Ġbig": 4188,
      "Ġproduce": 4189,
      "Ġbeaut": 4190,
      "hash": 4191,
      "core": 4192,
      "Ġabs": 4193,
      "ĠMore": 4194,
      "Ġ\"*\")": 4195,
      "atives": 4196,
      "tm": 4197,
      "mode": 4198,
      "Ġinteractive": 4199,
      "ĠEdit": 4200,
      "Ġsummary": 4201,
      "Ġeff": 4202,
      "Ġmissing": 4203,
      "Ġpreser": 4204,
      "Ġappropri": 4205,
      "rate": 4206,
      "Ġoffset": 4207,
      "weet": 4208,
      "Ġplatform": 4209,
      "Ġpython": 4210,
      "Ġdise": 4211,
      "Ġpars": 4212,
      "Ġlooking": 4213,
      "agine": 4214,
      "ĠST": 4215,
      "**(": 4216,
      "EXIT": 4217,
      "apter": 4218,
      "Ġsolutions": 4219,
      "Ġnature": 4220,
      "Ġsitu": 4221,
      "bra": 4222,
      "stry": 4223,
      "edit": 4224,
      "Ġminimal": 4225,
      "ottom": 4226,
      "ĠBo": 4227,
      "Ġstop": 4228,
      "ĠOver": 4229,
      "Reasoning": 4230,
      "Ġflows": 4231,
      "Ġtowards": 4232,
      "Ġhttp": 4233,
      "Ġexists": 4234,
      "TT": 4235,
      "ĠDr": 4236,
      "Ġten": 4237,
      "wo": 4238,
      "Ġbuilding": 4239,
      "andid": 4240,
      "Ġmetadata": 4241,
      "Each": 4242,
      "Ġcomprehensive": 4243,
      "Ġpercent": 4244,
      "ients": 4245,
      "Ġmill": 4246,
      "Ġ\"\"": 4247,
      "Ġcorrespon": 4248,
      "Ġgot": 4249,
      "aude": 4250,
      "Content": 4251,
      "Ġcache": 4252,
      "Ġmental": 4253,
      "empor": 4254,
      "Ġprimary": 4255,
      "Ġsegment": 4256,
      "Ġwrong": 4257,
      "terminal": 4258,
      "Ġstdin": 4259,
      "ina": 4260,
      "sm": 4261,
      "Ġwar": 4262,
      "Ġheart": 4263,
      "Ġyield": 4264,
      "Ġsoci": 4265,
      "aset": 4266,
      "equ": 4267,
      "Ġprotect": 4268,
      "Thus": 4269,
      "ĠOpen": 4270,
      "Ġtesting": 4271,
      "Sh": 4272,
      "ying": 4273,
      "Ġsatisf": 4274,
      "which": 4275,
      "atically": 4276,
      "exit": 4277,
      "Ġpractices": 4278,
      "ĠCode": 4279,
      "ackend": 4280,
      "ĠTra": 4281,
      "fa": 4282,
      "Ġscient": 4283,
      "ney": 4284,
      "Ġremaining": 4285,
      "allel": 4286,
      "Ġconflict": 4287,
      "build": 4288,
      "sn": 4289,
      "âķĲâķĲâķĲâķĲ": 4290,
      "Ġrecomm": 4291,
      "Ġexperi": 4292,
      "Ġquality": 4293,
      "ĠCo": 4294,
      "arth": 4295,
      "ike": 4296,
      "Ġeverything": 4297,
      "plan": 4298,
      "ried": 4299,
      "xim": 4300,
      "ĠpbVar": 4301,
      "ĠAlso": 4302,
      "AF": 4303,
      "lying": 4304,
      "ĠComm": 4305,
      "raft": 4306,
      "Ġsnipp": 4307,
      "Ġmor": 4308,
      "Ġstraight": 4309,
      "Ġleading": 4310,
      "ising": 4311,
      "lf": 4312,
      "Ġfront": 4313,
      "rie": 4314,
      "Ġgives": 4315,
      "Ġchallenges": 4316,
      "Ġefficient": 4317,
      "Ġmembers": 4318,
      "yes": 4319,
      "Ġediting": 4320,
      "tests": 4321,
      "ĠHTTP": 4322,
      "Ġche": 4323,
      "dword": 4324,
      "\",\"": 4325,
      "Ġplus": 4326,
      "Ġord": 4327,
      "Ġusage": 4328,
      "ung": 4329,
      "||": 4330,
      "Ġteach": 4331,
      "Select": 4332,
      "exec": 4333,
      "');": 4334,
      "orts": 4335,
      "anch": 4336,
      "Ġwritten": 4337,
      ").\\": 4338,
      "Ġful": 4339,
      "enum": 4340,
      "(\"../../": 4341,
      "ĠEm": 4342,
      "tation": 4343,
      "uild": 4344,
      "Ġchat": 4345,
      "Ġsignal": 4346,
      "lier": 4347,
      "ĠStates": 4348,
      "Ġindepend": 4349,
      "translation": 4350,
      "Ġinteger": 4351,
      "ĠValue": 4352,
      "Ġsuggest": 4353,
      "Ġpaths": 4354,
      "(\\": 4355,
      "send": 4356,
      "ĠTO": 4357,
      "Ġcomplet": 4358,
      "ĠStep": 4359,
      "Ġrelated": 4360,
      "page": 4361,
      "Ġmonitoring": 4362,
      "Ġexecute": 4363,
      "Ġpthread": 4364,
      "Ġobserv": 4365,
      "Ġpatch": 4366,
      "tract": 4367,
      "Ġtechnology": 4368,
      "Ġ(=": 4369,
      ".**": 4370,
      "ints": 4371,
      "Ġmix": 4372,
      "tag": 4373,
      "xffffffff": 4374,
      "Ġemerg": 4375,
      "ĠRAX": 4376,
      "Ġexpert": 4377,
      "Ġfit": 4378,
      "aved": 4379,
      "Ġconfirm": 4380,
      "ĠUnited": 4381,
      "ĠTest": 4382,
      "rist": 4383,
      "amily": 4384,
      "Ġsmooth": 4385,
      "Ġsix": 4386,
      "ebug": 4387,
      "Ġtoday": 4388,
      "An": 4389,
      "request": 4390,
      "lin": 4391,
      "sy": 4392,
      "cap": 4393,
      "Ġinternal": 4394,
      "adius": 4395,
      "grad": 4396,
      "Ġslight": 4397,
      "plications": 4398,
      "One": 4399,
      "vVar": 4400,
      "ĠFind": 4401,
      "Ġscripts": 4402,
      "Ġstarted": 4403,
      "ĠMath": 4404,
      "ĠWrite": 4405,
      "Ġlonger": 4406,
      "Ġfund": 4407,
      "Ġprotocol": 4408,
      "Event": 4409,
      "Ġfive": 4410,
      "Ġprec": 4411,
      "Ġremains": 4412,
      "Ġcalculate": 4413,
      "grid": 4414,
      "ĠSince": 4415,
      "Bo": 4416,
      "Ġsite": 4417,
      "Ġsleep": 4418,
      "itude": 4419,
      "Auth": 4420,
      "Ġ::": 4421,
      "ESI": 4422,
      "ĠCount": 4423,
      "Answer": 4424,
      "ley": 4425,
      "Ġ\"=\")": 4426,
      "DT": 4427,
      "Ġcombin": 4428,
      "Ġrapid": 4429,
      "Ġknowledge": 4430,
      "Ġtag": 4431,
      "Ġfilename": 4432,
      "double": 4433,
      "Ġrespond": 4434,
      "Ġtherefore": 4435,
      "Ġargv": 4436,
      "Ġappears": 4437,
      "ĠFrom": 4438,
      "Ġgreater": 4439,
      "(),": 4440,
      "ibly": 4441,
      "eff": 4442,
      "Ġcontinu": 4443,
      "Ġinstruction": 4444,
      "ĠPri": 4445,
      "RAX": 4446,
      "ĠTotal": 4447,
      "Ġperfect": 4448,
      "\";\\": 4449,
      "false": 4450,
      "annels": 4451,
      "avigate": 4452,
      "ights": 4453,
      "Ġmeaning": 4454,
      "xb": 4455,
      "ĠFunction": 4456,
      "Ġthemselves": 4457,
      "instance": 4458,
      "mar": 4459,
      "sen": 4460,
      "Ġdword": 4461,
      "Ġvi": 4462,
      "Ġoutside": 4463,
      "Ġsimpl": 4464,
      "ĠMar": 4465,
      "table": 4466,
      "-<": 4467,
      "iring": 4468,
      "ĠREST": 4469,
      "Ġalloc": 4470,
      "Ġstack": 4471,
      "Ġsorted": 4472,
      "Ġendpoints": 4473,
      "Ġsymbol": 4474,
      "!=": 4475,
      "Element": 4476,
      "pected": 4477,
      "reground": 4478,
      "ĠGe": 4479,
      "Ġevidence": 4480,
      "Ġdiag": 4481,
      "ili": 4482,
      "Ġadding": 4483,
      "Ġmodern": 4484,
      "Ġprobably": 4485,
      "Ġincludes": 4486,
      "Ġ\"__": 4487,
      "xa": 4488,
      "ngth": 4489,
      "can": 4490,
      "Ġleaves": 4491,
      "Ġmid": 4492,
      "Ġprev": 4493,
      "Ġways": 4494,
      "enerate": 4495,
      "Ġsequence": 4496,
      "Actually": 4497,
      "Ġdistribution": 4498,
      "Ġconsidered": 4499,
      "Ġthroughout": 4500,
      "Ġharm": 4501,
      "There": 4502,
      "ĠOutput": 4503,
      "qword": 4504,
      "Ġfresh": 4505,
      "ĠString": 4506,
      "edic": 4507,
      "Ġ$\\": 4508,
      "\":\"": 4509,
      "Ġregul": 4510,
      "ava": 4511,
      "style": 4512,
      "Ġblocks": 4513,
      "solute": 4514,
      "pip": 4515,
      "inally": 4516,
      "Ġregular": 4517,
      "Ġsolve": 4518,
      "ordin": 4519,
      "EC": 4520,
      "Ġdefined": 4521,
      "ĠFl": 4522,
      "Ġfigure": 4523,
      "Ġ^": 4524,
      "Ġattention": 4525,
      "Ġcook": 4526,
      "Ġbyte": 4527,
      "Ġvector": 4528,
      "Ġcausing": 4529,
      "Ġnegative": 4530,
      "Ġattacks": 4531,
      "ĠImplement": 4532,
      "rint": 4533,
      "sect": 4534,
      "RI": 4535,
      "Ġheuristic": 4536,
      "UT": 4537,
      "Hel": 4538,
      "Ġconsum": 4539,
      "calation": 4540,
      "De": 4541,
      "Ġmargin": 4542,
      "Ġbehind": 4543,
      "Ġdirectories": 4544,
      "Ġreve": 4545,
      "ursor": 4546,
      "Ġanything": 4547,
      "service": 4548,
      "bing": 4549,
      "Ġ**)": 4550,
      "holder": 4551,
      "Ġwants": 4552,
      "Ġprefer": 4553,
      "plot": 4554,
      "nDo": 4555,
      ">`": 4556,
      "Ġcru": 4557,
      "etection": 4558,
      "Ġmoving": 4559,
      "fact": 4560,
      "lay": 4561,
      "aining": 4562,
      "Ġdecom": 4563,
      "nLAB": 4564,
      "\"}},": 4565,
      "Ġnothing": 4566,
      "Script": 4567,
      "urally": 4568,
      "Ġthreats": 4569,
      "Ġcomes": 4570,
      "Ġprote": 4571,
      "Ġcollection": 4572,
      "train": 4573,
      "Item": 4574,
      "Ġcomplexity": 4575,
      "Ġtook": 4576,
      "Ġeffectiveness": 4577,
      "></": 4578,
      "otes": 4579,
      "Ġclust": 4580,
      "cr": 4581,
      "ĠEffects": 4582,
      "cles": 4583,
      "Ġoccurre": 4584,
      "Ġ};": 4585,
      "Ġfailure": 4586,
      "last": 4587,
      "FFER": 4588,
      "Ġcontaining": 4589,
      "Ġheuristics": 4590,
      "Ġbas": 4591,
      "Ġguid": 4592,
      "product": 4593,
      "fail": 4594,
      "\"}}": 4595,
      "Ġtheory": 4596,
      "Ġlayout": 4597,
      "Ġfriend": 4598,
      "hood": 4599,
      "Ġcentral": 4600,
      "ibr": 4601,
      "Ġcommunication": 4602,
      "ĠHigh": 4603,
      "Ġpick": 4604,
      "ributed": 4605,
      "ĠSuccess": 4606,
      "author": 4607,
      "Ġecon": 4608,
      "Ġruns": 4609,
      "icles": 4610,
      "rast": 4611,
      ">.": 4612,
      "WOR": 4613,
      "ĠDep": 4614,
      "Example": 4615,
      "Ġconnections": 4616,
      "Ġnamed": 4617,
      "Ġcompleted": 4618,
      "isions": 4619,
      "Ġpresence": 4620,
      "Max": 4621,
      "ĠAc": 4622,
      "Ġembed": 4623,
      "ĠSci": 4624,
      "ponent": 4625,
      "ĠFirst": 4626,
      "ĠTrans": 4627,
      "Ġrobust": 4628,
      "ĠALTER": 4629,
      "Ġface": 4630,
      "ptions": 4631,
      "Ġste": 4632,
      "Ġdeploy": 4633,
      "cli": 4634,
      "hib": 4635,
      "ifying": 4636,
      "lers": 4637,
      "Ġsecure": 4638,
      "Ġinjection": 4639,
      "Ġadditional": 4640,
      "game": 4641,
      "zz": 4642,
      "ORT": 4643,
      "Ġpi": 4644,
      "ĠUniversity": 4645,
      "yond": 4646,
      "antic": 4647,
      "EAX": 4648,
      "ventory": 4649,
      "tial": 4650,
      "Run": 4651,
      "ĠEvidence": 4652,
      "progress": 4653,
      "Ġgit": 4654,
      "Ġcompliance": 4655,
      "ĠJWT": 4656,
      "party": 4657,
      "Ġstock": 4658,
      "Ġpractice": 4659,
      "Ġmoney": 4660,
      "Ġsoon": 4661,
      "tml": 4662,
      "ĠYour": 4663,
      "Ġinit": 4664,
      "Ph": 4665,
      "Ġappropriate": 4666,
      "detail": 4667,
      "ĠInitialize": 4668,
      "Ġhooks": 4669,
      "Ġwood": 4670,
      "options": 4671,
      "Ġreceived": 4672,
      "Ġdifficult": 4673,
      "Ġdrag": 4674,
      "timeout": 4675,
      "*)": 4676,
      "strip": 4677,
      "float": 4678,
      "Ġshall": 4679,
      "Ġnearly": 4680,
      "Ġneighb": 4681,
      "Att": 4682,
      "Ġgold": 4683,
      "Ġfn": 4684,
      "mo": 4685,
      "\\\\\\\\": 4686,
      "icon": 4687,
      "\\\")": 4688,
      "angle": 4689,
      "aly": 4690,
      "Ġden": 4691,
      "jango": 4692,
      "Ġ},\\": 4693,
      "Lo": 4694,
      "Ġstrtok": 4695,
      "brid": 4696,
      "ĠGen": 4697,
      "pare": 4698,
      "ITY": 4699,
      "ĠJohn": 4700,
      "ncy": 4701,
      "irtual": 4702,
      "LA": 4703,
      "Ġassume": 4704,
      "odex": 4705,
      "Ġvs": 4706,
      "ecause": 4707,
      "Ġnotes": 4708,
      "Ġbeyond": 4709,
      "alph": 4710,
      "Ġmiles": 4711,
      "np": 4712,
      "Ġsupply": 4713,
      "Ġsafe": 4714,
      "cks": 4715,
      "Ġproducts": 4716,
      "Ġir": 4717,
      "kill": 4718,
      "umn": 4719,
      "ausal": 4720,
      "ĠLooking": 4721,
      "Ġ({": 4722,
      "Ġcenter": 4723,
      "Ġdu": 4724,
      "Ġapplicable": 4725,
      "depth": 4726,
      "Ġfollows": 4727,
      "Ġphysical": 4728,
      "Ġfire": 4729,
      "specific": 4730,
      "Ġsmaller": 4731,
      "IL": 4732,
      "ĠHTML": 4733,
      "vas": 4734,
      "Ġcolumns": 4735,
      "cat": 4736,
      "ĠPol": 4737,
      "izer": 4738,
      "Ġ%.": 4739,
      "structions": 4740,
      "\\\"\\\"\\\"\\": 4741,
      "more": 4742,
      "Ġ})))": 4743,
      "Ġeasy": 4744,
      "Ġschema": 4745,
      "Ġinterface": 4746,
      "Ġlevels": 4747,
      "sent": 4748,
      "ĠAm": 4749,
      "else": 4750,
      "Ġparallel": 4751,
      "ĠRun": 4752,
      "Ġlateral": 4753,
      "Ġtells": 4754,
      "pattern": 4755,
      "dist": 4756,
      "Ġreally": 4757,
      "Ġreference": 4758,
      "delete": 4759,
      "ĠGo": 4760,
      "urope": 4761,
      "Form": 4762,
      "ĠBl": 4763,
      "enn": 4764,
      "Ġmerge": 4765,
      "Ġareas": 4766,
      "ĠAb": 4767,
      "boolean": 4768,
      "Ġtuple": 4769,
      "ĠAN": 4770,
      "rief": 4771,
      "Ġedits": 4772,
      "Ġcapabilities": 4773,
      ",'": 4774,
      "empty": 4775,
      "Ġchains": 4776,
      "Ġprivilege": 4777,
      "email": 4778,
      "ĠProcess": 4779,
      "Ġroll": 4780,
      "eces": 4781,
      ":'": 4782,
      "uly": 4783,
      "Ġcli": 4784,
      "Ġhistor": 4785,
      "Ġrendering": 4786,
      "Ġindustry": 4787,
      "Ġinches": 4788,
      "cp": 4789,
      "Ġassociated": 4790,
      "Ã©": 4791,
      "odies": 4792,
      "rict": 4793,
      "tab": 4794,
      "Page": 4795,
      "standing": 4796,
      "Inter": 4797,
      "ĠAPIs": 4798,
      "btn": 4799,
      "IND": 4800,
      "sizeof": 4801,
      "::_": 4802,
      "Ġauthentication": 4803,
      "Object": 4804,
      "Ġenab": 4805,
      "Ġanimals": 4806,
      "arts": 4807,
      "ĠPy": 4808,
      "ĠRedux": 4809,
      "Ġsets": 4810,
      "ĠUnder": 4811,
      "house": 4812,
      "ĠLog": 4813,
      "String": 4814,
      "Ġcred": 4815,
      "arrow": 4816,
      "hemat": 4817,
      "pling": 4818,
      "Ġinteractions": 4819,
      "rust": 4820,
      "','": 4821,
      "Ġ])": 4822,
      "iling": 4823,
      "enge": 4824,
      "ĠTechn": 4825,
      "Frame": 4826,
      "Ġstory": 4827,
      "Ġyellow": 4828,
      "ĠRep": 4829,
      "match": 4830,
      "thern": 4831,
      "ancy": 4832,
      "Ġfriends": 4833,
      "vation": 4834,
      "Ġstarting": 4835,
      "Ġassistant": 4836,
      "ummary": 4837,
      "{'": 4838,
      "/.": 4839,
      "Ġarticle": 4840,
      "Ġworked": 4841,
      "mini": 4842,
      "Ġgoal": 4843,
      "tree": 4844,
      "Ġmal": 4845,
      "Ġhour": 4846,
      "group": 4847,
      "AC": 4848,
      "Ġqueue": 4849,
      "Ġmachine": 4850,
      "ĠService": 4851,
      "Ġtalk": 4852,
      "ĠDec": 4853,
      "ĠGutenberg": 4854,
      ">/": 4855,
      "Ġthreshold": 4856,
      "Ġforward": 4857,
      "agent": 4858,
      "inn": 4859,
      "sort": 4860,
      "Ġisn": 4861,
      "Ġsimply": 4862,
      "ATION": 4863,
      "Ġcompar": 4864,
      "score": 4865,
      "Ġexperiment": 4866,
      "Ġinvolves": 4867,
      "Ġrelative": 4868,
      "ĠCal": 4869,
      "umb": 4870,
      "_,": 4871,
      "VE": 4872,
      "Ġdefensive": 4873,
      "Search": 4874,
      "family": 4875,
      "child": 4876,
      "omet": 4877,
      "Ġengineering": 4878,
      "------------": 4879,
      "Ġreli": 4880,
      "Ġmanage": 4881,
      "Ġgenerally": 4882,
      "icious": 4883,
      "afe": 4884,
      "components": 4885,
      "project": 4886,
      "dri": 4887,
      "Ġpadding": 4888,
      "truncated": 4889,
      "Ġflowers": 4890,
      "Ġdepth": 4891,
      "Ġdescribed": 4892,
      "ishes": 4893,
      "Ġconsole": 4894,
      "Ġ\"%": 4895,
      "And": 4896,
      "Ġallowed": 4897,
      "ĠCS": 4898,
      "olders": 4899,
      "ĠContext": 4900,
      "Or": 4901,
      "Ġsurround": 4902,
      "Ġmarked": 4903,
      "First": 4904,
      "ĠIP": 4905,
      "Ġopportun": 4906,
      "Le": 4907,
      "sVar": 4908,
      "Ġasked": 4909,
      "Ġsignificant": 4910,
      "âľ": 4911,
      "tic": 4912,
      "->_": 4913,
      "____": 4914,
      "Ġblue": 4915,
      "Ġmoment": 4916,
      "FT": 4917,
      "ĠActually": 4918,
      "Ġscenar": 4919,
      "Ġnight": 4920,
      "Ġow": 4921,
      "Ġhelps": 4922,
      "ielsen": 4923,
      "Ġsoil": 4924,
      "review": 4925,
      "Ġhighly": 4926,
      "Ġmount": 4927,
      "jsx": 4928,
      "Ġstored": 4929,
      "era": 4930,
      "Ġweak": 4931,
      "ĠWhile": 4932,
      "Ġinterval": 4933,
      "ĠCLI": 4934,
      "Ġrepos": 4935,
      "ĠÂ·": 4936,
      "example": 4937,
      "ĠKey": 4938,
      "_\"": 4939,
      "izations": 4940,
      "Ġcommunity": 4941,
      "ifically": 4942,
      "Ġ\"((": 4943,
      "Ġprefix": 4944,
      "ĠEnglish": 4945,
      "Ġopening": 4946,
      "Ġpolicy": 4947,
      "ishing": 4948,
      "ounc": 4949,
      "Ġminim": 4950,
      "Welcome": 4951,
      "Ġfolder": 4952,
      "ĠTH": 4953,
      "adow": 4954,
      "Ġcomments": 4955,
      "Ġexter": 4956,
      "users": 4957,
      "Ġframeworks": 4958,
      "ception": 4959,
      "Ġblood": 4960,
      "udio": 4961,
      "ĠCar": 4962,
      "Ġ'*": 4963,
      "Ġinstalled": 4964,
      "Ġcompute": 4965,
      "Ġegg": 4966,
      "Ġcoll": 4967,
      "ĠCON": 4968,
      "Ġcounts": 4969,
      "Ġmaximum": 4970,
      "Ġchem": 4971,
      "indows": 4972,
      "Ġlayers": 4973,
      "Ġrelationships": 4974,
      "ĠUS": 4975,
      "ogle": 4976,
      "Ġearlier": 4977,
      "Ġsomeone": 4978,
      "Ġstudies": 4979,
      "cale": 4980,
      "lication": 4981,
      "IP": 4982,
      "ĠBrit": 4983,
      "ruct": 4984,
      "Ġagree": 4985,
      "update": 4986,
      "ĠForm": 4987,
      "ii": 4988,
      "Ġhash": 4989,
      "Ġcarefully": 4990,
      "Ġtrain": 4991,
      "Ġoffic": 4992,
      "Ġresource": 4993,
      "Ġheat": 4994,
      "Ġwriting": 4995,
      "that": 4996,
      "Ġgap": 4997,
      "ĠMat": 4998,
      "ĠHand": 4999,
      "ingu": 5000,
      "eries": 5001,
      "Ġsoftware": 5002,
      "well": 5003,
      "ĠOF": 5004,
      "Ġnor": 5005,
      "Ġstarts": 5006,
      "Ġcolle": 5007,
      "ĊĊĠĠĠ": 5008,
      "Ġsound": 5009,
      "ĠEurope": 5010,
      "forward": 5011,
      "Ġlaws": 5012,
      "Ġexplan": 5013,
      "Ġcurrently": 5014,
      "API": 5015,
      "ĠValueError": 5016,
      "Ġsafety": 5017,
      ">&": 5018,
      "nimport": 5019,
      "Ġdetermine": 5020,
      "enses": 5021,
      "ĠCent": 5022,
      "Ġquantum": 5023,
      "ĠType": 5024,
      "late": 5025,
      "inc": 5026,
      "ĠEst": 5027,
      "Rem": 5028,
      "Ġidea": 5029,
      "unch": 5030,
      "Ġoperator": 5031,
      "Â°": 5032,
      "Ġraw": 5033,
      "fs": 5034,
      "Ġmath": 5035,
      "lower": 5036,
      "ĠXML": 5037,
      "Ġconstant": 5038,
      "Ġstudent": 5039,
      "anges": 5040,
      "sign": 5041,
      "Ġlands": 5042,
      "Ġimm": 5043,
      "Ġdoing": 5044,
      "ĠOption": 5045,
      "Ġnavigation": 5046,
      "iency": 5047,
      "rupt": 5048,
      "Ġestim": 5049,
      "';\\": 5050,
      "Ġhierarchy": 5051,
      "modules": 5052,
      "ene": 5053,
      "drop": 5054,
      "\\\");\\": 5055,
      "Ġweather": 5056,
      "agination": 5057,
      "estamp": 5058,
      "LY": 5059,
      "Ġclarity": 5060,
      "LS": 5061,
      "oting": 5062,
      "ancing": 5063,
      "fit": 5064,
      "Ġcybersecurity": 5065,
      "âĸĳ": 5066,
      "rw": 5067,
      "Man": 5068,
      "Ġanalyze": 5069,
      "AME": 5070,
      "Reg": 5071,
      "Ġcards": 5072,
      "Ġrequests": 5073,
      ")\"},": 5074,
      "Ġtravel": 5075,
      "Ġfacilit": 5076,
      "undred": 5077,
      "illi": 5078,
      "Ġoccur": 5079,
      "hentic": 5080,
      "Ġsaw": 5081,
      "Total": 5082,
      "Ġcareful": 5083,
      "Ġdam": 5084,
      "Ġletter": 5085,
      "tasks": 5086,
      "Index": 5087,
      "came": 5088,
      "Ġrat": 5089,
      "ĠCould": 5090,
      "Ġconclusion": 5091,
      "Ġinputs": 5092,
      "Ġeasily": 5093,
      "frac": 5094,
      "Hand": 5095,
      "Ġspaces": 5096,
      "fin": 5097,
      "Ġadjust": 5098,
      "split": 5099,
      "power": 5100,
      "Ġproperty": 5101,
      "Qu": 5102,
      "Ġdead": 5103,
      "Rec": 5104,
      "ĠChrist": 5105,
      "WS": 5106,
      "DF": 5107,
      "Ġaspect": 5108,
      "illing": 5109,
      "msg": 5110,
      "ĠPO": 5111,
      "Ġ{}": 5112,
      "req": 5113,
      "select": 5114,
      "Ġcosts": 5115,
      "[\"": 5116,
      "eks": 5117,
      "faces": 5118,
      "Ġimpl": 5119,
      "reci": 5120,
      "ĠâĢ¦[": 5121,
      "ĠSQL": 5122,
      "Ġbul": 5123,
      "Ġconstruct": 5124,
      "ĠFree": 5125,
      "ĠResult": 5126,
      "OVar": 5127,
      "gettext": 5128,
      "Ġaligns": 5129,
      "gu": 5130,
      "Ġlocation": 5131,
      "'}": 5132,
      "Ġ})": 5133,
      "while": 5134,
      "Ġmodify": 5135,
      "sl": 5136,
      "Ġunaff": 5137,
      "Ġreports": 5138,
      "Ġsettings": 5139,
      "_>": 5140,
      "Ġcontainer": 5141,
      "Ġ\")\")": 5142,
      "ĠNode": 5143,
      "âĪ": 5144,
      "Ġmajor": 5145,
      "Ġwomen": 5146,
      "Ġpp": 5147,
      "Ġ(\"": 5148,
      "Ġcontinuous": 5149,
      "Ġskills": 5150,
      "IST": 5151,
      "Ġpan": 5152,
      "itable": 5153,
      "Ġcontact": 5154,
      "Ġbypass": 5155,
      "anger": 5156,
      "Ġbuilds": 5157,
      "module": 5158,
      "ĠSm": 5159,
      "Ġactivity": 5160,
      "ban": 5161,
      "False": 5162,
      "bfd": 5163,
      "Me": 5164,
      "Ġbot": 5165,
      "Ġeyes": 5166,
      "aily": 5167,
      "----------": 5168,
      "Ġbasic": 5169,
      "[]": 5170,
      "move": 5171,
      "Ġsuggests": 5172,
      "cceed": 5173,
      "Ġhot": 5174,
      ",__": 5175,
      "acc": 5176,
      "ĠCle": 5177,
      "Ġpip": 5178,
      "ĠPoint": 5179,
      "Mon": 5180,
      "ĠGerm": 5181,
      "structure": 5182,
      "Ġboundaries": 5183,
      "Ġdev": 5184,
      "Ġaddition": 5185,
      "ialize": 5186,
      "Ġremember": 5187,
      "Ġspecim": 5188,
      "`:": 5189,
      "Ġincreased": 5190,
      "Ġeditor": 5191,
      "unt": 5192,
      "Ġcity": 5193,
      "DB": 5194,
      "erclip": 5195,
      "Ġorganization": 5196,
      "Ġensures": 5197,
      "Ġintelligence": 5198,
      "values": 5199,
      "very": 5200,
      "Web": 5201,
      "Ġprior": 5202,
      "Ġargc": 5203,
      "Ġsnapshot": 5204,
      "Ġexc": 5205,
      "icip": 5206,
      "anged": 5207,
      "bon": 5208,
      "ĠSupp": 5209,
      "height": 5210,
      "encing": 5211,
      "Ġfgets": 5212,
      "Ġheader": 5213,
      "dVar": 5214,
      "random": 5215,
      "Ġexplore": 5216,
      "Ġunsigned": 5217,
      "Number": 5218,
      "xf": 5219,
      "ĠPo": 5220,
      "En": 5221,
      "Ġsyntax": 5222,
      "navigate": 5223,
      "Ġcounter": 5224,
      "png": 5225,
      "Ġcogn": 5226,
      "Ġpurpose": 5227,
      "Ġuseful": 5228,
      "Ġpersonal": 5229,
      "Ġfair": 5230,
      "Ġbud": 5231,
      "Ġfoot": 5232,
      "nth": 5233,
      "rag": 5234,
      "context": 5235,
      "Ġstandards": 5236,
      "del": 5237,
      "Ġclasses": 5238,
      "Ġcapture": 5239,
      "Read": 5240,
      "Ġdro": 5241,
      "Ġarri": 5242,
      "ĠGod": 5243,
      "SQL": 5244,
      "Ġtrace": 5245,
      "Ġbur": 5246,
      "Ġupper": 5247,
      "ony": 5248,
      "Ġprobability": 5249,
      "Ġdeath": 5250,
      "ĠNielsen": 5251,
      "Ġdb": 5252,
      "Ġmechanisms": 5253,
      "ixel": 5254,
      "ulations": 5255,
      "Ġvalu": 5256,
      "Ġpiece": 5257,
      "Ġclaim": 5258,
      "Ġliving": 5259,
      "Ġoverall": 5260,
      "estalt": 5261,
      "Ġcategory": 5262,
      "istry": 5263,
      "Ġretry": 5264,
      "Ġpal": 5265,
      "iny": 5266,
      "Ġextrem": 5267,
      "mber": 5268,
      "Ġproced": 5269,
      "Ġscience": 5270,
      "iation": 5271,
      "Ġattribute": 5272,
      "Ġdefense": 5273,
      "erate": 5274,
      "CON": 5275,
      "ĠcVar": 5276,
      "ĠMark": 5277,
      "ancial": 5278,
      "Ġthick": 5279,
      "Ġdatetime": 5280,
      "Ġcontrast": 5281,
      "Ġviol": 5282,
      "Ġpush": 5283,
      "Ġinvalid": 5284,
      "Ġplaced": 5285,
      "Ġexternal": 5286,
      "des": 5287,
      "Ġ\"(*(": 5288,
      "Ġsetup": 5289,
      "Rust": 5290,
      "Ġbecame": 5291,
      "Ġ\",\")": 5292,
      "FLO": 5293,
      "Ġentries": 5294,
      "mythos": 5295,
      "'))": 5296,
      "Ġtried": 5297,
      "Ġnone": 5298,
      "ĠĠĠĠĠĠ": 5299,
      "Ġcrucial": 5300,
      "Ġ\"+": 5301,
      "tics": 5302,
      "Ġ(+": 5303,
      "Ġcreates": 5304,
      "âĸĳâĸĳ": 5305,
      "Ġ(,": 5306,
      "\">": 5307,
      "ĠWork": 5308,
      "Te": 5309,
      "Ġhidden": 5310,
      "Ġdeal": 5311,
      "Ġends": 5312,
      "Ġworth": 5313,
      "Ġeffective": 5314,
      "Ġsquare": 5315,
      "ouch": 5316,
      "Ġ*)(*(": 5317,
      "Ġconvention": 5318,
      "ilter": 5319,
      "acter": 5320,
      ">>": 5321,
      "Ġtaking": 5322,
      "stat": 5323,
      "ĠStart": 5324,
      "Ġbooks": 5325,
      "Ġcontents": 5326,
      "urch": 5327,
      "Ġdynamic": 5328,
      "Ġtight": 5329,
      "vey": 5330,
      "RA": 5331,
      "attr": 5332,
      "Ġsal": 5333,
      "Ġcorrel": 5334,
      "show": 5335,
      "Ġfollowed": 5336,
      "change": 5337,
      "Ġfed": 5338,
      "Ġinstructions": 5339,
      "Ġ\".": 5340,
      "iform": 5341,
      "Ġhom": 5342,
      "ĠNorth": 5343,
      "Ġestablished": 5344,
      "Ġdou": 5345,
      "Ġdisease": 5346,
      "Ġfem": 5347,
      "debug": 5348,
      "Ġquantity": 5349,
      "Ġshowing": 5350,
      "Ġplug": 5351,
      "Ġproduced": 5352,
      "anks": 5353,
      "ded": 5354,
      "Ġreceive": 5355,
      "estion": 5356,
      "earch": 5357,
      "DIR": 5358,
      "mythosmini": 5359,
      "Ġsuccessful": 5360,
      "Ġearth": 5361,
      "Ġhimself": 5362,
      "Ġwalk": 5363,
      "emy": 5364,
      "Result": 5365,
      "Ro": 5366,
      "posed": 5367,
      "Ġinteraction": 5368,
      "ĠCausal": 5369,
      "osph": 5370,
      "Ġtorch": 5371,
      "ĠTHE": 5372,
      "Ġlatency": 5373,
      "here": 5374,
      "ĠIS": 5375,
      "::__": 5376,
      "Ġdecision": 5377,
      "men": 5378,
      "rote": 5379,
      "Ġlogs": 5380,
      "Ġbrief": 5381,
      "Ġprops": 5382,
      "ups": 5383,
      "Ġ\\\"\\\"": 5384,
      "ermes": 5385,
      "ĠVer": 5386,
      "gn": 5387,
      "Ġwat": 5388,
      "ĠWest": 5389,
      "oman": 5390,
      "Ġrecords": 5391,
      "Ġ\"\\": 5392,
      "Ġbalance": 5393,
      "Ġsides": 5394,
      "Ġfaster": 5395,
      "Ġdesigned": 5396,
      "Ġapplied": 5397,
      "ĠAnswer": 5398,
      "Ġsand": 5399,
      "ĠHis": 5400,
      "Ġago": 5401,
      "Ġlost": 5402,
      "Config": 5403,
      "Ġindividuals": 5404,
      "Ġreveal": 5405,
      "Ġstructures": 5406,
      "Ġstrength": 5407,
      "=>": 5408,
      "Ġphot": 5409,
      "Ġincreasing": 5410,
      "second": 5411,
      "stre": 5412,
      "Ġgard": 5413,
      "}{": 5414,
      "event": 5415,
      "bind": 5416,
      "Ġsufficient": 5417,
      "ped": 5418,
      "ĠGood": 5419,
      "ĠSI": 5420,
      "^^^^": 5421,
      "Ġvariety": 5422,
      "Int": 5423,
      "Ġhighlight": 5424,
      "Ġstage": 5425,
      "Ġlove": 5426,
      "Ġmig": 5427,
      "ĠPlease": 5428,
      "ographic": 5429,
      "Ġfavor": 5430,
      "Ġwonder": 5431,
      "Ġdashboard": 5432,
      "Ġnodes": 5433,
      "Ġinform": 5434,
      "roy": 5435,
      "Ġbring": 5436,
      "lled": 5437,
      "Ġign": 5438,
      "rid": 5439,
      "Ġtoward": 5440,
      "eds": 5441,
      "ributes": 5442,
      "Ġsucceed": 5443,
      "Ġlibraries": 5444,
      "lists": 5445,
      "Ġlabels": 5446,
      "Ġensuring": 5447,
      "render": 5448,
      "ĠAssessment": 5449,
      "cel": 5450,
      "Ġexerc": 5451,
      ")((": 5452,
      "Ġfully": 5453,
      "oded": 5454,
      "Ġ);": 5455,
      "ares": 5456,
      "Test": 5457,
      "ĠAuth": 5458,
      "ĠNe": 5459,
      "Ġotherwise": 5460,
      "temp": 5461,
      "ĠKe": 5462,
      "iet": 5463,
      "csv": 5464,
      "ĠQuant": 5465,
      "Ġmedia": 5466,
      "ĠYork": 5467,
      ")->": 5468,
      "Ġwatch": 5469,
      "Ġgetting": 5470,
      "Ġoffers": 5471,
      "orpor": 5472,
      "Ġpopulation": 5473,
      "xd": 5474,
      "Ġlooks": 5475,
      "Ġmusic": 5476,
      "!\"": 5477,
      "otion": 5478,
      "Ġfails": 5479,
      "Ġcontract": 5480,
      "Ġisinstance": 5481,
      "Ġbrought": 5482,
      "Value": 5483,
      "Ġconsequence": 5484,
      "Ġproperties": 5485,
      "frame": 5486,
      "Ġfp": 5487,
      "Ġintegrity": 5488,
      "greg": 5489,
      "aste": 5490,
      "_{": 5491,
      "Ġdefine": 5492,
      "Ġloading": 5493,
      "pap": 5494,
      "ertaint": 5495,
      "Ġparticip": 5496,
      "peed": 5497,
      "Ġstrict": 5498,
      "ĠWorld": 5499,
      "Ġcurl": 5500,
      "New": 5501,
      "hot": 5502,
      "ĠĠĠĠĠĠĠĠĠĠĠĠĠĠĠĠĠĠĠ": 5503,
      "Ġdimension": 5504,
      "ĠÎ": 5505,
      "Ġcontroll": 5506,
      "nconst": 5507,
      "oldText": 5508,
      "direction": 5509,
      "ĠAf": 5510,
      "Ġquickly": 5511,
      "Ġgave": 5512,
      "Ġ\\\"\\\"\\\"": 5513,
      "Ġter": 5514,
      "Ġhundred": 5515,
      "Ġslightly": 5516,
      "Ġsources": 5517,
      "Ġspecified": 5518,
      "(*": 5519,
      "utils": 5520,
      "***": 5521,
      "Ġbranch": 5522,
      "leg": 5523,
      "INE": 5524,
      "Check": 5525,
      "ĠWindows": 5526,
      "gent": 5527,
      "Ġbirds": 5528,
      "Ġ)))))": 5529,
      "national": 5530,
      "Ġhands": 5531,
      "ADME": 5532,
      "Ġbright": 5533,
      "Ġclo": 5534,
      "Ġready": 5535,
      "EY": 5536,
      "Ġgovernment": 5537,
      "Ġlatter": 5538,
      "Ġexploitation": 5539,
      "Ġobserved": 5540,
      "Ġbrown": 5541,
      "ĠControls": 5542,
      "artment": 5543,
      "Ġchallenge": 5544,
      "ĠUsing": 5545,
      "Ġadmin": 5546,
      "react": 5547,
      "Ġtogg": 5548,
      "ensity": 5549,
      "Ġescape": 5550,
      "Ġwarm": 5551,
      "Ġexpand": 5552,
      "ĠCSS": 5553,
      "Ġep": 5554,
      "sg": 5555,
      "public": 5556,
      "\");\\": 5557,
      "Ġpreview": 5558,
      "ĠSuccessfully": 5559,
      "arse": 5560,
      "Ġrev": 5561,
      "Ġlif": 5562,
      "mm": 5563,
      "Direct": 5564,
      "minimum": 5565,
      "ĠSouth": 5566,
      "phas": 5567,
      "ĠTool": 5568,
      "Ġdrop": 5569,
      "Ġfixed": 5570,
      "eration": 5571,
      "Ġgeneration": 5572,
      "Ġbeautiful": 5573,
      "Ġ`<": 5574,
      "Ġmarket": 5575,
      "Ġdocumentation": 5576,
      "Ġnumpy": 5577,
      "Ġflag": 5578,
      "Hello": 5579,
      "Ġshap": 5580,
      "Ġsyn": 5581,
      "localhost": 5582,
      "ĠĠĠĠĠĠĠĠĠĠĠĠĠ": 5583,
      "Ġpressure": 5584,
      "From": 5585,
      "ĠAltern": 5586,
      "lobj": 5587,
      "Ġsharing": 5588,
      "Ġdigits": 5589,
      "Ġpict": 5590,
      "BER": 5591,
      "Ġforeground": 5592,
      "answer": 5593,
      "Ġvideo": 5594,
      "Ġwra": 5595,
      "Ġresolve": 5596,
      "gments": 5597,
      "Ġexplanation": 5598,
      "Ġtemplate": 5599,
      "Ġhandles": 5600,
      "year": 5601,
      "Use": 5602,
      "oke": 5603,
      "ynchron": 5604,
      "Ġurl": 5605,
      "ĠTherefore": 5606,
      "itionally": 5607,
      "enced": 5608,
      "Ġflat": 5609,
      "Ġidentity": 5610,
      "Ġthreads": 5611,
      "Ġexecution": 5612,
      "Ġmapping": 5613,
      "Ġpure": 5614,
      "Ġelif": 5615,
      "ounce": 5616,
      "Ġ\"&": 5617,
      "Ġsentence": 5618,
      "oes": 5619,
      "Ġbelieve": 5620,
      "Ġsus": 5621,
      "Ġseason": 5622,
      "sk": 5623,
      "FLOAT": 5624,
      "Ġequival": 5625,
      "ĠCO": 5626,
      "Ġdelay": 5627,
      "Ġpolit": 5628,
      "css": 5629,
      "icate": 5630,
      "Ġlives": 5631,
      "Ġcreation": 5632,
      "rt": 5633,
      "completed": 5634,
      "Ġsetting": 5635,
      "Ġclosed": 5636,
      "oretical": 5637,
      "Ġsrand": 5638,
      "enty": 5639,
      "Ġcandid": 5640,
      "Ġsql": 5641,
      "REAM": 5642,
      "abs": 5643,
      "ĠEarth": 5644,
      "ronic": 5645,
      "Ġencour": 5646,
      "Ġcarry": 5647,
      "Ġcompromise": 5648,
      "Ġstay": 5649,
      "Ġproceed": 5650,
      "Ġmaterials": 5651,
      "ernel": 5652,
      "Ġisolated": 5653,
      "Ġprevention": 5654,
      "ATE": 5655,
      "Ġlinear": 5656,
      "Ġdetailed": 5657,
      "Ġenable": 5658,
      "ills": 5659,
      "():": 5660,
      "Ġcamp": 5661,
      "Ġcatch": 5662,
      "ulated": 5663,
      "Ġtypically": 5664,
      "Ġwebsite": 5665,
      "ĠMed": 5666,
      "Ġwild": 5667,
      "Ġspecialized": 5668,
      "Ġconcern": 5669,
      "Post": 5670,
      "rompt": 5671,
      "Up": 5672,
      "Start": 5673,
      "crete": 5674,
      "road": 5675,
      "ailed": 5676,
      "Ġcolors": 5677,
      "cance": 5678,
      "Ġindeed": 5679,
      "ĠFound": 5680,
      "Ġmeet": 5681,
      "la": 5682,
      "Ġremoved": 5683,
      "Ġlett": 5684,
      "Ġconsiderations": 5685,
      "Sub": 5686,
      "ĠSOCK": 5687,
      "Ġdidn": 5688,
      "Ġ`.": 5689,
      "Ġdifferences": 5690,
      "Ġdiscuss": 5691,
      "erts": 5692,
      "Ġaccuracy": 5693,
      "Ġnaturally": 5694,
      "Ġaware": 5695,
      "Ġfilters": 5696,
      "losure": 5697,
      "Ġmarkdown": 5698,
      "Ġcateg": 5699,
      "Ġmission": 5700,
      "airs": 5701,
      "dig": 5702,
      "Ġreach": 5703,
      "Ġul": 5704,
      "Ġcart": 5705,
      "Ġlogging": 5706,
      "Ġcollaboration": 5707,
      "React": 5708,
      "Please": 5709,
      "full": 5710,
      "omy": 5711,
      "Ġpopular": 5712,
      "Ġwid": 5713,
      "relobj": 5714,
      "Ġrecovery": 5715,
      "make": 5716,
      "Ġleave": 5717,
      "}`": 5718,
      "Ġguess": 5719,
      "Ġconnected": 5720,
      "push": 5721,
      "vironments": 5722,
      "ĠGestalt": 5723,
      "ifier": 5724,
      "[])": 5725,
      "Ġaccurate": 5726,
      "wind": 5727,
      "VER": 5728,
      "ĠATT": 5729,
      "ĠBased": 5730,
      "Ġlot": 5731,
      "ĠProv": 5732,
      "ĠUpdate": 5733,
      "Not": 5734,
      "Ġhex": 5735,
      "using": 5736,
      "Ġviews": 5737,
      "Ġcop": 5738,
      "Ġsys": 5739,
      "Ġcognitive": 5740,
      "Line": 5741,
      "rome": 5742,
      "Ġattackers": 5743,
      "hest": 5744,
      "Ġball": 5745,
      "chr": 5746,
      "Python": 5747,
      "ĠPres": 5748,
      "andas": 5749,
      "Ġescalation": 5750,
      "IDTH": 5751,
      "uzz": 5752,
      "Ġhar": 5753,
      "Ġreturned": 5754,
      "ana": 5755,
      "Ġsubtle": 5756,
      "Ġbegan": 5757,
      "âĢ¦": 5758,
      "Ġrates": 5759,
      "ĠFe": 5760,
      "ifies": 5761,
      "war": 5762,
      "Ġpipeline": 5763,
      "Ġsea": 5764,
      "func": 5765,
      "Ġremark": 5766,
      "Section": 5767,
      "MM": 5768,
      "eline": 5769,
      "Ġguide": 5770,
      "ĠAmerica": 5771,
      "Tra": 5772,
      "itespace": 5773,
      "Ġnewline": 5774,
      "Ġpieces": 5775,
      "Ġspir": 5776,
      "Ġendpoint": 5777,
      "gener": 5778,
      "encode": 5779,
      "Ġlogin": 5780,
      "ĠPe": 5781,
      "unct": 5782,
      "STREAM": 5783,
      "cient": 5784,
      "ĠArgs": 5785,
      "Ġwor": 5786,
      "Ġspread": 5787,
      "Ġorigin": 5788,
      "written": 5789,
      "mt": 5790,
      "Ġsomew": 5791,
      "see": 5792,
      "Ġanom": 5793,
      "Ġwind": 5794,
      "Ġvisibility": 5795,
      "ocument": 5796,
      "Ġcapacity": 5797,
      "ĠGu": 5798,
      "Ġrelig": 5799,
      "async": 5800,
      "Ġscalable": 5801,
      "asure": 5802,
      "Ġauto": 5803,
      "Ġwrote": 5804,
      "king": 5805,
      "radius": 5806,
      "ritical": 5807,
      "Ġactivities": 5808,
      "Ġagent": 5809,
      "Ġinher": 5810,
      "System": 5811,
      "ĠMIT": 5812,
      "Ġimplications": 5813,
      "ĠArchitect": 5814,
      "itution": 5815,
      "ucle": 5816,
      "Ġvolume": 5817,
      "Ġplaces": 5818,
      "........": 5819,
      "Ġanimal": 5820,
      "pa": 5821,
      "ĠSearch": 5822,
      "Ġeffic": 5823,
      "Ġassist": 5824,
      "Ġparticularly": 5825,
      "lam": 5826,
      "Ġmetrics": 5827,
      "URITY": 5828,
      "Ġ---": 5829,
      "iph": 5830,
      "Ġminimum": 5831,
      "ÂłÂł": 5832,
      "rastructure": 5833,
      "Ġselection": 5834,
      "Ġrad": 5835,
      "Ġbelong": 5836,
      "Ġ\"+\")": 5837,
      "addata": 5838,
      "Ġapplications": 5839,
      "Wait": 5840,
      "ĠWar": 5841,
      "DER": 5842,
      "hedul": 5843,
      "ĠEDX": 5844,
      "keys": 5845,
      "Ġeducation": 5846,
      "system": 5847,
      "requ": 5848,
      "Ġweeks": 5849,
      "ĠCall": 5850,
      "vie": 5851,
      "ĠPhase": 5852,
      "UDA": 5853,
      "elt": 5854,
      "iled": 5855,
      "ĠInclude": 5856,
      "Ġliter": 5857,
      "names": 5858,
      "Ġmentioned": 5859,
      "baddata": 5860,
      "ussion": 5861,
      "ube": 5862,
      "However": 5863,
      "Med": 5864,
      "ams": 5865,
      "Ġhun": 5866,
      "Ġreduces": 5867,
      "Ġfinancial": 5868,
      "PC": 5869,
      "bda": 5870,
      "Ġprivacy": 5871,
      "Ġcasc": 5872,
      "Ġsessions": 5873,
      "ypot": 5874,
      "Ġdeveloped": 5875,
      "Ġos": 5876,
      "ARD": 5877,
      "Sized": 5878,
      "mpact": 5879,
      "yl": 5880,
      "ĠDate": 5881,
      "ades": 5882,
      "big": 5883,
      "SVar": 5884,
      "safe": 5885,
      "Ġrein": 5886,
      "mitted": 5887,
      "egers": 5888,
      "ĠCRDT": 5889,
      "ctors": 5890,
      "ĠBecause": 5891,
      "Ġimmediate": 5892,
      "Ġpropag": 5893,
      "Ġdot": 5894,
      "ĠAF": 5895,
      "Ġautomatically": 5896,
      "Ġvirtual": 5897,
      "Ġconstra": 5898,
      "wers": 5899,
      "Ġalthough": 5900,
      "Ġnorth": 5901,
      "Ġheavy": 5902,
      "PL": 5903,
      "Ġselected": 5904,
      "ablish": 5905,
      "ĠClose": 5906,
      "Ġincluded": 5907,
      "matrix": 5908,
      "Ġmaintainability": 5909,
      "Ġheld": 5910,
      "Ġexceed": 5911,
      "Ġformed": 5912,
      "iments": 5913,
      "Ġhtons": 5914,
      "My": 5915,
      "Ġhabit": 5916,
      "Set": 5917,
      "Ġdebug": 5918,
      "Ġbottom": 5919,
      "Ġconduct": 5920,
      "Be": 5921,
      "plus": 5922,
      "Ġchoices": 5923,
      "Ġsnippets": 5924,
      "nection": 5925,
      "glint": 5926,
      "/__": 5927,
      "Ġreached": 5928,
      "Ġlack": 5929,
      "ĠOnly": 5930,
      "Ġfrequency": 5931,
      "Supp": 5932,
      "Ġslic": 5933,
      "Ġobtained": 5934,
      "Ġequation": 5935,
      "Ġhandler": 5936,
      "math": 5937,
      "Ġbatch": 5938,
      "Ġserv": 5939,
      "lor": 5940,
      "ineering": 5941,
      "Ġenvironments": 5942,
      "Ġroad": 5943,
      "Ġworkflow": 5944,
      "Ġunits": 5945,
      "ĠDesign": 5946,
      "ĠDynam": 5947,
      "AA": 5948,
      "pvVar": 5949,
      "itory": 5950,
      "astic": 5951,
      "Ġcompared": 5952,
      "ĠYes": 5953,
      "valuate": 5954,
      "Ġconvers": 5955,
      "Ġcoordin": 5956,
      "ĠAccount": 5957,
      "ĠManagement": 5958,
      "Date": 5959,
      "Ġclients": 5960,
      "Ġnotifications": 5961,
      "oo": 5962,
      "template": 5963,
      "expected": 5964,
      "ocker": 5965,
      "Ġexploit": 5966,
      "View": 5967,
      "Ġreact": 5968,
      "ryption": 5969,
      "vironmental": 5970,
      "ĠGPU": 5971,
      "Ġidentifi": 5972,
      "lands": 5973,
      "ĠMulti": 5974,
      "eli": 5975,
      "Ġtypical": 5976,
      "Ġparsing": 5977,
      "Ġconsistency": 5978,
      "Ġdocstring": 5979,
      "Ġpermissions": 5980,
      "Ġmemset": 5981,
      "Ġinfluence": 5982,
      "Ġdry": 5983,
      "Fr": 5984,
      "Ġangle": 5985,
      "Ġcomputer": 5986,
      "Ġestablish": 5987,
      "Conf": 5988,
      "volution": 5989,
      "NO": 5990,
      "history": 5991,
      "she": 5992,
      "Ġpit": 5993,
      "Ġvaluable": 5994,
      "cmd": 5995,
      "Ġeye": 5996,
      "ĠDE": 5997,
      "Ġimportance": 5998,
      "Ġprivate": 5999,
      "Ġrace": 6000,
      "ndef": 6001,
      "Ġfat": 6002,
      "Ġtrigg": 6003,
      "Ġdefinition": 6004,
      "Ġreducing": 6005,
      "Ġtreatment": 6006,
      "Ġfarm": 6007,
      "Ġgets": 6008,
      "))\"": 6009,
      "range": 6010,
      "Ġemphas": 6011,
      "ologies": 6012,
      "PORT": 6013,
      "plex": 6014,
      "Ġinteresting": 6015,
      "Ent": 6016,
      "itute": 6017,
      "Ġbodies": 6018,
      "CALLIND": 6019,
      "ham": 6020,
      "fill": 6021,
      "dro": 6022,
      "stra": 6023,
      "Ġthous": 6024,
      "Ġlose": 6025,
      "Ġargs": 6026,
      "ĠBU": 6027,
      "ĠThreat": 6028,
      "eterm": 6029,
      "necho": 6030,
      "grep": 6031,
      "Red": 6032,
      "driven": 6033,
      "Ġauthentic": 6034,
      "Initial": 6035,
      "Ġguidance": 6036,
      "Ġsold": 6037,
      "Yes": 6038,
      "ĠJava": 6039,
      "Ġsaved": 6040,
      "SEC": 6041,
      "Next": 6042,
      "ĠAccess": 6043,
      "cover": 6044,
      "has": 6045,
      "oration": 6046,
      "Ġpoor": 6047,
      "Ġbind": 6048,
      "ĠMechan": 6049,
      "elling": 6050,
      "days": 6051,
      "snapshot": 6052,
      "Ġgrace": 6053,
      "ĠAfric": 6054,
      "after": 6055,
      "Ġconcise": 6056,
      "handle": 6057,
      "Ġvisible": 6058,
      "Ġgrowing": 6059,
      "semb": 6060,
      "Users": 6061,
      "ui": 6062,
      "ĠBackend": 6063,
      "Ġoccurs": 6064,
      "Ġchannel": 6065,
      "Ġexplain": 6066,
      "Ġwide": 6067,
      "ulating": 6068,
      "ĠError": 6069,
      "Ġposts": 6070,
      "ASS": 6071,
      "rench": 6072,
      "ĠRemove": 6073,
      "Ġverification": 6074,
      "ĠGiven": 6075,
      "Ġresponsible": 6076,
      "[\\\"": 6077,
      "Ġple": 6078,
      "success": 6079,
      "ĠURLs": 6080,
      "ĠJan": 6081,
      "Ġmechanism": 6082,
      "newText": 6083,
      "Ġperspect": 6084,
      "Ġleads": 6085,
      "arnings": 6086,
      "PAR": 6087,
      "grade": 6088,
      "Ġroute": 6089,
      "Ġcorresponding": 6090,
      "Ġunless": 6091,
      "goto": 6092,
      "Ġexception": 6093,
      "Ġconcepts": 6094,
      "Ġ\"{": 6095,
      "ĠRisk": 6096,
      "clus": 6097,
      "Ġstdout": 6098,
      "\\\").": 6099,
      "\\\\|": 6100,
      "nfunction": 6101,
      "Ġlimited": 6102,
      "LOCK": 6103,
      "Ġtempor": 6104,
      "memory": 6105,
      "docs": 6106,
      "Log": 6107,
      "à¤": 6108,
      "Ġcrypt": 6109,
      "ĠStud": 6110,
      "store": 6111,
      "Ġillustr": 6112,
      "Response": 6113,
      "'\"": 6114,
      "With": 6115,
      "Ġoppos": 6116,
      "--;": 6117,
      "OK": 6118,
      "Ġfost": 6119,
      "etic": 6120,
      "oder": 6121,
      "Ġexhib": 6122,
      "Ġcompare": 6123,
      "ĠDB": 6124,
      "mental": 6125,
      "Ġalone": 6126,
      "orted": 6127,
      "uda": 6128,
      "After": 6129,
      "Ġmanip": 6130,
      "overn": 6131,
      "Ġtick": 6132,
      "Ġsed": 6133,
      "Ġadvant": 6134,
      "Ġ});": 6135,
      "gree": 6136,
      "Ġforest": 6137,
      "Ġjump": 6138,
      "Ġcombined": 6139,
      "Card": 6140,
      "Ġinner": 6141,
      "Ġled": 6142,
      "Selector": 6143,
      "ĠMin": 6144,
      "Ġec": 6145,
      "âĢĶâĢĶ": 6146,
      "scri": 6147,
      "Ġpackages": 6148,
      "Ġrepeat": 6149,
      "ĠId": 6150,
      "ĠThus": 6151,
      "Ġreduced": 6152,
      "ĠModel": 6153,
      "GET": 6154,
      "Ġfruit": 6155,
      "Ġpairs": 6156,
      "ĠMITRE": 6157,
      "ds": 6158,
      "Ġdataset": 6159,
      "ture": 6160,
      "Ġidentify": 6161,
      "ius": 6162,
      "ATH": 6163,
      "oken": 6164,
      "FA": 6165,
      "_.": 6166,
      "Ġ{\\\"": 6167,
      "ĠÃĹ": 6168,
      "ĠBuild": 6169,
      "ibilities": 6170,
      "Ġphase": 6171,
      "oral": 6172,
      "Ref": 6173,
      "ĠDon": 6174,
      "Ġexpertise": 6175,
      "ĠCalcul": 6176,
      "ĠJun": 6177,
      "nother": 6178,
      "Ġappreci": 6179,
      "ipping": 6180,
      "Ġculture": 6181,
      "ĠLevel": 6182,
      "Ġenjo": 6183,
      "ĠResearch": 6184,
      "bal": 6185,
      "gy": 6186,
      "world": 6187,
      "Ġstatic": 6188,
      "Ġlogical": 6189,
      "gricult": 6190,
      "ilk": 6191,
      "ournal": 6192,
      "Ġgather": 6193,
      "Ġexperiences": 6194,
      ".\\\"\\\"\\\"\\": 6195,
      "Ġtraffic": 6196,
      "LC": 6197,
      "metry": 6198,
      "vari": 6199,
      "ĠReal": 6200,
      "$(": 6201,
      "ees": 6202,
      "ĠDjango": 6203,
      "Ġchoose": 6204,
      "Ġshift": 6205,
      "Ġdecre": 6206,
      "iki": 6207,
      "Ġpublished": 6208,
      "(-": 6209,
      "Ġplanets": 6210,
      "ĠAug": 6211,
      "Ġcool": 6212,
      "dim": 6213,
      "Ġnumerous": 6214,
      "Ġheard": 6215,
      "OF": 6216,
      "ĠESI": 6217,
      "Ġupload": 6218,
      "Ġsecret": 6219,
      "Ġstories": 6220,
      "FVar": 6221,
      "Ġenum": 6222,
      "Ġdemand": 6223,
      "Ġparser": 6224,
      "ĠOf": 6225,
      "Ġafford": 6226,
      "Ġ\"_": 6227,
      "Ġpagination": 6228,
      "effic": 6229,
      "ĠAND": 6230,
      "Ġhistorical": 6231,
      "Oper": 6232,
      "Ġindependent": 6233,
      "ĠNational": 6234,
      "Ġeveryone": 6235,
      "Ġcentury": 6236,
      "allow": 6237,
      "That": 6238,
      "ĠMo": 6239,
      "Ġusername": 6240,
      "Ġnative": 6241,
      "ping": 6242,
      "document": 6243,
      "ership": 6244,
      "apping": 6245,
      "bert": 6246,
      "aks": 6247,
      "ffffff": 6248,
      "inite": 6249,
      "Child": 6250,
      "Ġindicators": 6251,
      "Ġoverl": 6252,
      "Ġpool": 6253,
      "Ġstraightforward": 6254,
      "Code": 6255,
      "Ġglob": 6256,
      "Ġadvers": 6257,
      "Ġnoise": 6258,
      "Ġspecifically": 6259,
      "Ġdaily": 6260,
      "Ġtold": 6261,
      "Ġintegers": 6262,
      "emic": 6263,
      "Ġsouth": 6264,
      "Ġwhitespace": 6265,
      "irmed": 6266,
      "Ġrealize": 6267,
      "Ġsituation": 6268,
      "Ġbenefits": 6269,
      "kit": 6270,
      "Ġhope": 6271,
      "pite": 6272,
      "Ġtax": 6273,
      "ĠChar": 6274,
      "pers": 6275,
      "inating": 6276,
      "Ġchunk": 6277,
      "Ġrooms": 6278,
      "ivil": 6279,
      "ĠQuery": 6280,
      "asy": 6281,
      "ESP": 6282,
      "Ġtheft": 6283,
      "Ġformer": 6284,
      "Ġthor": 6285,
      "ĠFig": 6286,
      "Ġtrigger": 6287,
      "ino": 6288,
      "anit": 6289,
      "/_": 6290,
      "Ġcovered": 6291,
      "Ġjoin": 6292,
      "oles": 6293,
      "ialog": 6294,
      "lies": 6295,
      "erve": 6296,
      "ansom": 6297,
      "ĠPOST": 6298,
      "Ġruntime": 6299,
      "plt": 6300,
      "Ad": 6301,
      "ĠIntegr": 6302,
      "ĠLimit": 6303,
      "services": 6304,
      "via": 6305,
      "Listener": 6306,
      "paperclip": 6307,
      "Ġwest": 6308,
      "Ġchanged": 6309,
      "Your": 6310,
      "Ġexplicitly": 6311,
      "Ġfirm": 6312,
      "Ġbeginning": 6313,
      "Ġbat": 6314,
      "Ġartif": 6315,
      "ĉĠĠĠ": 6316,
      "Ġcam": 6317,
      "ĠJune": 6318,
      "Get": 6319,
      "Ġclock": 6320,
      "Ġchecking": 6321,
      "Ġformula": 6322,
      "ĠTHRE": 6323,
      "Ġsamples": 6324,
      "EBX": 6325,
      "Ġentirely": 6326,
      "ĠMoreover": 6327,
      "Ġmathemat": 6328,
      "usr": 6329,
      "ĠAS": 6330,
      "tail": 6331,
      "Ġregulatory": 6332,
      "Ġoil": 6333,
      "Ġroutes": 6334,
      "uel": 6335,
      "Ġkept": 6336,
      "Ġenabling": 6337,
      "udo": 6338,
      "related": 6339,
      "background": 6340,
      "device": 6341,
      "ĠNumber": 6342,
      "ĠRequires": 6343,
      "Ġplot": 6344,
      "mutex": 6345,
      "Ġcodex": 6346,
      "Ġfilled": 6347,
      "ĠDi": 6348,
      "thiscall": 6349,
      "Ġsupporting": 6350,
      "Ġmit": 6351,
      "ighest": 6352,
      "Ġmole": 6353,
      "ĠAnaly": 6354,
      "Des": 6355,
      "Ġobj": 6356,
      "Ġstatistics": 6357,
      "EP": 6358,
      "eties": 6359,
      "ool": 6360,
      "produ": 6361,
      "Ġvary": 6362,
      "rep": 6363,
      "Ġwinter": 6364,
      "xe": 6365,
      "Ġenhance": 6366,
      "ĠApr": 6367,
      "Ġchemical": 6368,
      "ĠESP": 6369,
      "fetch": 6370,
      "Ġdesired": 6371,
      "ointment": 6372,
      "(`": 6373,
      "Size": 6374,
      "](": 6375,
      "Ġ(__": 6376,
      "#[": 6377,
      "asses": 6378,
      "Work": 6379,
      "Ġtodo": 6380,
      "Ġchannels": 6381,
      "ĠCUDA": 6382,
      "ĠEnd": 6383,
      "escape": 6384,
      "))\\": 6385,
      "Ġacid": 6386,
      "buff": 6387,
      "endations": 6388,
      "Ġdispatch": 6389,
      "Ġtraditional": 6390,
      "ctx": 6391,
      "Ġserve": 6392,
      "Ġ**)(*": 6393,
      "Ġ\")\")))": 6394,
      "Ġprofile": 6395,
      "istent": 6396,
      "Ġvision": 6397,
      "Ġproviding": 6398,
      "ĠWebSockets": 6399,
      "Ġaim": 6400,
      "Ġallowing": 6401,
      "ATIONS": 6402,
      "nfrom": 6403,
      "Ġpow": 6404,
      "NUM": 6405,
      "ĠPub": 6406,
      "Ġjourney": 6407,
      "Ġgas": 6408,
      "She": 6409,
      "Ġcountries": 6410,
      "Ġnotice": 6411,
      "ĠĠĠĠĠĠĠĠĠĠĠĠĠĠĠĠĠĠĠĠĠĠĠĠĠĠĠĠĠĠĠĠ": 6412,
      "Ġoutcomes": 6413,
      "Ġspect": 6414,
      "Ġusability": 6415,
      "ĠGeneral": 6416,
      "transform": 6417,
      "Ġhoriz": 6418,
      "('/": 6419,
      "cident": 6420,
      "ĠExample": 6421,
      "ĠValid": 6422,
      "types": 6423,
      "entries": 6424,
      "Ġcompet": 6425,
      "Ġtwice": 6426,
      "Ġprograms": 6427,
      "Ġscores": 6428,
      "Ġsprint": 6429,
      "Ġadult": 6430,
      "})": 6431,
      "tn": 6432,
      "quant": 6433,
      "Ġability": 6434,
      "Ġctx": 6435,
      "Ġfi": 6436,
      "ansomware": 6437,
      "idential": 6438,
      "Ġassign": 6439,
      "aws": 6440,
      "Ġcursor": 6441,
      "ĠDisplay": 6442,
      "iminal": 6443,
      "Book": 6444,
      "emporal": 6445,
      "Ġgiving": 6446,
      "Ġinline": 6447,
      "Ġgenerated": 6448,
      "Ġprofession": 6449,
      "models": 6450,
      "handler": 6451,
      "LEA": 6452,
      "ĠRO": 6453,
      "stud": 6454,
      "dule": 6455,
      "Ġ\"*\")))": 6456,
      "Ġ(-": 6457,
      "Row": 6458,
      "XX": 6459,
      "Ġsuff": 6460,
      "plicate": 6461,
      "Ġvisit": 6462,
      "Ġaccessibility": 6463,
      "inate": 6464,
      "Ġinsect": 6465,
      "abled": 6466,
      "display": 6467,
      "ĠUnderstanding": 6468,
      "oe": 6469,
      "rase": 6470,
      "Ġsurrounding": 6471,
      "reach": 6472,
      "look": 6473,
      "Storage": 6474,
      "Ġrecurs": 6475,
      "month": 6476,
      "Ġscenarios": 6477,
      "ĠRef": 6478,
      "Ġexpon": 6479,
      "Ġrare": 6480,
      "Ġalert": 6481,
      "Ġcompletely": 6482,
      "FO": 6483,
      "ĠMany": 6484,
      "Ġ$(": 6485,
      "Ġplaceholder": 6486,
      "**\\": 6487,
      "Ġstick": 6488,
      "Ġcompany": 6489,
      "Ġcaching": 6490,
      "Process": 6491,
      "Detection": 6492,
      "etect": 6493,
      "Ġqueries": 6494,
      "Ġrecon": 6495,
      "learn": 6496,
      "Ġnarrow": 6497,
      "Ġsimulation": 6498,
      "fort": 6499,
      "Ġcold": 6500,
      "Ġhon": 6501,
      "Ġpolic": 6502,
      "Ġvert": 6503,
      "Ġeggs": 6504,
      "Of": 6505,
      "Ġeducational": 6506,
      "}\\\")\\": 6507,
      "Ġplayers": 6508,
      "Ġeth": 6509,
      "ĠPract": 6510,
      "ĠTOOL": 6511,
      "SPE": 6512,
      "Trans": 6513,
      "aught": 6514,
      "ĠChain": 6515,
      "Given": 6516,
      "bes": 6517,
      "ĠTensor": 6518,
      "Ret": 6519,
      "awn": 6520,
      "Ġpa": 6521,
      "Ġnet": 6522,
      "listen": 6523,
      "Ġfinding": 6524,
      "sim": 6525,
      "Ġapi": 6526,
      "Ġkeeping": 6527,
      "RR": 6528,
      "}$": 6529,
      "\\\";": 6530,
      "pred": 6531,
      "sys": 6532,
      "Ġrepresents": 6533,
      "Ġbuf": 6534,
      "Ġeast": 6535,
      "Ġoffering": 6536,
      "loss": 6537,
      "iced": 6538,
      "Ġspring": 6539,
      "ĠSoci": 6540,
      "Ġhardware": 6541,
      "Ġsociety": 6542,
      "}</": 6543,
      "created": 6544,
      "Ġvel": 6545,
      "ov": 6546,
      "igen": 6547,
      "ĠOct": 6548,
      "hesis": 6549,
      "asons": 6550,
      "Ġrot": 6551,
      "bur": 6552,
      "iders": 6553,
      "ailable": 6554,
      "graph": 6555,
      "Ġcert": 6556,
      "Ġincorpor": 6557,
      "ĠBritish": 6558,
      "LINE": 6559,
      "Ġdistributed": 6560,
      "ĊĠĠĠĠĠĠĠĠĊĠĠĠĠĠĠĠ": 6561,
      "ĠSw": 6562,
      "CD": 6563,
      "Ġsignificantly": 6564,
      "ĠMiss": 6565,
      "ertainly": 6566,
      "category": 6567,
      "Ġls": 6568,
      "__(": 6569,
      "Ġlooked": 6570,
      "EventListener": 6571,
      "submit": 6572,
      "ĠPrefer": 6573,
      "ĠOnce": 6574,
      "Ġmaintaining": 6575,
      "',\\": 6576,
      "Ġpriority": 6577,
      "ĠPath": 6578,
      "unsigned": 6579,
      "Ġpassing": 6580,
      "Ġnut": 6581,
      "Ġgir": 6582,
      "Ġsurv": 6583,
      "ĠThrough": 6584,
      ")[": 6585,
      "oul": 6586,
      "'):": 6587,
      "Ġlandscape": 6588,
      "ĠOur": 6589,
      "Ġvendor": 6590,
      "ĠKing": 6591,
      "rew": 6592,
      "Ġturned": 6593,
      "ĠAdditionally": 6594,
      "urb": 6595,
      "BUFFER": 6596,
      "ĠTod": 6597,
      "Ġmaze": 6598,
      "was": 6599,
      "Ġenvironmental": 6600,
      "Ġlinks": 6601,
      "Ġrouting": 6602,
      "Ġ\"{\")": 6603,
      "Ġprojects": 6604,
      "ymbol": 6605,
      "Ġavailability": 6606,
      "Ġer": 6607,
      "Ġ(}": 6608,
      "Ġdomains": 6609,
      "High": 6610,
      "plVar": 6611,
      "plication": 6612,
      "Ġclimate": 6613,
      "Ġfloor": 6614,
      "Ġnation": 6615,
      "Ġprime": 6616,
      "Ġhybrid": 6617,
      "Ġhandlers": 6618,
      "Ġdevices": 6619,
      "Ġpen": 6620,
      "anches": 6621,
      "ilarly": 6622,
      "ĠHer": 6623,
      "Ġjud": 6624,
      "NDS": 6625,
      "Ġevolution": 6626,
      "Ġdeeper": 6627,
      "inking": 6628,
      "price": 6629,
      "Ġmenu": 6630,
      "found": 6631,
      "Ġque": 6632,
      "alog": 6633,
      "Ġspot": 6634,
      "Ġfrequently": 6635,
      "pool": 6636,
      "Ġefficiency": 6637,
      "Ġlargest": 6638,
      "Ġfol": 6639,
      "Ġportion": 6640,
      "save": 6641,
      "celer": 6642,
      "img": 6643,
      "Ġletters": 6644,
      "ĠTyp": 6645,
      "ainer": 6646,
      "'],": 6647,
      ".]": 6648,
      "Ġcommunities": 6649,
      "Ġresulting": 6650,
      "Ġdistingu": 6651,
      "Ġ(**(": 6652,
      "Ġ----------": 6653,
      "Ġrepresentation": 6654,
      "ĠLin": 6655,
      "Ġscreen": 6656,
      "ĠEXIT": 6657,
      "ĠExp": 6658,
      "ĠIntelligence": 6659,
      "Ġmillion": 6660,
      "Ġerr": 6661,
      "itative": 6662,
      "Ġtransfer": 6663,
      "venue": 6664,
      "Ġfun": 6665,
      "then": 6666,
      "Is": 6667,
      "obile": 6668,
      "Server": 6669,
      "execute": 6670,
      "Ġsynchron": 6671,
      "Ġcauses": 6672,
      "internal": 6673,
      "gar": 6674,
      "\")))": 6675,
      "Ġvalidate": 6676,
      "Ġslices": 6677,
      "aj": 6678,
      "Ġdownload": 6679,
      "VI": 6680,
      "Ġparticles": 6681,
      "Ġtyping": 6682,
      "Ġeight": 6683,
      "poses": 6684,
      "chmark": 6685,
      "Ġradi": 6686,
      "git": 6687,
      "ĠLayer": 6688,
      "ocity": 6689,
      "Ġpull": 6690,
      "Ġgoes": 6691,
      "ckets": 6692,
      "Ġscope": 6693,
      "ĠDevelop": 6694,
      "Rel": 6695,
      ")/": 6696,
      "ias": 6697,
      "pOVar": 6698,
      "Ġinsp": 6699,
      "BO": 6700,
      "vate": 6701,
      ".'": 6702,
      "irth": 6703,
      "Ġenforce": 6704,
      "console": 6705,
      "={": 6706,
      "xffffff": 6707,
      "qrt": 6708,
      "short": 6709,
      "scan": 6710,
      "Ġscientific": 6711,
      "orders": 6712,
      "ilies": 6713,
      "Ġveget": 6714,
      "pppp": 6715,
      "ĠMet": 6716,
      "ĠOther": 6717,
      "Ġyourself": 6718,
      "Ġ\")\"))": 6719,
      "Ġstar": 6720,
      ",[": 6721,
      "Ġsummer": 6722,
      "ox": 6723,
      "ĠSend": 6724,
      "prise": 6725,
      "Ġrights": 6726,
      "ĠArt": 6727,
      "ĠShow": 6728,
      "Can": 6729,
      "Ġdiscussion": 6730,
      "ĠConvert": 6731,
      "ateway": 6732,
      "Ġasset": 6733,
      "ĠGenerate": 6734,
      "Ġfundament": 6735,
      "inated": 6736,
      "neg": 6737,
      "todos": 6738,
      "Mark": 6739,
      "PA": 6740,
      "ĠAx": 6741,
      "ĠExamples": 6742,
      "Ġsprintf": 6743,
      "itimate": 6744,
      "await": 6745,
      "clear": 6746,
      "ById": 6747,
      "urrency": 6748,
      "Ġforces": 6749,
      "Ġreduction": 6750,
      "|\\": 6751,
      "Ġarchitectural": 6752,
      "Ġbehaviors": 6753,
      "includ": 6754,
      "Message": 6755,
      "NAME": 6756,
      "ieved": 6757,
      "edicated": 6758,
      "Ver": 6759,
      "Ġresil": 6760,
      "Ġemb": 6761,
      "```\\": 6762,
      "Ġriver": 6763,
      "ufact": 6764,
      "Ġproport": 6765,
      "sentence": 6766,
      "ĠNetwork": 6767,
      "':\\": 6768,
      "Ġmedic": 6769,
      "Dis": 6770,
      "argc": 6771,
      "login": 6772,
      "Ġrelease": 6773,
      "Ġ(((": 6774,
      "Call": 6775,
      "Ġregister": 6776,
      "ĠCPU": 6777,
      "Ġmaps": 6778,
      "Ġoptional": 6779,
      "Ġabsolute": 6780,
      "Ġspecify": 6781,
      "cut": 6782,
      "Ġenables": 6783,
      "ercase": 6784,
      "Ġcour": 6785,
      "Ġpaint": 6786,
      "Ġprep": 6787,
      "Problem": 6788,
      "ien": 6789,
      "Ġpet": 6790,
      "yal": 6791,
      "stats": 6792,
      "Ġmodeling": 6793,
      "Ġtransition": 6794,
      "Ġrefresh": 6795,
      "Ġ\\\\": 6796,
      "wrap": 6797,
      "pts": 6798,
      "âĶĢâĶĢâĶĢâĶĢâĶĢâĶĢâĶĢâĶĢâĶĢâĶĢâĶĢâĶĢâĶĢâĶĢâĶĢâĶĢâĶĢâĶĢâĶĢâĶĢâĶĢâĶĢâĶĢâĶĢâĶĢâĶĢâĶĢâĶĢâĶĢâĶĢâĶĢâĶĢ": 6799,
      "Ġcontinued": 6800,
      "ese": 6801,
      "Ġnucle": 6802,
      "Ġsockfd": 6803,
      "Ġok": 6804,
      "ĠTask": 6805,
      "Ġmodified": 6806,
      "Ġcultural": 6807,
      "bool": 6808,
      "Write": 6809,
      "EE": 6810,
      "lat": 6811,
      ",*(": 6812,
      "argo": 6813,
      "irror": 6814,
      "Ġjournal": 6815,
      "ï¿": 6816,
      "Ġ((*(": 6817,
      "cker": 6818,
      "Ġchars": 6819,
      "oi": 6820,
      "Ġpowerful": 6821,
      "Ġmagn": 6822,
      "atabase": 6823,
      "Ġscalability": 6824,
      "Ġdoubt": 6825,
      "ï¿½": 6826,
      "Certainly": 6827,
      "Ġreus": 6828,
      "ilos": 6829,
      "addEventListener": 6830,
      "Ġtrade": 6831,
      "mediate": 6832,
      ":\\\\": 6833,
      "Ġapproaches": 6834,
      "eric": 6835,
      "pled": 6836,
      "Ġvisually": 6837,
      "ĠâĪ": 6838,
      "[:": 6839,
      "roq": 6840,
      ".\"},": 6841,
      "nx": 6842,
      "Ġtouch": 6843,
      "Ġfindings": 6844,
      "ĠRedis": 6845,
      "health": 6846,
      "++]": 6847,
      "Ġmanner": 6848,
      "Ġdepends": 6849,
      "Ġpositions": 6850,
      "ĠPart": 6851,
      "Ġlimits": 6852,
      "à¸": 6853,
      "Ġroles": 6854,
      "Ġdefe": 6855,
      "Ġalternative": 6856,
      "Ġroots": 6857,
      "Ġlearned": 6858,
      "ĠOS": 6859,
      "how": 6860,
      "Ġwall": 6861,
      "Ġ''": 6862,
      "elines": 6863,
      "ĠUnc": 6864,
      "inder": 6865,
      "Ġsomewhat": 6866,
      "Ġcrate": 6867,
      "ĠII": 6868,
      "Ġinstantly": 6869,
      "ĠTop": 6870,
      "Ġpayment": 6871,
      "Pre": 6872,
      "Ġtransport": 6873,
      "ĠHealth": 6874,
      "Ġdivision": 6875,
      "Image": 6876,
      "ama": 6877,
      "Ġservers": 6878,
      "Ġadopt": 6879,
      "ĠPoints": 6880,
      "Ġband": 6881,
      "training": 6882,
      "Ġexcell": 6883,
      "Ġinvestig": 6884,
      "Ġproperly": 6885,
      "mess": 6886,
      "istration": 6887,
      "Ġvulnerability": 6888,
      "Ġefforts": 6889,
      "Ġ[]},": 6890,
      "Ġpointer": 6891,
      "Ġexport": 6892,
      "Ġretrie": 6893,
      "Ġassumptions": 6894,
      "Ġcarbon": 6895,
      "Ġfet": 6896,
      "Ġ\"}\"": 6897,
      "extra": 6898,
      "Ġsubagent": 6899,
      "poss": 6900,
      "Ġsust": 6901,
      "Ġincreases": 6902,
      "pute": 6903,
      "Ġsimulate": 6904,
      "Ġremote": 6905,
      "ĠMarch": 6906,
      "Ġdecisions": 6907,
      "tty": 6908,
      "Handler": 6909,
      "Ġfacilitate": 6910,
      "Ġresponsibility": 6911,
      "aign": 6912,
      "Ġsubsequ": 6913,
      "Ġinventory": 6914,
      "Ġtab": 6915,
      "ĠTemporal": 6916,
      "oted": 6917,
      "Ġâī": 6918,
      "Ġmanaging": 6919,
      "Ġseparated": 6920,
      "Ġdegree": 6921,
      "ĠLa": 6922,
      "'),": 6923,
      "direct": 6924,
      "Ġaggreg": 6925,
      "Ġconfusion": 6926,
      "PTY": 6927,
      "Ġbroadcast": 6928,
      "WORD": 6929,
      "ball": 6930,
      "hedule": 6931,
      "Ġcoast": 6932,
      "Then": 6933,
      "Ġfwrite": 6934,
      "Ġideas": 6935,
      "ĠSD": 6936,
      "Ġodd": 6937,
      "Ġcaused": 6938,
      "Ġpolicies": 6939,
      "ISC": 6940,
      "Ġappearance": 6941,
      "element": 6942,
      "Ġoperating": 6943,
      "ĠJust": 6944,
      "MS": 6945,
      "Ġmember": 6946,
      "URL": 6947,
      "Ġfa": 6948,
      "ĠImport": 6949,
      "Ġpitf": 6950,
      "enance": 6951,
      "ille": 6952,
      "ĠRout": 6953,
      "Ġenjoy": 6954,
      "CX": 6955,
      "Ġrock": 6956,
      "ithub": 6957,
      "Ġkernel": 6958,
      "ondon": 6959,
      "ipal": 6960,
      "Replace": 6961,
      "Ġencrypted": 6962,
      "ĠServer": 6963,
      "Ġmedium": 6964,
      "Ġcomputing": 6965,
      "Ġschedul": 6966,
      "Ġdeployment": 6967,
      "hetic": 6968,
      "\\\"]": 6969,
      "âĸĪâĸĪâĸĪâĸĪ": 6970,
      "Alice": 6971,
      "Mat": 6972,
      "Ġspecimens": 6973,
      "Ġplanet": 6974,
      "ĠArchitecture": 6975,
      "ĠWell": 6976,
      "ĠNUM": 6977,
      "Ġpandas": 6978,
      "remove": 6979,
      "your": 6980,
      "Ġincoming": 6981,
      "Ġdedicated": 6982,
      "Ġsumm": 6983,
      "Project": 6984,
      "Ġorche": 6985,
      "Ġdecimal": 6986,
      "Ġinteract": 6987,
      "Ġ).": 6988,
      "Product": 6989,
      "Ġeasier": 6990,
      "Ġ*)(*": 6991,
      "ĠEl": 6992,
      "Ġversions": 6993,
      "authorized": 6994,
      "enshot": 6995,
      "fn": 6996,
      "ĠuseState": 6997,
      "abits": 6998,
      "Ġdoor": 6999,
      "ndx": 7000,
      "Ġreported": 7001,
      "rich": 7002,
      "XOR": 7003,
      "RU": 7004,
      "ada": 7005,
      "ultane": 7006,
      "Ġft": 7007,
      "ĠUnknown": 7008,
      "Ġanalytics": 7009,
      "Ġstyles": 7010,
      "cpy": 7011,
      "ĠSummary": 7012,
      "Ġdiam": 7013,
      "Ġsong": 7014,
      "Ġ<<": 7015,
      "Ġtown": 7016,
      "Ġtables": 7017,
      "Ġinterpretation": 7018,
      "ĠExit": 7019,
      "Ġdiscovered": 7020,
      "erge": 7021,
      "ĠSch": 7022,
      "ruption": 7023,
      "USER": 7024,
      "Ġbuttons": 7025,
      "Ġexploring": 7026,
      "Ġ(_": 7027,
      "HTML": 7028,
      "Edit": 7029,
      "anon": 7030,
      "ette": 7031,
      "Ġnest": 7032,
      "Ġalgorithms": 7033,
      "ĠAlternative": 7034,
      "Ġhit": 7035,
      "Ġeffort": 7036,
      "Ġhappens": 7037,
      "Ġgenerator": 7038,
      "Ġmist": 7039,
      "Ġleaf": 7040,
      "Ġintended": 7041,
      "ocation": 7042,
      "Ġapproxim": 7043,
      "WR": 7044,
      "roke": 7045,
      "Ġclosely": 7046,
      "ĠStrateg": 7047,
      "Ġutil": 7048,
      "Ġ```": 7049,
      "Ġofficial": 7050,
      "Ġinfrastructure": 7051,
      "Ġpain": 7052,
      "\"]]": 7053,
      "miss": 7054,
      "Tod": 7055,
      "Ġcircum": 7056,
      "iliar": 7057,
      "Em": 7058,
      "ĠðŁ": 7059,
      "ĉĉ": 7060,
      "Ġ\"**": 7061,
      "Ġanyone": 7062,
      "Ġparents": 7063,
      "ĠDN": 7064,
      "Ġ;))": 7065,
      "Ġtun": 7066,
      "pan": 7067,
      "emp": 7068,
      "Ġcollaborative": 7069,
      "Ġlabor": 7070,
      "Ġboundary": 7071,
      "hello": 7072,
      "results": 7073,
      "arant": 7074,
      "ĠProf": 7075,
      "Ġtriggers": 7076,
      "td": 7077,
      "Ġscroll": 7078,
      "Ġdisk": 7079,
      "Ġphone": 7080,
      "Ġcycle": 7081,
      "Ġfif": 7082,
      "GR": 7083,
      "olved": 7084,
      "quiring": 7085,
      "Ġbranches": 7086,
      "Ġtend": 7087,
      "Ġconsidering": 7088,
      "EDX": 7089,
      "ĠFurther": 7090,
      "aker": 7091,
      "omm": 7092,
      "Ġintroduced": 7093,
      "[[\"": 7094,
      "vision": 7095,
      "ĠAre": 7096,
      "copy": 7097,
      "Ġimprovement": 7098,
      "Current": 7099,
      "Ġbed": 7100,
      "username": 7101,
      "pdf": 7102,
      "Ġimagine": 7103,
      "ElementById": 7104,
      "Ġresolution": 7105,
      "Ġanticip": 7106,
      "Ġmeasures": 7107,
      "PS": 7108,
      "Ġtruth": 7109,
      "loop": 7110,
      "ĠEBX": 7111,
      "cur": 7112,
      "Ġorders": 7113,
      "normal": 7114,
      "âķĲâķĲâķĲâķĲâķĲâķĲâķĲâķĲ": 7115,
      "ĠWilli": 7116,
      "sur": 7117,
      "Ġinsider": 7118,
      "ĠEngland": 7119,
      "Ġpartial": 7120,
      "emo": 7121,
      "ĠPlan": 7122,
      "pons": 7123,
      "pay": 7124,
      "Ġbaseline": 7125,
      "ipped": 7126,
      "Ġ'./": 7127,
      "Class": 7128,
      "Ġlint": 7129,
      "pyc": 7130,
      "Ġbill": 7131,
      "ĠGraph": 7132,
      "ĠRemember": 7133,
      "lie": 7134,
      "Ġresponses": 7135,
      "Ġlegal": 7136,
      "Ġdiagn": 7137,
      "prompt": 7138,
      "claude": 7139,
      "dataplus": 7140,
      "Ġhalt": 7141,
      "CR": 7142,
      "Ġstats": 7143,
      "ĠPrimary": 7144,
      "Ġprim": 7145,
      "Ġmask": 7146,
      "iler": 7147,
      "abc": 7148,
      "eras": 7149,
      "Ġculti": 7150,
      "enders": 7151,
      "Ġfight": 7152,
      "endar": 7153,
      "Ġorchestr": 7154,
      "Ġnetworks": 7155,
      "hicle": 7156,
      "ĠEnter": 7157,
      "Ġaudit": 7158,
      "Ġbuy": 7159,
      "Ġtypography": 7160,
      "Ġplease": 7161,
      "Ġeat": 7162,
      "poll": 7163,
      "Ġhighest": 7164,
      "PARISC": 7165,
      "chain": 7166,
      "Ġinitially": 7167,
      "riend": 7168,
      "Ġsignature": 7169,
      "grees": 7170,
      "Ġgran": 7171,
      "Finally": 7172,
      "getElementById": 7173,
      "ashing": 7174,
      "ĠHE": 7175,
      "Ġconversion": 7176,
      "Ġliqu": 7177,
      "reachable": 7178,
      "Ġfasc": 7179,
      "Ġwave": 7180,
      "rays": 7181,
      "Ġrecv": 7182,
      "ustral": 7183,
      "Ġ\"()\"": 7184,
      "ĠBO": 7185,
      "Ġresponsive": 7186,
      "Ġartifacts": 7187,
      "Ġsections": 7188,
      "attem": 7189,
      "querySelector": 7190,
      "uli": 7191,
      "Ġmanif": 7192,
      "Ġinvolved": 7193,
      "ĠDynamics": 7194,
      "Threat": 7195,
      "Ġautomated": 7196,
      "bet": 7197,
      "proc": 7198,
      "CS": 7199,
      "Status": 7200,
      "â£": 7201,
      "$,": 7202,
      "netic": 7203,
      "Ġrepository": 7204,
      "Ġnorm": 7205,
      "ĠTE": 7206,
      "ĠCommun": 7207,
      "POST": 7208,
      "Ġ\"-": 7209,
      "Ġcoming": 7210,
      "ĠInteractions": 7211,
      "compl": 7212,
      "Ġabuse": 7213,
      "ĠSociety": 7214,
      "Ġsin": 7215,
      "ADDR": 7216,
      "Ġimprovements": 7217,
      "Ġcorrelation": 7218,
      "tom": 7219,
      "Ġeffectively": 7220,
      "erv": 7221,
      "Ġvict": 7222,
      "Ġelev": 7223,
      "Ġmult": 7224,
      "Ġserial": 7225,
      "allest": 7226,
      "zero": 7227,
      "Ġcarried": 7228,
      "TEST": 7229,
      "ĠFrontend": 7230,
      "aran": 7231,
      "method": 7232,
      "Ġopportunities": 7233,
      "Ġinspect": 7234,
      "Ġgarden": 7235,
      "refix": 7236,
      "Ġcleanly": 7237,
      "Ġconfidence": 7238,
      "Ġscaling": 7239,
      "Comp": 7240,
      "Ġfib": 7241,
      "Ġowner": 7242,
      "ĠGre": 7243,
      "Ġnavigate": 7244,
      "Ġsex": 7245,
      "Ġice": 7246,
      "ĠAugust": 7247,
      "HO": 7248,
      "den": 7249,
      "itter": 7250,
      "omial": 7251,
      "align": 7252,
      "POP": 7253,
      "Dec": 7254,
      "echo": 7255,
      "necess": 7256,
      "ysical": 7257,
      "window": 7258,
      "ASK": 7259,
      "Ġregions": 7260,
      ")*": 7261,
      "Per": 7262,
      "ceive": 7263,
      "entity": 7264,
      "extract": 7265,
      "Ġfiltering": 7266,
      ">,": 7267,
      "bad": 7268,
      "Ġcast": 7269,
      "ĠEven": 7270,
      "ĠDataFrame": 7271,
      "Ġmoves": 7272,
      "Ġattempts": 7273,
      "Ġwrap": 7274,
      "real": 7275,
      "Ġcd": 7276,
      "Ġjoint": 7277,
      "amm": 7278,
      "],\\": 7279,
      "Ġdamage": 7280,
      "mosph": 7281,
      "Ġ\"[": 7282,
      "ocial": 7283,
      "anguages": 7284,
      "Ġdeeply": 7285,
      "Ġcharge": 7286,
      "ĠAny": 7287,
      "install": 7288,
      "Model": 7289,
      "Ġ-=": 7290,
      "account": 7291,
      "cancelled": 7292,
      "Filter": 7293,
      "LM": 7294,
      "ĠJuly": 7295,
      "Ġrefers": 7296,
      "Ġsignals": 7297,
      "Ġgain": 7298,
      "ĠPos": 7299,
      "plain": 7300,
      "Ġfather": 7301,
      "appe": 7302,
      "Ġpossess": 7303,
      "ĠEnc": 7304,
      "Ġskin": 7305,
      "sych": 7306,
      "Ġrecall": 7307,
      "inv": 7308,
      "under": 7309,
      "Ġpersistent": 7310,
      "Ġbrain": 7311,
      "Ġpounds": 7312,
      "Ġproof": 7313,
      "ĠScience": 7314,
      "wide": 7315,
      "ĠPower": 7316,
      "Ġrequested": 7317,
      "irus": 7318,
      "Ġexpress": 7319,
      "uary": 7320,
      "ĠBr": 7321,
      "Ġdecided": 7322,
      "ader": 7323,
      "Ġoccasion": 7324,
      "Ġbudget": 7325,
      "'},": 7326,
      "CV": 7327,
      "water": 7328,
      "wright": 7329,
      "arter": 7330,
      "ibrary": 7331,
      "Create": 7332,
      "ĠTTP": 7333,
      "Ġpossibly": 7334,
      "ROM": 7335,
      "/{": 7336,
      "ropy": 7337,
      "cious": 7338,
      "todo": 7339,
      "Ġarch": 7340,
      "Ġevaluate": 7341,
      "UI": 7342,
      "ĠRight": 7343,
      "Ġhunting": 7344,
      "wd": 7345,
      "west": 7346,
      "Ġoverhead": 7347,
      "events": 7348,
      "soft": 7349,
      "Ġfinally": 7350,
      "ĠVol": 7351,
      "Ġlever": 7352,
      "Ġinstant": 7353,
      "sw": 7354,
      "ptember": 7355,
      "npm": 7356,
      "Ġcele": 7357,
      "cean": 7358,
      "ĠApril": 7359,
      "onic": 7360,
      "gnu": 7361,
      "Solution": 7362,
      "ĠComplex": 7363,
      "Ġspirit": 7364,
      "Ġinitialize": 7365,
      "books": 7366,
      "ĠSol": 7367,
      "record": 7368,
      "ĠVar": 7369,
      "street": 7370,
      "break": 7371,
      "testing": 7372,
      "elihood": 7373,
      "Ġrecognize": 7374,
      "Back": 7375,
      "Ġdocuments": 7376,
      "Ġaddressing": 7377,
      "ertainties": 7378,
      "Impact": 7379,
      "complete": 7380,
      "Ġthin": 7381,
      "CAT": 7382,
      "Fig": 7383,
      "zen": 7384,
      "ITE": 7385,
      "Ġfro": 7386,
      "Ġdrawing": 7387,
      "CMP": 7388,
      "Ġchief": 7389,
      "Ab": 7390,
      "amps": 7391,
      "ĠFrench": 7392,
      "ĠEast": 7393,
      "ĠApply": 7394,
      "ĠKeep": 7395,
      "ĠTTPs": 7396,
      "aintext": 7397,
      "ĠStruct": 7398,
      "Pass": 7399,
      "Ġolder": 7400,
      "greSQL": 7401,
      "win": 7402,
      "prev": 7403,
      ":*": 7404,
      "Ġmerg": 7405,
      "Ġalerts": 7406,
      "Ġbriefly": 7407,
      "ĠIndian": 7408,
      "Ġoverr": 7409,
      "Ġdegrees": 7410,
      "requency": 7411,
      "ĠMechanisms": 7412,
      ":%": 7413,
      "pending": 7414,
      "Ġcos": 7415,
      "Ġhtml": 7416,
      "Ġcapital": 7417,
      "phone": 7418,
      "\\\"></": 7419,
      "ĠHel": 7420,
      "---\\": 7421,
      "Ġstub": 7422,
      "pages": 7423,
      "you": 7424,
      "Ġregarding": 7425,
      "equal": 7426,
      "Supply": 7427,
      "Ġhook": 7428,
      "emporary": 7429,
      "Cha": 7430,
      "muted": 7431,
      "person": 7432,
      "Ġindicate": 7433,
      "Ġdir": 7434,
      "gorithm": 7435,
      "âľĵ": 7436,
      "ĠSpec": 7437,
      "Ġratio": 7438,
      "Ġreset": 7439,
      "Why": 7440,
      "urations": 7441,
      "/`": 7442,
      "Ġchapter": 7443,
      "sample": 7444,
      "Ġcalculation": 7445,
      "ĠBoth": 7446,
      "Ġprinc": 7447,
      "Ġfetching": 7448,
      "SPECI": 7449,
      "ĠModule": 7450,
      "Ġequivalent": 7451,
      "ĠEDI": 7452,
      "Ġmotion": 7453,
      "Ġprotection": 7454,
      "Ġpaid": 7455,
      "ĠGovern": 7456,
      "Ġ\")\"))))": 7457,
      "about": 7458,
      "Ġcomparison": 7459,
      "ximity": 7460,
      "ĠVis": 7461,
      "supp": 7462,
      "Client": 7463,
      "making": 7464,
      "ermark": 7465,
      "Ġlatest": 7466,
      "xx": 7467,
      "Ġlocked": 7468,
      "Ġcategories": 7469,
      "Ġcompan": 7470,
      "ĠProduct": 7471,
      "Ġwin": 7472,
      "pter": 7473,
      "ĠDefine": 7474,
      "Ġ};\\": 7475,
      "merge": 7476,
      "interval": 7477,
      "Ġonto": 7478,
      "Medium": 7479,
      "ĠCost": 7480,
      "ĠMove": 7481,
      "Ġshr": 7482,
      "Ġimg": 7483,
      "TI": 7484,
      "Ġnational": 7485,
      "ĠAnt": 7486,
      "Ġpredi": 7487,
      "Ġvers": 7488,
      "Ġ)\\": 7489,
      "ĠIts": 7490,
      "Ġadher": 7491,
      "Ġimproved": 7492,
      "Ġheaders": 7493,
      "uple": 7494,
      "ĠHistory": 7495,
      "aven": 7496,
      "Ġraised": 7497,
      "rg": 7498,
      "Ġapparent": 7499,
      "Ġcoupling": 7500,
      "Ġmorning": 7501,
      "consider": 7502,
      "Defense": 7503,
      "mid": 7504,
      "ĠTheir": 7505,
      "Ġpreced": 7506,
      "ĠCre": 7507,
      "osen": 7508,
      "Ġqword": 7509,
      "Ġduration": 7510,
      "Ġnovel": 7511,
      "location": 7512,
      "ĠPDF": 7513,
      "Ġdetermined": 7514,
      "}'": 7515,
      "Ġancient": 7516,
      "Ġinstalls": 7517,
      "ifts": 7518,
      "Ġcolour": 7519,
      "ENTS": 7520,
      "Ġresponsiveness": 7521,
      "Block": 7522,
      "redu": 7523,
      "Ġtargeted": 7524,
      "dcgettext": 7525,
      "Ġyields": 7526,
      "static": 7527,
      "Ġphen": 7528,
      "Ġasynchron": 7529,
      "Ġplanning": 7530,
      "care": 7531,
      "Ġdiverse": 7532,
      "Ġdecl": 7533,
      "done": 7534,
      "pycache": 7535,
      "Ġedges": 7536,
      "hal": 7537,
      "Ġsear": 7538,
      "Ġanomal": 7539,
      "Ġlinked": 7540,
      "_>\\": 7541,
      "Comm": 7542,
      "FIC": 7543,
      "\\\">${": 7544,
      "/:": 7545,
      "va": 7546,
      "border": 7547,
      "Ġappend": 7548,
      "sql": 7549,
      "Ġminor": 7550,
      "och": 7551,
      "romise": 7552,
      "APT": 7553,
      "Ġcro": 7554,
      "ĠSee": 7555,
      "Ġinstr": 7556,
      "KEY": 7557,
      "ĠCor": 7558,
      "Ġdigit": 7559,
      "nets": 7560,
      "Ġcredential": 7561,
      "Ġuniform": 7562,
      "Ġtoggle": 7563,
      "orph": 7564,
      "essor": 7565,
      "^{": 7566,
      "Ġsing": 7567,
      "Ġdanger": 7568,
      "ĠTwo": 7569,
      "ĠCY": 7570,
      "Ġbeg": 7571,
      "Ġinstances": 7572,
      "Ġweights": 7573,
      "strlen": 7574,
      "ĠSk": 7575,
      "ĠHar": 7576,
      "Ġlisten": 7577,
      "uk": 7578,
      "onal": 7579,
      "params": 7580,
      "modal": 7581,
      "starts": 7582,
      "threads": 7583,
      "Ġvent": 7584,
      "apan": 7585,
      "Ġske": 7586,
      "ĠDefault": 7587,
      "ĠEth": 7588,
      "Ġpayload": 7589,
      "Last": 7590,
      "ivation": 7591,
      "Ġmother": 7592,
      "Ġstyling": 7593,
      "irc": 7594,
      "Ġdigital": 7595,
      "Ġ\\\"$": 7596,
      "ws": 7597,
      "zing": 7598,
      "Ġmodularity": 7599,
      "Ġseeds": 7600,
      "Pol": 7601,
      "orrow": 7602,
      "ĠIDs": 7603,
      "Ġcry": 7604,
      "useum": 7605,
      "Light": 7606,
      "Ġ:)": 7607,
      "dy": 7608,
      "Ġrank": 7609,
      "ustri": 7610,
      "Ġtele": 7611,
      "scale": 7612,
      "Ġ(&": 7613,
      "Ġgall": 7614,
      "Ġintel": 7615,
      "Frontend": 7616,
      "Ġadds": 7617,
      "ĠBre": 7618,
      "Ġpolitical": 7619,
      "Ġmanufact": 7620,
      "Ġaudio": 7621,
      "ĠCRUD": 7622,
      "Mem": 7623,
      "outhern": 7624,
      "Ġbreach": 7625,
      "uman": 7626,
      "ĠDist": 7627,
      "ĠAuthentication": 7628,
      "Board": 7629,
      "Ġinvestigation": 7630,
      "ĠFoundation": 7631,
      "ĠFeb": 7632,
      "Ġscales": 7633,
      "Ġbroken": 7634,
      "Ġ`__": 7635,
      "Ġencountered": 7636,
      "Ġinno": 7637,
      "Ġleaving": 7638,
      "anging": 7639,
      "Ġqual": 7640,
      "Ġeconomic": 7641,
      "SECURITY": 7642,
      "ynt": 7643,
      "orge": 7644,
      "Ġexperiments": 7645,
      "rat": 7646,
      "osed": 7647,
      "Ġpasses": 7648,
      "ĠAddress": 7649,
      "Player": 7650,
      "Ġ*****": 7651,
      "holders": 7652,
      "uge": 7653,
      "Ġpatches": 7654,
      "idge": 7655,
      "Ġ&&\\": 7656,
      "Ġmedical": 7657,
      "tokens": 7658,
      "plotlib": 7659,
      "Theoretical": 7660,
      "Ġextend": 7661,
      "Ġalph": 7662,
      "Ġfamilies": 7663,
      "Ġthrow": 7664,
      "Ġsupported": 7665,
      "curl": 7666,
      "ilosoph": 7667,
      "layer": 7668,
      "Ġpurch": 7669,
      "Ġadvance": 7670,
      "AGE": 7671,
      "Ġson": 7672,
      "Ġpixel": 7673,
      "Ġseemed": 7674,
      "aming": 7675,
      "ober": 7676,
      "ĠDuring": 7677,
      "('.": 7678,
      "Ġphrase": 7679,
      "FI": 7680,
      "ĉĊ": 7681,
      "Ġproportion": 7682,
      "Ġrain": 7683,
      "Remember": 7684,
      "edom": 7685,
      "Ġunknown": 7686,
      "Ġfunctional": 7687,
      "ĠComponents": 7688,
      "ĠCONSI": 7689,
      "nesses": 7690,
      "Ġmerely": 7691,
      "ĠInstead": 7692,
      "]);\\": 7693,
      "Ġscar": 7694,
      "ĠGreat": 7695,
      "ĠFore": 7696,
      "filtr": 7697,
      "Ġtit": 7698,
      "ĠPers": 7699,
      "Ġoutputs": 7700,
      "Ġouter": 7701,
      "ixels": 7702,
      "font": 7703,
      "ĠCONSIDER": 7704,
      "ysics": 7705,
      "github": 7706,
      "Ġchanging": 7707,
      "CL": 7708,
      "ĠON": 7709,
      "ĠCONSIDERATIONS": 7710,
      "chk": 7711,
      "Ġspots": 7712,
      "Words": 7713,
      "fortun": 7714,
      "ĠDav": 7715,
      "ports": 7716,
      "job": 7717,
      "ĠSS": 7718,
      "ĠPa": 7719,
      "SPECIFIC": 7720,
      "]))": 7721,
      "Ġstrategy": 7722,
      "JSON": 7723,
      "ĠCYBER": 7724,
      "Ġhelpful": 7725,
      "ĠUncertainties": 7726,
      "high": 7727,
      "Ġunauthorized": 7728,
      "Ġfemale": 7729,
      "Ġorganizations": 7730,
      "Ġatomic": 7731,
      "weets": 7732,
      "Ġopened": 7733,
      "lang": 7734,
      "iber": 7735,
      "Ġrepresenting": 7736,
      "Ġmalicious": 7737,
      "Ġmeeting": 7738,
      "Ġshowed": 7739,
      "Ġdele": 7740,
      "Ġiterative": 7741,
      "ĠCYBERSECURITY": 7742,
      "unks": 7743,
      "umps": 7744,
      "âĢī": 7745,
      "ĠLaw": 7746,
      "Hash": 7747,
      "ĠWait": 7748,
      "Ġhorizont": 7749,
      "scre": 7750,
      "Ġban": 7751,
      "Ġaccounts": 7752,
      "Ġintu": 7753,
      "Bu": 7754,
      "Ġ._": 7755,
      "Ġiteration": 7756,
      "ĠLondon": 7757,
      "Ġabund": 7758,
      "Ġ\"}\")))": 7759,
      "Ġlegitimate": 7760,
      "igor": 7761,
      "Ġwanted": 7762,
      "ica": 7763,
      "Ġves": 7764,
      "Ġobtain": 7765,
      "Ġglass": 7766,
      "Ġaccessible": 7767,
      "package": 7768,
      "Ġrepresented": 7769,
      "Ġhealthy": 7770,
      "Level": 7771,
      "UID": 7772,
      "Ġvectors": 7773,
      "Ġaccident": 7774,
      "gl": 7775,
      "ny": 7776,
      "ĠAutom": 7777,
      "Ġdol": 7778,
      "Ġplain": 7779,
      "Ġtwenty": 7780,
      "Ġfundamental": 7781,
      "iffer": 7782,
      "Ġcsv": 7783,
      "plates": 7784,
      "Ġexcess": 7785,
      "Ġstreams": 7786,
      "ĠBar": 7787,
      "Ġworkers": 7788,
      "Ġdisclosure": 7789,
      "Ġlocated": 7790,
      "Ġbenefit": 7791,
      "Ġrise": 7792,
      "Ġcanvas": 7793,
      "cy": 7794,
      "Ġvoice": 7795,
      "Ġfocused": 7796,
      "Ġbag": 7797,
      "idx": 7798,
      "Ġderived": 7799,
      "ometry": 7800,
      "ĠAustral": 7801,
      "ĠBad": 7802,
      "LEFT": 7803,
      "Ġoperational": 7804,
      "stdout": 7805,
      "Ġtrend": 7806,
      "ĠYet": 7807,
      "Ġsizes": 7808,
      "Ġcraft": 7809,
      "Ġ',": 7810,
      "Ġpractical": 7811,
      "Ġsummar": 7812,
      "Ġdestination": 7813,
      "mask": 7814,
      "Ġunnecess": 7815,
      "dden": 7816,
      "summary": 7817,
      "got": 7818,
      "Ġteacher": 7819,
      "Ġstrugg": 7820,
      "ĠStand": 7821,
      "Ġparty": 7822,
      "ĠNor": 7823,
      "Ġaspects": 7824,
      "Ġcollections": 7825,
      "Good": 7826,
      "Also": 7827,
      "Go": 7828,
      "warf": 7829,
      "Ġoccup": 7830,
      "Ġmm": 7831,
      "GB": 7832,
      "ka": 7833,
      "common": 7834,
      "Ġrecommended": 7835,
      "Ġ'*.": 7836,
      "========================": 7837,
      "Ġconcent": 7838,
      "ouses": 7839,
      "cores": 7840,
      "Ġdecomposition": 7841,
      "ĠQue": 7842,
      "Ġsegments": 7843,
      "orial": 7844,
      "Tool": 7845,
      "Ġwaiting": 7846,
      "Ġexcellent": 7847,
      "\\\";\\": 7848,
      "Backend": 7849,
      "Word": 7850,
      "ners": 7851,
      "Ġtransl": 7852,
      "Ġmoved": 7853,
      "Ġdetermin": 7854,
      "Target": 7855,
      "\")]": 7856,
      "Ġicon": 7857,
      "Ġhyper": 7858,
      "Ġwhom": 7859,
      "say": 7860,
      "âł": 7861,
      "ĠLeg": 7862,
      "flags": 7863,
      "pu": 7864,
      "vendor": 7865,
      "Ġperceived": 7866,
      "Ġnews": 7867,
      "timately": 7868,
      "Ġknew": 7869,
      "ĠGoogle": 7870,
      "Ġconstraints": 7871,
      "ustand": 7872,
      "Ġcit": 7873,
      "Ġtrick": 7874,
      "Ġ\\(": 7875,
      "ĠAg": 7876,
      "erior": 7877,
      "ĠWhy": 7878,
      "Ġcompletion": 7879,
      "ĠRel": 7880,
      "foo": 7881,
      "Ġkeeps": 7882,
      "Chapter": 7883,
      "eader": 7884,
      "Ġgrouping": 7885,
      "ĠSur": 7886,
      "Ġequations": 7887,
      "Ġatmosph": 7888,
      "ĠMem": 7889,
      "Ġwarning": 7890,
      "olds": 7891,
      "Ġacceler": 7892,
      "Ġsignatures": 7893,
      "Ġskip": 7894,
      "entation": 7895,
      "Ġpatients": 7896,
      "Ġaxis": 7897,
      "issue": 7898,
      "Ġpayloads": 7899,
      "Ġelectronic": 7900,
      "aranr": 7901,
      "Ġrefine": 7902,
      "Ġmodal": 7903,
      "Ġleak": 7904,
      "numpy": 7905,
      "umns": 7906,
      "Ġminute": 7907,
      "Ġdepending": 7908,
      "Ġopin": 7909,
      "Ġsummaries": 7910,
      "Ġfelt": 7911,
      "Ġisolation": 7912,
      "Ġclassification": 7913,
      "Entry": 7914,
      "Mo": 7915,
      "appendChild": 7916,
      "Ġrequiring": 7917,
      "just": 7918,
      "chem": 7919,
      "Ġhermes": 7920,
      "dot": 7921,
      "ĠGit": 7922,
      "Ġrecently": 7923,
      "Ġmale": 7924,
      "Ġtransaction": 7925,
      "Ġvisited": 7926,
      "Ġsudden": 7927,
      "life": 7928,
      "rary": 7929,
      "ĠPort": 7930,
      "Ġattract": 7931,
      "comma": 7932,
      "Ġran": 7933,
      "Ġrepeated": 7934,
      "prefix": 7935,
      "Ġconv": 7936,
      "Ġrepo": 7937,
      "Ġfort": 7938,
      "Ġenemy": 7939,
      "Ġclusters": 7940,
      "Ġthorough": 7941,
      "Html": 7942,
      "Ġadvantage": 7943,
      "Over": 7944,
      "}]": 7945,
      "Ġresearchers": 7946,
      "Symbol": 7947,
      "plicity": 7948,
      "dated": 7949,
      "ECX": 7950,
      "Ġhydro": 7951,
      "Ġsubmit": 7952,
      "Feed": 7953,
      "hy": 7954,
      "Request": 7955,
      "Ġguarant": 7956,
      "!!": 7957,
      "Ġemerging": 7958,
      "Ġguard": 7959,
      ".__": 7960,
      "usage": 7961,
      "Unknown": 7962,
      "digit": 7963,
      "feed": 7964,
      "nP": 7965,
      "parser": 7966,
      "Ġresilience": 7967,
      "ĠUN": 7968,
      "))))))": 7969,
      "Ġtracking": 7970,
      "ĠSec": 7971,
      "rical": 7972,
      "ĠProgram": 7973,
      "ĠOh": 7974,
      "arp": 7975,
      "Ġcars": 7976,
      "Ġpreviously": 7977,
      "iration": 7978,
      "Ġsimultane": 7979,
      "?âĢĿ": 7980,
      "ĠArch": 7981,
      "%.": 7982,
      "Ġlanguages": 7983,
      "Ġbreaking": 7984,
      "aur": 7985,
      "ste": 7986,
      "Ġformation": 7987,
      "Ġinject": 7988,
      "etermine": 7989,
      "Ġdeveloping": 7990,
      "Ġtimestamp": 7991,
      "Ġsubsequent": 7992,
      "hidden": 7993,
      "inger": 7994,
      "VP": 7995,
      "ĠTry": 7996,
      "Ġpty": 7997,
      "ABLE": 7998,
      "Ġ\\\"#": 7999,
      "duc": 8000,
      "Ġidentified": 8001,
      "Ġnice": 8002,
      "ĠMus": 8003,
      "Ġmouth": 8004,
      ".âĢĶ": 8005,
      "Open": 8006,
      "Ġattributes": 8007,
      "Sync": 8008,
      "Ġ'-": 8009,
      "itud": 8010,
      "Ġstress": 8011,
      "Ġschools": 8012,
      "Ġexfiltr": 8013,
      "Ġcomposition": 8014,
      "rusion": 8015,
      "ĠBefore": 8016,
      "Ġarm": 8017,
      "Ġrough": 8018,
      "Ġvertical": 8019,
      "Ġliterature": 8020,
      "IV": 8021,
      "Ġpse": 8022,
      "Ġdrill": 8023,
      "Ġpicture": 8024,
      "[(": 8025,
      "rooms": 8026,
      "ĠMit": 8027,
      "Ġkeyboard": 8028,
      "batch": 8029,
      "ointments": 8030,
      "Ġcontribut": 8031,
      "Ġpacket": 8032,
      "toml": 8033,
      "Ġactionable": 8034,
      "Aut": 8035,
      "]`": 8036,
      "enu": 8037,
      "Ġobservations": 8038,
      "Ġther": 8039,
      "Ġgrass": 8040,
      "roduction": 8041,
      "ĠPostgreSQL": 8042,
      "Security": 8043,
      "due": 8044,
      "iers": 8045,
      "ĠAlthough": 8046,
      "Ġfallback": 8047,
      "Ġcontainment": 8048,
      "Ġholds": 8049,
      "Ġdimensions": 8050,
      "oices": 8051,
      "awk": 8052,
      "Ġloops": 8053,
      "ĠAxum": 8054,
      "ĠNIST": 8055,
      "Ġprepar": 8056,
      "Ġexecutive": 8057,
      "Ġimproving": 8058,
      "Ġhappen": 8059,
      "Exp": 8060,
      "Ġdog": 8061,
      "Ġreverse": 8062,
      "Ġsanit": 8063,
      "Ġspent": 8064,
      "Ġencryption": 8065,
      "vile": 8066,
      "Ġhref": 8067,
      "ĠJS": 8068,
      "Ġdivided": 8069,
      "Ġcivil": 8070,
      "Default": 8071,
      "Ġpretty": 8072,
      "\\\\\\\"": 8073,
      "parts": 8074,
      "---|": 8075,
      "Ġpreventing": 8076,
      "ĠRich": 8077,
      "ilitary": 8078,
      "Ġperspective": 8079,
      "global": 8080,
      "Ġstreaming": 8081,
      "ico": 8082,
      "ĠThom": 8083,
      "havioral": 8084,
      "IO": 8085,
      "tags": 8086,
      "Ġce": 8087,
      "Ġspl": 8088,
      "help": 8089,
      "Ġdestroy": 8090,
      "NE": 8091,
      "Ġslo": 8092,
      "izz": 8093,
      "ĠBet": 8094,
      "Ġelectric": 8095,
      "ano": 8096,
      "ĠSmith": 8097,
      "Ġanswers": 8098,
      "Ġfigures": 8099,
      "nders": 8100,
      "Ġextens": 8101,
      "iforn": 8102,
      "Ġchance": 8103,
      "ĠMake": 8104,
      "Ġabstract": 8105,
      "Title": 8106,
      "VAL": 8107,
      "diff": 8108,
      "Ġnu": 8109,
      "ĠThink": 8110,
      "final": 8111,
      "clusive": 8112,
      "ĠCurrent": 8113,
      "aper": 8114,
      "Ġking": 8115,
      "question": 8116,
      "ĠShared": 8117,
      "iesel": 8118,
      "vies": 8119,
      "speed": 8120,
      "possible": 8121,
      "Ġrele": 8122,
      "Ġoptimistic": 8123,
      "ĠOptional": 8124,
      "Map": 8125,
      "Ġcompound": 8126,
      "pat": 8127,
      "ĠObject": 8128,
      "Ġlies": 8129,
      "Ġalter": 8130,
      "\"?": 8131,
      "Ġdialog": 8132,
      "Ġvarieties": 8133,
      "uits": 8134,
      "Ġcancer": 8135,
      "Ġmodes": 8136,
      "Ġpul": 8137,
      "rest": 8138,
      "Ġencaps": 8139,
      "Ġprocedures": 8140,
      "\\\",\\\"": 8141,
      "ĠFiles": 8142,
      "Pri": 8143,
      "Ġagricult": 8144,
      "Ġconverted": 8145,
      "Usage": 8146,
      "Ġdy": 8147,
      "Bob": 8148,
      "Ġmilk": 8149,
      "bles": 8150,
      "Char": 8151,
      "Ġbfd": 8152,
      "Ġflower": 8153,
      "andom": 8154,
      "Ġralph": 8155,
      "Ġconsiderable": 8156,
      "ĠMal": 8157,
      "anted": 8158,
      "plug": 8159,
      "Ġrapidly": 8160,
      "quis": 8161,
      "ship": 8162,
      "Ġencoding": 8163,
      "Network": 8164,
      "Ġfunctionality": 8165,
      "Ġproxy": 8166,
      "Pr": 8167,
      "Ġcolon": 8168,
      "Ġoptimization": 8169,
      "even": 8170,
      "hol": 8171,
      "Ġsuffer": 8172,
      "column": 8173,
      "Ġtargeting": 8174,
      "adapter": 8175,
      "Ġgaps": 8176,
      "ora": 8177,
      "Ġ'#": 8178,
      "Ġstrip": 8179,
      "Ġsegmentation": 8180,
      "(()": 8181,
      "Ġdiscovery": 8182,
      "Ġpid": 8183,
      "pag": 8184,
      "ĠLat": 8185,
      "Ġreferences": 8186,
      "Ġserious": 8187,
      "ĠJournal": 8188,
      "Ġgrown": 8189,
      "Ġ***": 8190,
      "derive": 8191,
      "forEach": 8192,
      "Alright": 8193,
      "Ob": 8194,
      "meta": 8195,
      "Ġ_>_>": 8196,
      "Ġsnippet": 8197,
      "none": 8198,
      "settings": 8199,
      "ĠPass": 8200,
      "Ġprices": 8201,
      "losing": 8202,
      "Ġtechnique": 8203,
      "Ġ\"**\"": 8204,
      "DR": 8205,
      "ued": 8206,
      "edu": 8207,
      "Ġforth": 8208,
      "admin": 8209,
      "trim": 8210,
      "ĠOrgan": 8211,
      "fgets": 8212,
      "Ġfraud": 8213,
      "linux": 8214,
      "ĠEqu": 8215,
      "Ġexponential": 8216,
      "ustration": 8217,
      "lable": 8218,
      "ĠJavaScript": 8219,
      "ĠGerman": 8220,
      "aot": 8221,
      "Ġsuitable": 8222,
      "Ġexposure": 8223,
      "ĠWilliam": 8224,
      "Anal": 8225,
      "Ġworker": 8226,
      "Ġaligning": 8227,
      "rwx": 8228,
      "orig": 8229,
      "Ġpending": 8230,
      "ĠBUFFER": 8231,
      "Casc": 8232,
      "Ġpresented": 8233,
      "finish": 8234,
      "fol": 8235,
      "\").": 8236,
      "ln": 8237,
      "rm": 8238,
      "')\\": 8239,
      "Based": 8240,
      "ĠDoes": 8241,
      "Ġextent": 8242,
      ")?": 8243,
      "Ġtm": 8244,
      "Ġdensity": 8245,
      "();\"": 8246,
      "Ġdwell": 8247,
      "bac": 8248,
      "Ġtion": 8249,
      "ĠBen": 8250,
      "Ġdepos": 8251,
      "ĠREADME": 8252,
      "'`": 8253,
      "Ġdefeat": 8254,
      "atible": 8255,
      "Ġlim": 8256,
      "ĠView": 8257,
      "Ġproximity": 8258,
      "Ġmonitor": 8259,
      "_;\\": 8260,
      "ingly": 8261,
      "Ġdire": 8262,
      "Ġ([": 8263,
      "Ġgoals": 8264,
      "Rep": 8265,
      "stone": 8266,
      "engineering": 8267,
      "Ġcombination": 8268,
      "Ġimplies": 8269,
      "Ġinsights": 8270,
      "SO": 8271,
      "utive": 8272,
      "Ġneighbor": 8273,
      "Ġreligious": 8274,
      "DO": 8275,
      "Ġau": 8276,
      "quote": 8277,
      "Ġsweet": 8278,
      "reek": 8279,
      "ji": 8280,
      "Ġvital": 8281,
      "Ġ!==": 8282,
      "issance": 8283,
      "Ġtemper": 8284,
      "Ġciph": 8285,
      "Ġposit": 8286,
      "Ġlam": 8287,
      "Ġshot": 8288,
      "__.": 8289,
      "ear": 8290,
      "Ġtill": 8291,
      "Ġhorse": 8292,
      "Ġfamiliar": 8293,
      "Ġpathways": 8294,
      "car": 8295,
      "Ġfav": 8296,
      "ĠRiver": 8297,
      "Ġpytest": 8298,
      "Ġmeant": 8299,
      "Ġpurposes": 8300,
      "Ġscientists": 8301,
      "umes": 8302,
      "Ġdesc": 8303,
      "powered": 8304,
      "ĠConfig": 8305,
      "glob": 8306,
      "Ġaccompl": 8307,
      "Ġphenomen": 8308,
      "pres": 8309,
      "Ġ($": 8310,
      "oot": 8311,
      "role": 8312,
      "Gr": 8313,
      "assion": 8314,
      "inks": 8315,
      "Ġmaintainable": 8316,
      "Ġmsg": 8317,
      "Ġauthors": 8318,
      "ĠPerform": 8319,
      "osis": 8320,
      "urt": 8321,
      "Ġhear": 8322,
      "gebra": 8323,
      "Ġsqlite": 8324,
      "cpython": 8325,
      "Ġgrows": 8326,
      "ĠJapan": 8327,
      "Ġbelief": 8328,
      "Ġcampaign": 8329,
      "ses": 8330,
      "Ġ[\\": 8331,
      "ĠLab": 8332,
      "Ġmock": 8333,
      "Ġsensitive": 8334,
      "------------------------------------------------": 8335,
      "Ġpotentially": 8336,
      "ĠDiv": 8337,
      "ovember": 8338,
      "Ġexistence": 8339,
      "Ġincons": 8340,
      "ĠSeptember": 8341,
      "edits": 8342,
      "ĠEmp": 8343,
      "():\\": 8344,
      "appy": 8345,
      "unte": 8346,
      "ĠUnit": 8347,
      "oll": 8348,
      "Ġdefaults": 8349,
      "stood": 8350,
      "Ġprepared": 8351,
      "cuda": 8352,
      "Ġconsistently": 8353,
      "tee": 8354,
      "Ġcelebr": 8355,
      "ĠFurthermore": 8356,
      "Ġreq": 8357,
      "ĠSchool": 8358,
      "These": 8359,
      "istical": 8360,
      "ĠCI": 8361,
      "Ġdemands": 8362,
      "ĠBel": 8363,
      "cards": 8364,
      "ĠDocker": 8365,
      "foot": 8366,
      "Ġdeveloper": 8367,
      "Ġsmart": 8368,
      "Ġinvolve": 8369,
      "cpu": 8370,
      "ĠTim": 8371,
      "Other": 8372,
      "ERS": 8373,
      "Ġcandidate": 8374,
      "amper": 8375,
      "ademic": 8376,
      "Ġ**\"": 8377,
      "Ġiron": 8378,
      "(\"/": 8379,
      "Ġprevents": 8380,
      "multi": 8381,
      "ĠCross": 8382,
      "ĠEstablish": 8383,
      "entle": 8384,
      "processing": 8385,
      "union": 8386,
      "habit": 8387,
      "Ġsearches": 8388,
      "Ġadvent": 8389,
      "Ġhint": 8390,
      "ĠWild": 8391,
      "ĠNat": 8392,
      "ĠOctober": 8393,
      "Ġfluid": 8394,
      "Ġanswering": 8395,
      "bottom": 8396,
      "ertext": 8397,
      "vector": 8398,
      "Ġrecip": 8399,
      "_).\\": 8400,
      "Function": 8401,
      "Acc": 8402,
      "Ġtro": 8403,
      "Manage": 8404,
      "ĠRecomm": 8405,
      "ĠImage": 8406,
      "ĠDeep": 8407,
      "ĠLinux": 8408,
      "Ġkilled": 8409,
      "Ġtopic": 8410,
      "nowledge": 8411,
      "ĠAccording": 8412,
      "}/": 8413,
      "Ġtiny": 8414,
      "ĠBay": 8415,
      "ĠPhil": 8416,
      "BC": 8417,
      "Ġremind": 8418,
      "bus": 8419,
      "Ġbirth": 8420,
      "ĠJames": 8421,
      "Ġscene": 8422,
      "Ġburn": 8423,
      "__/": 8424,
      "ĠCSV": 8425,
      "Ġcallback": 8426,
      "Ġdrive": 8427,
      "REL": 8428,
      "Ġbattle": 8429,
      "')\"": 8430,
      "Ġagents": 8431,
      "Ġinfinite": 8432,
      "Ġprogramming": 8433,
      "Ġmiddleware": 8434,
      "friend": 8435,
      "Ġship": 8436,
      "ynomial": 8437,
      "\\\"><": 8438,
      "[],": 8439,
      "Ġbank": 8440,
      "ĠContin": 8441,
      "Ġweap": 8442,
      "Ġapart": 8443,
      "Ġanomalies": 8444,
      "-\\": 8445,
      "Ġtoast": 8446,
      "ĠMax": 8447,
      "Ġgun": 8448,
      ">')]": 8449,
      "Ġhardening": 8450,
      "azy": 8451,
      "Ġcertific": 8452,
      "OP": 8453,
      "ĠOverview": 8454,
      "Ġreasons": 8455,
      "Ġnarr": 8456,
      "Ġprove": 8457,
      "Ġcompact": 8458,
      "teen": 8459,
      "keep": 8460,
      "ebook": 8461,
      "ifornia": 8462,
      "Ġhair": 8463,
      "ady": 8464,
      "channel": 8465,
      "Ġmyself": 8466,
      "RS": 8467,
      "osp": 8468,
      "Ġdefin": 8469,
      "rices": 8470,
      "abet": 8471,
      "âĶģ": 8472,
      "ralph": 8473,
      "ĠActix": 8474,
      "Ġteams": 8475,
      "'])": 8476,
      "orse": 8477,
      "Ġintrusion": 8478,
      "Ġambig": 8479,
      "ĠDirect": 8480,
      "floor": 8481,
      "ĠDOM": 8482,
      "osystem": 8483,
      "libr": 8484,
      "Ġcontexts": 8485,
      "Ġrecognition": 8486,
      "Ġobvious": 8487,
      "Ġplane": 8488,
      "apsed": 8489,
      "Ġcollected": 8490,
      "hex": 8491,
      "xml": 8492,
      "Ġreusable": 8493,
      "Ġpoll": 8494,
      "eness": 8495,
      "Return": 8496,
      "textContent": 8497,
      "Ġrefuse": 8498,
      "Ġmirror": 8499,
      "cular": 8500,
      "kind": 8501,
      "Ġconsequ": 8502,
      "Ġconstruction": 8503,
      "Ġcommer": 8504,
      "Ġcoeffic": 8505,
      "Mean": 8506,
      "Ġsimplest": 8507,
      "Ġhol": 8508,
      ")__": 8509,
      "note": 8510,
      "Ġprincipal": 8511,
      "non": 8512,
      "some": 8513,
      "Note": 8514,
      "Ġcomfort": 8515,
      "Ġchosen": 8516,
      "aph": 8517,
      "Ġenfor": 8518,
      "ĠGame": 8519,
      "ĠIde": 8520,
      "ĠDel": 8521,
      "Ġfinished": 8522,
      "Ġcharts": 8523,
      "arding": 8524,
      ",\"%": 8525,
      "Ġwoman": 8526,
      "Ġintervals": 8527,
      "Length": 8528,
      "ĠSum": 8529,
      "Conclusion": 8530,
      "ĠNa": 8531,
      "atest": 8532,
      "Ġ`'": 8533,
      "Ġaddr": 8534,
      "should": 8535,
      "Ġasks": 8536,
      "ĠWhite": 8537,
      "Fi": 8538,
      "gage": 8539,
      "views": 8540,
      "Ġstores": 8541,
      "Ġ'{": 8542,
      "Ġreader": 8543,
      "Ġannual": 8544,
      "Ġnoticed": 8545,
      "rum": 8546,
      "Ġrg": 8547,
      "Ġbits": 8548,
      "ĠMost": 8549,
      "Ġlowercase": 8550,
      "Ġabsor": 8551,
      "labeled": 8552,
      "Ġadhere": 8553,
      "Ġflexible": 8554,
      "Rout": 8555,
      "Ġbehavioral": 8556,
      "whel": 8557,
      "Ġsac": 8558,
      "Ġ{},": 8559,
      "Ġspeak": 8560,
      "Ġtensor": 8561,
      "report": 8562,
      "Ġindicates": 8563,
      "Array": 8564,
      "Ġvelocity": 8565,
      "IES": 8566,
      "ĠSun": 8567,
      "stock": 8568,
      "ĠInput": 8569,
      "Ġcomprehension": 8570,
      "Summary": 8571,
      "DA": 8572,
      "ushort": 8573,
      "nxt": 8574,
      "Ġplaying": 8575,
      "aud": 8576,
      "cember": 8577,
      "Ġring": 8578,
      "Ġimag": 8579,
      "Gen": 8580,
      "ĠIndia": 8581,
      ":.": 8582,
      "Ġresistance": 8583,
      "Ġpd": 8584,
      "Ġprovider": 8585,
      "Ġexposed": 8586,
      "Ġpromin": 8587,
      "Struct": 8588,
      "ĠMag": 8589,
      "`).": 8590,
      "custom": 8591,
      "ĠStore": 8592,
      "Ġactor": 8593,
      "Modal": 8594,
      "xygen": 8595,
      "press": 8596,
      "))(": 8597,
      "Ġunc": 8598,
      "LECT": 8599,
      "ech": 8600,
      "ĠClass": 8601,
      "ĠÂł": 8602,
      "Ġconsists": 8603,
      "columns": 8604,
      "Ġ_>,_": 8605,
      "Ġperfectly": 8606,
      "sd": 8607,
      "Ġordinary": 8608,
      "ĠEnvironmental": 8609,
      "*.": 8610,
      "Ġcluster": 8611,
      "Ġast": 8612,
      "ĠEnt": 8613,
      "Ġ\"'": 8614,
      "ymous": 8615,
      "Ġcoverage": 8616,
      "easy": 8617,
      "Ġ##": 8618,
      "Ġwish": 8619,
      "ansion": 8620,
      "Ġ\"/*": 8621,
      "bits": 8622,
      "Ġmanager": 8623,
      "inity": 8624,
      "READ": 8625,
      "Ġ'%": 8626,
      "ĠConnect": 8627,
      "fields": 8628,
      "ros": 8629,
      "Ġstars": 8630,
      "Ġfascinating": 8631,
      "ĠJew": 8632,
      "loading": 8633,
      "Ġappeared": 8634,
      "aling": 8635,
      "CESS": 8636,
      "Ġaccordingly": 8637,
      "channels": 8638,
      "Ġmitig": 8639,
      "Ġyes": 8640,
      "oped": 8641,
      "shape": 8642,
      "Ġbasis": 8643,
      "ĠHy": 8644,
      "Ġstem": 8645,
      "Ġsimplicity": 8646,
      "ĠMain": 8647,
      "products": 8648,
      "Ġseam": 8649,
      "ĠDay": 8650,
      "Ġsmallest": 8651,
      "ria": 8652,
      ".\");": 8653,
      "utf": 8654,
      "defense": 8655,
      "Failed": 8656,
      "vity": 8657,
      "Ġdie": 8658,
      "Ġpapers": 8659,
      "sty": 8660,
      "Ġjobs": 8661,
      "pSVar": 8662,
      "Ġsustain": 8663,
      "nested": 8664,
      "Ġfreedom": 8665,
      "Ġsites": 8666,
      "ANY": 8667,
      "Ġprotected": 8668,
      "bound": 8669,
      "Ġbin": 8670,
      "uncating": 8671,
      "Ġexercise": 8672,
      "Arg": 8673,
      "Ġconflicts": 8674,
      "ě[": 8675,
      "Ġfurn": 8676,
      "reader": 8677,
      "dirs": 8678,
      "draw": 8679,
      "ĠBlack": 8680,
      "ĠOper": 8681,
      "depend": 8682,
      "Ġexamine": 8683,
      "Ġliquid": 8684,
      "ĠAR": 8685,
      "Ġmessaging": 8686,
      "Ġdescribe": 8687,
      "oved": 8688,
      "Ġgone": 8689,
      "Where": 8690,
      "pdVar": 8691,
      "Ġ'@": 8692,
      "CP": 8693,
      "Ġfert": 8694,
      "Ġperformed": 8695,
      "Ġcontribute": 8696,
      "going": 8697,
      "Ġinterested": 8698,
      "Ġrecursive": 8699,
      "-|": 8700,
      "Ġ')": 8701,
      "Ġdelivery": 8702,
      "ĠCalculation": 8703,
      "Ġdt": 8704,
      "Ġseparator": 8705,
      "imp": 8706,
      "escription": 8707,
      "Ġdecide": 8708,
      "Ġconcurrent": 8709,
      "[^": 8710,
      "vider": 8711,
      "Ġkinds": 8712,
      "Ġtherm": 8713,
      "ĠuStack": 8714,
      "ĠHol": 8715,
      "lik": 8716,
      "Ġmixed": 8717,
      "ĠSecond": 8718,
      "bot": 8719,
      "âĶģâĶģ": 8720,
      "quantity": 8721,
      "IM": 8722,
      "Ġlived": 8723,
      "servation": 8724,
      "Ġextensions": 8725,
      "ĠIdent": 8726,
      "Ġvill": 8727,
      "Ġbond": 8728,
      "ctionaries": 8729,
      "ĠBack": 8730,
      "dataset": 8731,
      "erialize": 8732,
      "Ġfoundation": 8733,
      "Ġreferencing": 8734,
      "Ġfriction": 8735,
      "paVar": 8736,
      "incre": 8737,
      "ĠMrs": 8738,
      "gres": 8739,
      "ĠText": 8740,
      "assert": 8741,
      "Ġmultiply": 8742,
      "(\\\"\\\\": 8743,
      "Ġdrawn": 8744,
      "spn": 8745,
      "Ġleader": 8746,
      "Ġghost": 8747,
      "icense": 8748,
      "reating": 8749,
      "Ġregression": 8750,
      "Ġformats": 8751,
      "Ġopportunity": 8752,
      "Ġhumans": 8753,
      "amount": 8754,
      "Ġfinishes": 8755,
      "Ġreconsider": 8756,
      "dup": 8757,
      "Ġactors": 8758,
      ")=": 8759,
      "Ġack": 8760,
      "eros": 8761,
      "letter": 8762,
      "Ġagreement": 8763,
      "Relobj": 8764,
      "ads": 8765,
      "ĠEvent": 8766,
      "ĠMean": 8767,
      "Ġreprodu": 8768,
      "wiki": 8769,
      "sections": 8770,
      "Ġ\"#": 8771,
      "rb": 8772,
      "ĠEuropean": 8773,
      "Ġreflecting": 8774,
      "timestamp": 8775,
      "Ġmand": 8776,
      "library": 8777,
      "Ġseeing": 8778,
      "Ġsolar": 8779,
      "OS": 8780,
      "Ġ{{": 8781,
      "Ġcontemporary": 8782,
      "Ġdivide": 8783,
      "Ġfraction": 8784,
      "Ġlessons": 8785,
      "Ġpatient": 8786,
      "Maximum": 8787,
      "Ġsugar": 8788,
      "Ġrespects": 8789,
      "Ġloads": 8790,
      "ipeline": 8791,
      "identiality": 8792,
      "psVar": 8793,
      "Ġtargets": 8794,
      "Ġhelper": 8795,
      "Arch": 8796,
      "Ġoverwhel": 8797,
      ")();\\": 8798,
      "seek": 8799,
      "ĠJo": 8800,
      "ris": 8801,
      "Ġhypot": 8802,
      "**,": 8803,
      "Ġvessel": 8804,
      "Ġawareness": 8805,
      "urable": 8806,
      "JMP": 8807,
      "Ġarbit": 8808,
      "Ġoptimal": 8809,
      "clean": 8810,
      "Ġstrongly": 8811,
      "Ġauthenticity": 8812,
      "apped": 8813,
      "}$$": 8814,
      "Ġwebsocket": 8815,
      "repo": 8816,
      "Ġmatters": 8817,
      "Valid": 8818,
      "Ġworkflows": 8819,
      "connected": 8820,
      "Ġdf": 8821,
      "Ġgames": 8822,
      "END": 8823,
      "Ġstation": 8824,
      "Ġrelation": 8825,
      "Ġadvis": 8826,
      "operator": 8827,
      "Ġusual": 8828,
      "Ġextensive": 8829,
      "Â·": 8830,
      "Ġwalls": 8831,
      "ĠPress": 8832,
      "Ġmentally": 8833,
      "front": 8834,
      "Ġsystemic": 8835,
      "Ġthousands": 8836,
      "Enc": 8837,
      "distance": 8838,
      "gence": 8839,
      "Ġindices": 8840,
      "before": 8841,
      "Ġtiming": 8842,
      "Ġ(%": 8843,
      "ented": 8844,
      "ĠDepartment": 8845,
      "Ġintuitive": 8846,
      "Que": 8847,
      "Ġsympt": 8848,
      "Ġprompts": 8849,
      "Ġox": 8850,
      "ĠOAuth": 8851,
      "iant": 8852,
      "asets": 8853,
      "ectors": 8854,
      "Ġgrand": 8855,
      "processes": 8856,
      "insert": 8857,
      "Ġsurfaces": 8858,
      "YY": 8859,
      "Ġmobile": 8860,
      "anti": 8861,
      "pher": 8862,
      "cii": 8863,
      "Ġphishing": 8864,
      "ĠSom": 8865,
      "ĠOut": 8866,
      "nces": 8867,
      "ĠTruncating": 8868,
      "ford": 8869,
      "Ġhabits": 8870,
      "ĠSign": 8871,
      "access": 8872,
      "Ġmanipulation": 8873,
      "band": 8874,
      "Ġcrop": 8875,
      "JZ": 8876,
      "Ġuns": 8877,
      "ĠJanuary": 8878,
      "Ġreject": 8879,
      "Ġseven": 8880,
      "Ġforeign": 8881,
      "acent": 8882,
      "Ġcapable": 8883,
      "Ġdictionaries": 8884,
      "Ġreaders": 8885,
      "Ġcookies": 8886,
      "Ġlistening": 8887,
      "Ġcodes": 8888,
      "Ġinch": 8889,
      "Ġencomp": 8890,
      ").\",": 8891,
      "):**": 8892,
      "Ġbackup": 8893,
      "]]": 8894,
      "ĠCity": 8895,
      "ĠCorrect": 8896,
      "linear": 8897,
      "âĸĳâĸĳâĸĳâĸĳ": 8898,
      "\\\":\\": 8899,
      "Ġeventually": 8900,
      "posts": 8901,
      "Ġiniti": 8902,
      "Ġpsych": 8903,
      "Ġconcrete": 8904,
      "Ġopposite": 8905,
      "Ġpriorit": 8906,
      "optional": 8907,
      "attempts": 8908,
      "AIN": 8909,
      "correct": 8910,
      "Ġwip": 8911,
      "symtab": 8912,
      "Ġpercentage": 8913,
      "Ġarrange": 8914,
      "\\\":\\\"": 8915,
      "End": 8916,
      "rations": 8917,
      "Ġswe": 8918,
      "Ġransomware": 8919,
      "news": 8920,
      "SRIGHT": 8921,
      "Ġdied": 8922,
      "scanf": 8923,
      ")**": 8924,
      "Ġchecklists": 8925,
      "Info": 8926,
      "rain": 8927,
      "Ġsuggested": 8928,
      "received": 8929,
      "absolute": 8930,
      "flex": 8931,
      "ixed": 8932,
      "lt": 8933,
      "ĠCalifornia": 8934,
      "otic": 8935,
      "ĠMicro": 8936,
      "Ġlegs": 8937,
      "Ġfeels": 8938,
      "Ġdecor": 8939,
      ")$": 8940,
      "wood": 8941,
      "Ġelim": 8942,
      "ipment": 8943,
      "ĠClaude": 8944,
      "@@": 8945,
      "Ġreaction": 8946,
      "ĠHandle": 8947,
      "ĠSam": 8948,
      "ĠThird": 8949,
      "Ġparams": 8950,
      "ognition": 8951,
      "Ġtreated": 8952,
      "Ġdiameter": 8953,
      "Ġcircumst": 8954,
      "Ġwarnings": 8955,
      "Ġinterfaces": 8956,
      "Ġunivers": 8957,
      "Ġneut": 8958,
      "ĠTw": 8959,
      "rolled": 8960,
      "Ġmajority": 8961,
      "UP": 8962,
      "Ġpec": 8963,
      "atever": 8964,
      "ĠColle": 8965,
      ":',": 8966,
      "Cons": 8967,
      "Par": 8968,
      "ĠLike": 8969,
      "ĠBoard": 8970,
      "Ġnit": 8971,
      "ĠDeploy": 8972,
      "Long": 8973,
      "oun": 8974,
      "ĠCloud": 8975,
      "Ġphysics": 8976,
      "Ġaffected": 8977,
      "ĠTypeScript": 8978,
      "ĠWord": 8979,
      "Ġproposed": 8980,
      "Ġassets": 8981,
      "{{": 8982,
      "clause": 8983,
      "Ġ*)))": 8984,
      "Ġbear": 8985,
      "Ġdistrict": 8986,
      "ĠBook": 8987,
      "Ġhandled": 8988,
      "ĠAssoci": 8989,
      "Ġembedded": 8990,
      "Sim": 8991,
      "Ġrocks": 8992,
      "children": 8993,
      "Ġdocs": 8994,
      "Ġingred": 8995,
      "alpha": 8996,
      "esh": 8997,
      "ĠSuch": 8998,
      "bi": 8999,
      "shadow": 9000,
      "Cloud": 9001,
      "Ġexfiltration": 9002,
      "Ġconditional": 9003,
      "Application": 9004,
      "eria": 9005,
      "raction": 9006,
      "Ġcircle": 9007,
      "Ġclim": 9008,
      "Ġfear": 9009,
      "playwright": 9010,
      "night": 9011,
      "ĠHen": 9012,
      "PUT": 9013,
      "zip": 9014,
      "ĠIter": 9015,
      "Ġcompile": 9016,
      "Ġextended": 9017,
      "cs": 9018,
      "pg": 9019,
      "running": 9020,
      "IVar": 9021,
      "unreachable": 9022,
      "PATH": 9023,
      "Ġinfer": 9024,
      "Ġalternatives": 9025,
      "Ġpale": 9026,
      "Ġupp": 9027,
      "Ġaren": 9028,
      "viation": 9029,
      "Ġcycles": 9030,
      "initial": 9031,
      ".;": 9032,
      "Ġmaster": 9033,
      "plays": 9034,
      "lots": 9035,
      "Before": 9036,
      "rl": 9037,
      "ĠCy": 9038,
      "Ġpred": 9039,
      ")^": 9040,
      "Ġimpossible": 9041,
      "WIDTH": 9042,
      "zone": 9043,
      "Ġgenus": 9044,
      "Ġposterior": 9045,
      "Ġrespecting": 9046,
      "will": 9047,
      "Ġreceiving": 9048,
      "ĠGaps": 9049,
      "wargs": 9050,
      "------": 9051,
      "Ġmaintenance": 9052,
      "Ġnotification": 9053,
      "ĠRuss": 9054,
      "accent": 9055,
      "ruary": 9056,
      "ĠCannot": 9057,
      "Ġpseudo": 9058,
      "ben": 9059,
      "Ġ\\\"===": 9060,
      "Ġencountering": 9061,
      "ĠWIDTH": 9062,
      "Ġassess": 9063,
      "ental": 9064,
      "Ġpitfalls": 9065,
      "Found": 9066,
      "Ġfeeds": 9067,
      "bum": 9068,
      "âĶĢâĶĢâĶĢâĶĢâĶĢâĶĢâĶĢâĶĢâĶĢâĶĢâĶĢâĶĢ": 9069,
      "Ġpanel": 9070,
      "acting": 9071,
      "Ġcancel": 9072,
      "mean": 9073,
      "Ġsimpler": 9074,
      "Ġcues": 9075,
      "ĠFlow": 9076,
      ")))))))": 9077,
      "Ġarticles": 9078,
      "Ġteeth": 9079,
      "ĠName": 9080,
      "Ġmeasured": 9081,
      "storage": 9082,
      "Ġpathway": 9083,
      "uries": 9084,
      "Ġcertainly": 9085,
      "********": 9086,
      ")}</": 9087,
      "Ġsaying": 9088,
      "Ġexecuting": 9089,
      "around": 9090,
      "Ġdive": 9091,
      "ĠInformation": 9092,
      "ĠDetermine": 9093,
      "Ġideal": 9094,
      "Ġstale": 9095,
      "Ġcurve": 9096,
      "**.": 9097,
      "Ġunders": 9098,
      "Final": 9099,
      "Ġ\\$": 9100,
      "ĠClean": 9101,
      "Ġobl": 9102,
      "ĠTHREE": 9103,
      "Eng": 9104,
      "cols": 9105,
      "Ġinet": 9106,
      "ails": 9107,
      "CES": 9108,
      "ĠExper": 9109,
      "Ġgracefully": 9110,
      "Find": 9111,
      "Ġplans": 9112,
      "Ġfacts": 9113,
      "John": 9114,
      "ĠBase": 9115,
      "Ġcustomer": 9116,
      "ĠAlgorithm": 9117,
      "nel": 9118,
      "Ġplate": 9119,
      ",.": 9120,
      "Ġiterations": 9121,
      "plicated": 9122,
      "innerHTML": 9123,
      "Ġoccurred": 9124,
      "ounced": 9125,
      "ĠMc": 9126,
      "-%": 9127,
      "ĠAv": 9128,
      "ĠOb": 9129,
      "Ġsell": 9130,
      "(\\\"#": 9131,
      "Ġrespectively": 9132,
      "atar": 9133,
      "steps": 9134,
      "ij": 9135,
      "ĠTimes": 9136,
      "uster": 9137,
      "Ġlie": 9138,
      "Ġpeace": 9139,
      "Ġecosystem": 9140,
      "Hub": 9141,
      "oT": 9142,
      "ĠFinally": 9143,
      "Ġstructured": 9144,
      "ulonglong": 9145,
      "\";\"": 9146,
      "bid": 9147,
      "Ġanter": 9148,
      "Ġprinted": 9149,
      "errors": 9150,
      "Ġaw": 9151,
      "ago": 9152,
      "ĠExtract": 9153,
      "slice": 9154,
      "arial": 9155,
      "Ġregex": 9156,
      "Ġha": 9157,
      "ĠIncre": 9158,
      "functions": 9159,
      "strcspn": 9160,
      "ĠZustand": 9161,
      "rig": 9162,
      "Ġstages": 9163,
      "ĠplVar": 9164,
      "Ġtightly": 9165,
      "Ġbott": 9166,
      "Ġintroduce": 9167,
      "Ġmeasurement": 9168,
      "Ġmel": 9169,
      "osing": 9170,
      "Another": 9171,
      "Ġ[],": 9172,
      "ARY": 9173,
      "ĠEthics": 9174,
      "Ġexpose": 9175,
      "Ġinternational": 9176,
      "Document": 9177,
      "Ġstable": 9178,
      "feature": 9179,
      "ĠFail": 9180,
      "green": 9181,
      "ĠProvide": 9182,
      "Ġsalt": 9183,
      "area": 9184,
      "Ġautomation": 9185,
      "Ġmanaged": 9186,
      "Ġscatter": 9187,
      "Ġclone": 9188,
      "Timeout": 9189,
      "ĠHEIGHT": 9190,
      "atial": 9191,
      "CII": 9192,
      "ĠPark": 9193,
      "lecting": 9194,
      "Py": 9195,
      "edge": 9196,
      "nprint": 9197,
      "upper": 9198,
      "ĠGeorge": 9199,
      "Ġasc": 9200,
      "Ġtransparent": 9201,
      "ĠLO": 9202,
      "ĠComplexity": 9203,
      "folder": 9204,
      "oa": 9205,
      "ĠNovember": 9206,
      "Ġexpansion": 9207,
      "Ġdivers": 9208,
      "Ġanimation": 9209,
      "omatic": 9210,
      "Ġtransient": 9211,
      "Ġulong": 9212,
      "Ġcommunic": 9213,
      "({'": 9214,
      "Ġmemcpy": 9215,
      "backend": 9216,
      "Ġprimarily": 9217,
      "ĠNum": 9218,
      "Ġmilitary": 9219,
      "Btn": 9220,
      "gra": 9221,
      "ĠTom": 9222,
      "Ġsplitting": 9223,
      "nEnter": 9224,
      "aked": 9225,
      "Ġkits": 9226,
      "Ġallocated": 9227,
      "best": 9228,
      "Ġfread": 9229,
      "Ġinser": 9230,
      "ĠNote": 9231,
      "Ġboot": 9232,
      "PR": 9233,
      "Ġinterpreted": 9234,
      "Ġteachers": 9235,
      "bca": 9236,
      "irty": 9237,
      "./": 9238,
      "README": 9239,
      "Ġconsumption": 9240,
      "nally": 9241,
      "upy": 9242,
      "Ġsnow": 9243,
      "ĠChristian": 9244,
      "Ġgentle": 9245,
      "naissance": 9246,
      "Ġentered": 9247,
      "Ġblocking": 9248,
      "Ġdrug": 9249,
      "recv": 9250,
      "Ġfaith": 9251,
      "ushed": 9252,
      "component": 9253,
      "Ġstrcmp": 9254,
      "Build": 9255,
      "Ġrely": 9256,
      "pop": 9257,
      "Ġmanual": 9258,
      "Ġreads": 9259,
      "counts": 9260,
      "Ġbene": 9261,
      "Ġjoined": 9262,
      "Ġplatforms": 9263,
      "Room": 9264,
      "ĠArango": 9265,
      "Ġaccepted": 9266,
      "ĠArangoDB": 9267,
      "torch": 9268,
      "enth": 9269,
      "Ġserde": 9270,
      "Ġexpects": 9271,
      "Ġuploads": 9272,
      "ĠStructure": 9273,
      "Base": 9274,
      "aml": 9275,
      "startswith": 9276,
      "Ġdollar": 9277,
      "Ġemotion": 9278,
      "ĠChat": 9279,
      "Sw": 9280,
      "Ġthereby": 9281,
      "itories": 9282,
      "poch": 9283,
      "Ġapplying": 9284,
      "lim": 9285,
      "sts": 9286,
      "Ġwire": 9287,
      "Ġchurch": 9288,
      "ĠSte": 9289,
      "Ġphilosoph": 9290,
      "Ġwheel": 9291,
      "Ġavoiding": 9292,
      "messages": 9293,
      "Ġcalculated": 9294,
      "clone": 9295,
      "Ġgreatly": 9296,
      "Ġtrouble": 9297,
      "Ġmovie": 9298,
      "tokio": 9299,
      "ĠAccept": 9300,
      "tf": 9301,
      "Ġstated": 9302,
[...]
